#version: 0.2 - Trained by `huggingface/tokenizers`
Ġ t
Ġ a
h e
i n
r e
Ġt he
o n
e r
Ġ s
Ġ w
a t
Ġ o
e n
Ġ c
i t
i s
a n
o r
Ġ b
e s
e d
Ġ f
in g
Ġ p
o u
Ġa n
a l
Ġt o
a r
Ġ m
Ġ in
Ġo f
Ċ Ġ
Ġ h
Ġ d
ĊĠ Ċ
â Ģ
a s
i c
Ġan d
Ġt h
l e
o m
i on
l l
en t
Ġ n
Ġ T
Ġ l
Ġ re
s t
v e
Ġ e
l y
r o
Ġb e
Ġ g
i d
Ġ I
u t
a c
o t
Ġ S
Ġ A
Ġth at
Ġ on
a y
Ġ is
e t
i m
a m
a d
o w
s e
i g
Ġf or
âĢ Ļ
Ġ C
v er
u r
c t
l d
Ġ u
Ġs t
Ġ y
Ġ M
Ġ it
Ġ he
i r
at ion
it h
Ġ B
Ġw h
c e
t er
ĠT he
o l
Ġw e
Ġ âĢ
i l
Ġw ith
Ġa s
Ġ P
c h
i ll
n d
Ġ W
Ġw as
Ġy ou
er s
k e
Ġ H
Ġc on
Ġd e
Ġ r
i f
he r
Ġ D
at e
Ġa t
a g
Ġ R
Ġh a
Ġs e
Ġ F
Ġ 1
o re
Ġp ro
u l
p p
m ent
r i
Ġa re
es t
u s
is t
Ġc om
Ġ 2
an d
o p
a in
Ġ (
Ġ N
ig h
r om
or t
o d
Ġn e
u n
u m
Ġe x
ĠâĢ ľ
Ġ G
re s
a b
âĢ Ŀ
Ġn ot
Ġ v
Ġ L
es s
Ġha ve
it y
ou ld
e m
Ġo r
t h
Ġb y
o s
an t
i ve
Ġf rom
Ġa l
e l
Ġ E
' s
o c
Ġs u
ar t
Ġs h
Ġth is
n t
Ġ O
q u
igh t
p e
u st
Ġ "
Ġ le
i es
Ġ J
en d
Ġc h
Ġs a
ou t
Ġa b
al l
i e
ac k
0 0
re d
Ġh as
al ly
Ġp l
Ġg o
ar d
i v
Ġh is
om e
a p
g h
o st
e ar
Ġt r
ou r
as t
Ġ j
a k
u d
Ġ U
Ġd o
Ġthe y
Ġb ut
Ġw or
r ou
Ġc an
g e
Ġw ill
Ġw he
Ġsa id
Ġ k
ic h
Ġa ll
o k
Ġwh o
id e
Ġin t
am e
an s
t her
i al
Ġo ut
Ġthe ir
f f
ĠT h
on g
e ct
p l
ic e
ĠI n
p t
u re
Ġm ore
on e
ag e
ion s
ac t
i ke
Ġm e
Ġu p
ou s
in e
Ġ K
Ġa d
Ġab out
at ed
r a
b er
Ġon e
Ġwe re
Ġs o
Ġu s
im e
o g
e p
ĠS t
Ġh ad
Ġ2 0
i a
a re
u b
c c
Ġw ould
Ġc l
Ġ im
Ġwh ich
in d
a ke
u e
Ġcon t
i z
ver y
Ġa g
Ġt e
Ġof f
Ġcom p
Ġu n
Ġbe en
Ġ en
s o
p er
a u
ig n
ar y
ac e
i p
Ġy ear
e w
Ġl ike
e re
v en
o ok
Ġin c
ay s
Ġm an
Ġp e
ĠI t
r y
o se
Ġre s
Ġp er
it e
ab le
as s
ĊĠ ĊĠ
or d
Ġs p
i re
Ġo ther
m er
Ġ Y
Ġ20 1
Ġs ome
i le
i b
en ce
op le
k s
ation s
Ġo ver
Ġthe re
ic al
Ġd is
res s
ul t
in t
ĠC h
Ġne w
ow n
Ġth an
Ġal so
Ġa r
Ġbe c
Ġthe m
an ce
r u
ou gh
ou nt
Ġa pp
p ort
Ġyou r
a il
Ġp art
Ġwhe n
Ġwh at
Ġ V
re e
on d
or m
Ġpe ople
Ġs c
f ter
Ġ 3
Ġ qu
as e
a v
Ġan y
Ġj ust
Ġit s
ac h
Ġt ime
Ġk n
Ġhe r
Ġm y
en s
Ġre c
l ic
Ġ if
ĠH e
Ġg et
re at
Ġ -
. âĢĿ
i an
Ġint o
Ġwor k
ou nd
Ġt w
ir st
ve l
Ġn o
ct ion
d u
ing s
or y
ic k
Ġo ur
it ion
id ent
or s
o b
Ġp re
o ve
an g
Ġpl ay
in k
w n
au se
am p
ad e
h ing
it t
at es
ar k
Ġ ro
Ġs he
Ġp ol
ver s
Ġ1 9
Ġc o
Ġa fter
, âĢĿ
n e
Ġc ould
Ġf irst
Ġh ow
i ous
Ġa cc
nd er
Ġh im
' t
i ld
a w
on s
Ġp o
Ġon ly
Ġf e
Ġat t
ĠW e
ic t
he d
ĠB ut
Ġp r
Ġtw o
o v
is h
Ġcom m
Ġs pe
f orm
Ġa ct
w e
er v
Ġb l
f t
Ġbe t
Ġde c
ĠW h
. "
Ġ 4
n ing
Ġb ack
ĠTh is
ĠâĢ ĵ
t e
c es
Ġm ost
ĠA nd
o od
c k
ĊĠĊĠ ĊĠĊ
Ġa m
o y
Ġd id
if f
rou gh
rou nd
at er
Ġag ain
ĠâĢ Ķ
u al
d ay
is e
Ġw ant
Ġd es
Ġu nder
. .
Ġ $
se l
u ll
Ġcon s
Ġbec ause
r it
Ġn ow
l ud
ent s
Ġyear s
m an
Ġ 5
ub lic
Ġne ed
ter n
e c
Ġe ven
is s
Ġin v
Ġkn ow
ĠU n
Ġse e
ment s
Ġad d
ĠA s
, "
c ed
o ld
Ġin d
Ġse c
Ġ [
f ore
T he
Ġe very
u ch
ur n
Ġm ake
Ġsu pp
pe ct
Ġe m
oc k
Ġthe se
ĠT r
o ll
Ġwhe re
j ect
x t
ation al
ver n
Ġb u
Ġl ook
os s
Ġd on
Ġe v
um p
Ġw ay
at ing
Ġr ight
Ġbe ing
Ġre m
i ly
n g
Ġm ay
Ġthe n
le ct
ro w
Ġman y
ie w
Ġd iff
Ġde f
Ġre l
on t
as on
Ġc all
Ġth ink
i ed
Ġinc lud
as ed
l es
ak ing
mer ic
Ġre g
Ġim p
) .
Ġth rough
ri b
at h
it ed
Ġsh ould
Ġs y
Ġs ay
Ġf l
Ġp res
Ġl ast
ur ing
Ġ very
Ġth ose
ow er
ot her
Ġm uch
if ic
it ies
Ġst ate
Ġb r
at ive
Ġsh ow
he n
t y
ĠR e
ar g
e ll
Ġwe ll
ot h
Ġ2 00
Ġp h
ĠN ew
Ġc ount
Ġdo es
al s
u nd
t ing
Ġ end
Ġo wn
Ġd own
ic s
ar ly
Ġbe l
Ġu se
ĠA meric
Ġas s
an ge
Ġl ong
ter s
in ce
Ġbe fore
- -
om et
g r
w ard
Ġm on
Ġgo vern
ib le
Ġst art
Ġre port
Ġ ke
u p
u es
t s
Ġf in
Ġte am
Ġ 6
b le
Ġm ade
if e
ol og
) ,
en er
Ġsu ch
ĠA l
re n
ou n
i x
ers on
c om
Ġs m
Ġgo ing
il ity
is m
Ġwor ld
f ul
e k
Ġhe l
ĠY ou
u ally
ist s
Ġst ud
Ġgo od
Ġa c
t ain
Ġsu b
Ġe ff
Ġs ur
Ġagain st
Ġs et
Ġg ame
y s
it s
or k
Ġg u
Ġpo int
Ġ ent
ar s
âĢ Ķ
g an
st em
00 0
i er
Ġpro v
Ġst ill
ĠI f
rou p
Ġwh ile
Ġhel p
ill ion
Ġle ad
Ġm in
we en
a x
an k
Ġo b
al k
m s
im es
Ġs ays
c y
Ġg r
Ġpro du
Ġin st
Ġin ter
Ġst r
i o
c ess
Ġs im
Ġcon f
sel f
Ġc ol
Ġt ake
Ġs ame
u res
Ġth ough
ar ch
Ġbet ween
Ġc r
Ġdiff ere
ĠA r
oll ow
Ġoff ic
ĠF or
us s
o ol
Ġdis c
e ver
he s
l and
a h
ut ion
Ġo p
Ġ ed
a ir
Ġh igh
re ad
ĠD e
Ġn um
Ġs ign
Ġl aw
w ay
g g
Ġgovern ment
n er
Ġ1 0
l ed
h ip
ro s
ĠThe y
am es
at ch
ĠA n
Ġ 7
an y
ĠL e
c ent
Ġt er
Ġs omet
ĠC om
Ġre f
vel op
Ġtr ans
Ġin s
Ġr un
Ġs er
ĠS h
ĠI s
Ġf ound
Ġhe re
Ġa round
iv es
Ġth ree
Ġm em
Ġm ed
at her
a ve
Ġre al
ou se
Ġus ed
Ġex p
v ed
ĠTr ump
a z
ce pt
o ot
Ġsy stem
ĠS e
Ġre ally
v ing
Ġm od
Ġsupp ort
c i
Ġg roup
c er
Ġc our
c on
ĠTh at
et s
al e
ĠC l
in s
Ġp ublic
Ġre t
Ġh and
Ġspe c
p h
y ing
Ġg reat
p r
en se
Ġs l
Ġex t
ĠThe re
Ġc ar
Ġ 8
Ġc ur
Ġf am
ire ct
al th
t on
. [
Ġha pp
Ġw om
Ġf act
Ġf r
Ġex per
Ġ 0
Ġc ap
Ġb oth
Ġf ind
Ġd ay
Ġre ad
ul ar
in es
Ġre p
o h
Ġd et
Ġ '
ut h
ic es
e red
Ġd uring
Ġc re
Ġb ig
m in
Ġmon th
Ġs erv
is ion
Ġde velop
ak es
Ġ 9
Ġp erson
i vers
ĠS o
Ġf ollow
Ġis s
Ġto ld
Ġs ince
ic ally
a red
ag es
Ġwe ek
at t
m ed
Ġw ar
Ġf ew
ĠO n
Ġc ent
ort h
ord ing
Ġle g
Ġpol it
ĠA d
a j
e f
g et
v es
as h
Ġex pl
Ġl ot
Ġbel ie
Ġg ener
ĠF r
Ġto o
Ġo pp
r ic
d er
re nt
at a
an c
i et
Ġcont in
Ġre qu
Ġpro t
Ġf il
e x
b ers
ĠP ro
ĠA t
Ġp ut
ent ion
n ess
Ġc le
Ġres p
iz ed
Ġan other
Ġin f
Ġsomet hing
ch ool
ĠâĢ ĺ
ĠH ow
Ġdiffere nt
Ġc or
Ġl oc
ut e
Ġinv est
Ġs oc
Ġ .
u c
Ġp ower
Ġcomm un
Ġar t
Ġp ass
Ġpl an
Ġl ife
t he
Ġhe ad
i ence
Ġth ings
i k
od y
Ġre le
Ġf ar
n ed
th ing
Ġm et
ar l
Ġp oss
Ġv ot
Ġc he
ros s
ere st
Ġc amp
Ġb o
ar ge
Ġm ight
ant s
Ġas k
v iew
Ġde p
iz e
Ġe ach
i ent
in ess
re t
ĠR ep
Ġne ver
Ġch ild
Ġne xt
ie ld
Ġsec ond
Ġqu est
ĠU S
Ġad v
Ġm ark
Ġb us
Ġde m
Ġcom e
Ġg ot
Ġb est
Ġop en
Ġall ow
ĠB l
it al
e e
itt le
s on
Ġse em
2 0
Ġp ost
Ġfe el
p le
Ġper cent
Ġp ri
c l
gr am
u g
Ġh ome
t en
Ġd irect
r at
Ġd ist
Ġw r
i red
Ġinc re
Ġcont ro
or n
os ed
Ġres ult
Ġh ard
Ġim port
Ġc are
Ġcomp le
ate ly
l ess
Ġpl ace
Ġwith out
Ġa v
Ġm illion
Ġinclud ing
ch n
Ġin form
Ġh um
con om
ĠI nd
ĠS he
Ġ ide
Ġpro ble
am a
Ġto p
Ġbu ild
Ġnum ber
g y
Ġ Z
a im
Ġcount ry
one y
Ġg l
Ġst and
ab ly
r al
Ġe l
c o
ri end
is hed
Ġf our
W e
Ġle t
Ġbet ter
Ġpart ic
w ays
Ġrec ent
Ġt ri
Ġm ov
Ġint erest
r ation
Ġl ess
Ġt urn
Ġl ittle
Ġse ason
Ġapp ro
Ġ Q
Ġbe h
Ġb ro
l ine
Ġcall ed
Ġm il
r act
Ġc ase
is ed
ĠW hen
ĠB e
Ġd r
a pp
ĠP h
Ġatt ack
Ġre st
Ġp op
en cy
Ġan n
Ġle ft
Ġm ove
l ing
Ġke ep
od e
Ġf un
Ġdid n
Ġf ull
in a
le g
er ing
Ġm ain
aj or
in al
t ed
Ġpre v
Ġt est
Ġeff ect
u ro
Ġus ing
Ġpro gram
m e
at ure
Ġv al
Ġp ay
ĠWh at
ĠAmeric an
_ _
b e
Ġpol ice
Ġfor m
Ġe conom
Ġp os
Ġnew s
Ġd ata
Ġw in
Ġle vel
ĠO b
ain s
Ġch ar
iv ing
in ed
read y
Ġsm all
u ck
Ġl ist
Ġs chool
t o
olog y
1 0
id ed
' re
g er
pl oy
Ġe as
Ġpro cess
I t
Ġwom en
ir d
n ce
Ġch ange
re en
ĠG o
Ġh ist
Ġcur rent
Ġp rom
ĠUn ited
i ans
Ġre ce
Ġd ri
ĠC an
Ġcomp any
Ġpres ident
Ġ =
us ed
oh n
Ġt y
Ġal ready
Ġ- -
i ver
ru ct
ĠCh r
r ap
Ġb re
Ġwh y
ĠA ll
Ġu nt
Ġm at
Ġal ways
Ġs ol
Ġex pect
Ġm oney
Ġl ater
Ġcl ass
Ġte chn
Ġbus iness
Ġb ook
Ġoffic ial
st and
Ġth ing
w it
Ġpro ject
Ġj ob
ĠS p
as es
ivers ity
Ġcl aim
Ġor gan
a ign
Ġ1 8
Ġ1 2
Ġt alk
Ġinform ation
ard s
a ff
Ġdes ign
Ġpro f
Ġab le
Ġch ang
e ad
.. .
Ġm ajor
Ġst ory
iv en
Ġhe alth
le ction
Ġre se
er tain
Ġp ast
Ġv is
ur s
Ġf ree
pt ion
ou th
he re
Ġa way
Ġo per
i or
Ġm ust
Ġc ity
ĠM r
ĠP l
ur al
amp le
ĠS c
ĠO ne
Ġhapp en
Ġimport ant
Ġs k
uth or
ĠT o
ĠM ar
ur ity
ac y
ĠJ ohn
Ġk ill
ur y
Ġo ld
u red
ĠP res
Ġv ar
Ġdoes n
end ing
Ġ est
Ġle ast
Ġp at
Ġg row
iss ion
Ġ1 5
ain ed
ĠC on
Ġed it
Ġc ost
el s
Ġte ll
Ġm en
id es
id er
ĠB r
Ġcon st
ot t
t t
Ġh op
Ġd ays
ne y
o x
Ġc ame
Ġst re
Ġcamp aign
Ġen ough
Ġa ff
Ġv iew
Ġk ind
ĠO r
Ġm aking
cc ess
er n
s ide
s c
Ġm ar
Ġl arge
o ad
Ġfam ily
Ġrec ord
Ġf riend
ĠCom m
ĠRep ublic
Ġe lect
us h
Ġt ax
le y
er al
Ġpol ic
Ġs it
âĢ ¦
al ity
r or
is ing
at or
pp ed
Ġunt il
T h
if ied
ion al
Ġv ide
iv ed
ĠN o
Ġpolit ical
ĠM c
Ġde al
are nt
ri es
al f
au gh
Ġwork ing
Ġl ine
-- --
Ġto ok
u ed
Ġde b
Ġ ve
ap s
Ġf ore
ĠM ay
b s
ain ing
ĠD em
on y
Ġa ir
is ter
Ġ es
an e
Ġde l
Ġbec ome
Ġact ually
Ġin tern
oc rat
i ol
Ġme an
ĠR uss
b y
em ber
Ġ1 1
w ork
ĠS y
Ġf und
w are
Ġof ten
ĠE uro
Ġfor mer
Ġg ive
Ġe ver
Ġw on
Ġacc ording
m ost
o int
en g
ĠPres ident
y ear
an n
Ġg ames
i qu
Ġret urn
ar ing
Ġhum an
Ġwor d
Ġ ,
Ġb as
is on
iz ation
Ġor der
Ġn ame
Ġt imes
g in
w h
ĠW ith
ĠA m
i ber
Ġde v
Ġ19 9
r on
it her
Ġb it
Ġse ver
ut ure
ic le
Ġper form
ĠC ol
E R
Ġchar ac
ra ft
Ġmark et
Ġs ing
Ġf ac
Ġdo ing
id d
Ġn ight
Ġr a
Ġapp ear
f or
Ġle ar
Ġplay ers
ak en
c hed
Ġl a
i am
Ġto day
Ġha ving
Ġse en
Ġe arly
Ġev ent
Ġmed ia
5 0
ro p
Ġsoc ial
Ġp ot
/ /
ĠT e
s h
Ġchild ren
Ġwhe ther
Ġc rit
i um
Ġcontro l
id ence
Ġsever al
m ber
Ġme et
Ġsu re
Ġp ress
Ġw ent
Ġf ive
ious ly
en e
art ment
Ġpro p
ĠA fter
Ġyou ng
Ġmil it
ĠOb ama
or ies
Ġe qu
Ġquest ion
le t
Ġlike ly
Ġo cc
ĠY ork
un e
Ġmem bers
and s
Ġen g
Ġc ertain
b r
ĠEuro pe
Ġw ater
ot s
Ġex ample
en n
Ġd one
Ġ vers
Ġar g
Ġs ide
ĠSt ates
Ġinv ol
Ġsh ort
Ġsu ccess
end ed
Ġ #
Ġan t
ĠN ot
Ġal ong
ver t
ent ial
Ġh our
1 1
b all
i ally
Ġmonth s
at s
em pt
ĠE x
ĠI m
Ġdes c
l f
ub l
ĠC o
Ġwith in
Ġcour se
ag ue
Ġf ight
Ġse x
u ff
ĠSt ate
Ġon ce
st er
Ġam ong
Ġ i
ul ation
im ate
Ġact iv
ur ch
re w
Ġf uture
n ect
it ing
Ġinvest ig
Ġ ]
Ġunder stand
Ġposs ible
ort un
Ġcon cer
Ġch o
on es
Ġme ans
Ġproble m
gg est
Ġa uthor
Ġpri v
Ġthough t
it ive
Ġv iol
Ġav ail
our n
Ġprodu ct
ĠHow ever
iv id
Ġkn own
oc i
Ġn on
g ress
Ġy et
Ġh old
Ġac ross
Ġprot ect
Ġ201 6
Ġloc al
al d
1 9
Ġcommun ity
Ġw rit
ĠP ol
l er
Ġf ail
Ġre ason
Ġ &
Ġsu ggest
in c
Ġm akes
Ġor ig
ĠChr ist
ar m
ver age
p or
ĠH ouse
Ġask ed
n ot
b ook
or ld
b ack
ed eral
Ġ3 0
Ġg iven
ag ed
Ġreport ed
ens ive
Ġm us
Ġ X
Ġother s
Ġstr ong
Ġbelie ve
Ġpro b
Ġvide o
ĠF l
Ġget ting
Ġb en
Ġl ight
an ces
ĠUn iversity
Ġann oun
o ber
ĠS en
ĠP r
ĠM in
Ġ ident
it ions
ore d
Ġc a
Ġs ent
Ġc ut
Ġl im
ir on
iet y
ĠWh ile
ĠDem ocrat
le ment
Ġcon d
m y
Ġs our
ur ther
Ġc reat
Ġ201 5
Ġ Â
as hing
' ve
Ġn et
ĠC ent
ĠD on
Ġn ational
Ġ1 6
re st
Ġstart ed
Ġsa f
Ġcl ose
3 0
Ġl and
Ġavail able
Ġde ath
as ter
Ġh ig
. ,
Ġind ust
Ġp ar
Ġb ased
Ġiss ue
Ġl ove
Ġl ow
Ġacc ount
Ġfollow ing
Ġhist ory
Ġm om
Ġem ploy
u se
sel ves
Ġag o
ĠAmeric a
1 2
ort s
ab ility
Ġcom es
Ġtr ying
Ġpart y
u ment
Ġal most
Ġser ies
u ly
ut es
Ġto get
Ġtoget her
Ġide a
ĠS ec
in ation
Ġf oc
o f
her s
Ġacc ess
ie f
il ar
re ed
ail s
Ġis n
ition al
res ent
A T
Ġcle ar
Ġ201 4
Ġadd ed
Ġtr ad
Ġpr act
p ro
Ġimp ro
Ġ1 4
ĠG r
ere nce
Ġexper ience
th ough
Ġfil m
ĠN e
Ġh alf
a f
ĠCan ad
g ed
re am
ĠB ro
ust om
Ġr ul
i en
un ch
Ġlook ing
r ing
Ġs ix
ivid ual
og rap
Ġany thing
ra el
Ġl ive
ĠE ng
r ict
Ġan al
wit ter
e b
Ġcomple te
Ġare a
int on
er man
ĠM an
Ġf av
min ist
Ġr is
Ġm iss
Ġpres ent
a i
Ġsay ing
n es
ĠS u
Ġb ad
ru g
ra w
Ġv ict
er t
ci ally
a id
Ġb ill
ĠN orth
ow s
Ġ1 3
ĠW ar
Ġt aken
ĠC ar
p s
u ge
Ġph ot
Ġm or
Ġcour t
Ġent ire
Ġtr y
Ġcomp et
at ors
Ġa ut
Ġbeh ind
Ġ z
' m
Ġt re
Ġ |
Ġ1 7
ward s
Ġ er
pl ay
Ġne ar
ĠN ow
Ġm ult
os p
Ġf ace
Ġsec urity
Ġmilit ary
ĠB ar
Ġpro per
ĠA f
âĢ ĵ
Ġ :
Ġdisc uss
ĠD ep
I N
Ġ /
Ġr ather
Ġto t
Ġind ividual
Ġth reat
Ġsing le
Ġstud y
ĠJ ust
ĠB rit
Ġm ind
1 5
Ġqu ick
Ġp ubl
ĠA b
ĠC al
at ic
Ġwant ed
Ġf all
ir c
Ġm ess
ap er
ĠIn st
Ġpolic y
ĠN ational
al es
Ġsome one
ĠH is
ĠCl inton
ĠR es
ll ing
id s
Ġf ood
Ġs um
ĠIs rael
ĠA pp
Ġbl ack
ĠE d
p ar
Ġc ult
o ff
Ġspec ial
Ġre du
ĠH ar
Ġbr ing
Ġplay er
Ġke y
Ġcom b
p ly
Ġatt empt
Ġcomp an
ĠThe se
ĠW orld
O N
s y
ĠA ust
ĠC ity
Ġt aking
ĠD av
ĠM y
Ġpre t
if y
Ġf oot
ĠM e
* *
Ġel se
ĠS ome
ol ution
el t
v iron
Ġb ody
Ġfr ont
Ġsp ace
Ġprob ably
Ġnot hing
c hes
ashing ton
: //
Ġc ou
ro te
ic ult
ĠG e
Ġj o
g o
Ġrese arch
. )
Ġcon nect
Ġs w
Ġcom ing
ĠG u
ĠP art
am ed
m ing
Ġpoint s
Ġhow ever
Ġdesc rib
h y
Ġe ar
a ult
c ing
Ġsim ilar
re me
Ġben ef
ĊĠĊĠ ĊĠĊĠĊĠĊ
Ġe ither
Ġsign ific
ĠB y
ĠJ an
Ġc oun
Ġdec ision
ull y
ir l
ac es
Ġex ist
Ġm ass
Ġs us
o ver
Ġ201 3
Ġt arg
Ġim m
Ġfe at
Ġcon v
an a
ĠW ashington
Ġh ouse
Ġen c
Ġright s
m b
Ġw a
as ing
Ġcre ate
Ġf urther
Ġh it
Ġd oc
Ġf ire
Ġch all
un g
y n
Ġw rote
Ġb an
Ġserv ice
Ġf ig
Ġth ird
ĠD o
ĠS outh
Ġre pl
Ġst op
Ġp ick
Ġcom pl
Ġbe gin
ive ly
Ġf ield
Ġiss ues
n ow
s w
Ġwho le
Ġrel ations
Ġst ep
Ġsu per
pp ing
I S
ri ed
Ġseem s
ent ly
Ġ201 2
Ġme as
a pe
Ġevery thing
w w
Ġc and
pe cially
Ġd am
itt ed
Ġex ec
Ġtr a
Ġcompan ies
Ġe y
Ġf ederal
Ġro om
p ite
ĠA cc
A N
ĠM ed
Ġw atch
att le
Ġs ound
Ġd ue
a ul
Ġl ab
il t
1 6
ĠAs s
Ġse lf
o on
u ation
ĠIn tern
Ġlead ers
Ġinf l
Ġst ates
ib ility
Ġro le
he ad
Ġ2 5
iv il
Ġ201 7
Ġst ri
id ay
r an
Ġc ustom
er y
Ġrele ased
Ġofficial s
ro du
Ġbe gan
Ġstud ents
am er
ĠD r
Ġpos ition
Ġo pt
Ġcharac ter
ob al
A R
Ġ )
Ġmat ter
Ġfin al
Ġout side
1 4
Ġen er
end er
Ġd ou
Ġstate ment
ad es
Ġhim self
ĠCh ina
Ġbre ak
Ġt reat
Ã ©
Ġdevelop ment
Ġprov ide
Ġ1 00
Ġst at
Ġ19 8
viron ment
arl ier
Ġin it
Ġab ove
se c
Ġit self
l ike
Ġam ount
Ġa ction
Ġrep resent
Ġhour s
Ġthem selves
Ġg un
I n
i od
Ġcontin ue
l im
Ġoff ice
Ġbec ame
ĠG erman
Ġgener al
Ġspec ific
Ġadd ress
Ġne g
Ġcount ries
ac ed
ĠW ill
Ġl arg
Ġsim ply
Ġtr ue
l ish
Ġwas n
as k
re g
Ġsignific ant
' ll
um b
O R
Ġb ar
Ġg round
og n
o id
Ġinter view
ace book
Ġrun ning
e v
ĠE n
Ġdiff icult
il i
Ġr ad
Ġev idence
ar ter
Ġvers ion
Ġad minist
Ġprof ess
Ġc op
Ġneed s
Ġre d
ĠT witter
Ġag ree
ang u
Ġty p
og le
ĠNew s
Ġevery one
Ġd rug
B C
Ġgroup s
Ġapp e
idd le
e ks
Ġresp ons
Ġbuild ing
Ġb all
Ġd om
Ġwom an
Ġt em
Ġshow s
Ġmus ic
Ġcomm on
Ġd est
Ġl at
1 3
Ġneed ed
Ġin j
ĠM us
l am
Ġbel ow
Ġ5 0
if t
Ġex c
r ight
Ġrele ase
ourn al
ĠW est
ĠP e
Ġsa w
Ġde ep
Ġpret ty
rib ut
Ġinclud e
ot e
ĠWh ite
Ġqu ite
Ġplay ed
is c
Ġm ot
Ġindust ry
b ody
Ġa p
Ġs ense
Ġener gy
Ġplay ing
Ġcand id
Ġm ag
Ġph ys
ĠO ct
y le
iv al
Ġg en
E S
Ġwh ite
Ġleg al
at ur
Ġl ate
Ġfriend s
Ġh tt
Ġch arg
Ġal leg
Ġ +
Ġinst ead
ĠSt e
Ġab s
ĠF acebook
Ġl ost
Ġ <
ĠM ich
ĠC ong
b o
Ġes pecially
ĠP er
Ġval ue
iqu e
Ġb illion
os ing
Ġh om
Ġh ost
le v
or ing
Ġan im
Ġ {
ist ic
Ġp le
Ġ2 4
w here
1 7
Ġfor ward
ag er
Ġob ject
Ġrecent ly
Ġtr ack
t ime
A S
ĠS m
ĠSe pt
Ġwe eks
Ġe lection
ir t
Ġvot e
Ġj ud
Ġsu ff
Ġdet er
ep end
Ġchang es
Ġper iod
Ġopp ortun
ĠM arch
Ġl o
Th is
med i
ri pt
Ġlong er
Ġp ain
ac hed
i j
o ke
Ġs ite
Ġac cept
Ġe p
h od
Ġso on
Ġsh oot
Ġmom ent
Ġhop e
Ġeconom ic
ight s
Ġp ie
itt ing
du ct
Ġche ck
Ġdec l
ĠM ore
ir m
ent al
1 8
Ġwr ong
Ġbl ock
ĠRepublic an
ĠDep artment
Ġcons um
ĠA ug
S t
d en
Ġrel ig
ĠE l
Ġt it
ĠE m
Ġc irc
__ __
ĠSy ri
Ġpot ential
Ġhig her
Ġwor ks
Ġcons ider
le ge
ar c
n ers
Ġfoc us
Ġsh are
Ġc red
anc ial
Ġed uc
l t
al t
Ġhe ld
o e
ĠJ une
id ing
c ial
on se
Ġwe bs
Ġon line
ke y
ĠGo ogle
f er
Ġw alk
Ġst ay
ĠAcc ording
Ġfun ction
ĠH ere
Ġl ed
Ġre ve
ove red
ul arly
Ġword s
Ġp arent
ĠR ed
Ġp red
he l
Ġst ru
Ġresult s
Ġd i
ĠO ff
f ect
Ġ *
Ġw ind
Ġris k
ĠA ct
Ġre view
Ġre v
Ġc ode
Ġso ld
le ar
Ġcont ract
Ġlaw s
i ents
ĠA pr
Ġc e
Ġart icle
e es
om m
a ut
Ġtot al
c il
o le
Ġa ud
= =
Ġapp lic
Ġserv ices
Ġst e
ĠJ uly
Ġperson al
u ary
Ġmin utes
as ons
h am
Ġany one
Ġa ge
il ities
p ut
ang er
n s
Ġ201 1
2 5
Ġfav or
it ution
Ġpr im
Ġtarg et
Ġr ate
Ġup d
Ġan sw
h aps
u le
Ġpop ular
Ġd en
ate g
Ġexp ress
ap an
Ġh y
Ġv ol
Ġe arlier
Ġde ad
Ġne cess
ĠCong ress
ĠM ond
Ġcomp ut
Ġres pect
ag ing
ĠG od
ĠH ill
Ġtechn ology
Ġgo al
Ġexpect ed
Ġcre ated
Ġen vironment
u el
ĠAust ral
end s
it er
re l
Ġproble ms
Ġb ase
Ġsur pr
ud e
v al
Ġrece ived
Ġ @
Ġp ort
re et
n a
Ġsc ient
ĠD es
Ġpriv ate
is l
Ġincre ase
Ġw ays
Ġcom ment
Ġeas y
Ġant i
Ġp ack
Ġfor ce
ip le
Ġsh ot
Ġquest ions
Ġcan not
Ġannoun ced
act ion
et er
ĠA g
Ġl angu
ĠFr iday
Ġimp act
Ġp ur
E N
ater ial
ĠC ont
itt ee
pl es
at ives
Ġe t
her n
av ing
Ġinvol ved
ĠC our
r ay
Ġ19 7
Ġty pe
ĠApr il
Ġd iv
le x
h ood
ĠC ount
it iz
Ġspe ak
Ġex act
Ġmod el
itt en
Ġexec ut
Ġne arly
i res
ĠT ues
Ġc ivil
ĠP al
Ġrelations hip
Ġter ror
Ġst aff
Ġs en
ĠMond ay
ok es
ĠE ven
Ġc ases
Ġins ide
ic ro
Ġorig inal
6 0
re m
ĠRuss ia
Ġcont ent
om b
ĠTues day
ĠDav id
Ġle ave
Ġresp onse
c he
ĠJ apan
is es
am s
ll ed
Ġcap t
Ġf ans
ã ģ
Ġ ur
e ed
Ġco ll
ĠQ u
Ġ201 0
ĠAmeric ans
Ġintern ational
Ġar rest
Ġa verage
ĠC or
Ġbro ad
Ġl iving
Ġhe art
ĠG l
b or
ĠW ed
b it
k y
Ġreport s
Ġw orth
c ast
Ġsour ce
Ġkill ed
Ġn ation
ip s
Ġc al
ĠGe or
ell ig
Ġbec om
at ural
on st
ĠS an
Ġus ers
Ġwork ed
ot o
est s
Ġso ft
Ġob s
ct or
Ġim medi
Ġsub ject
ĠF irst
Ġ4 0
it es
j oy
Ġest ab
Ġch ance
g ing
Ġresp ond
Ġcl ub
op s
Ġc ell
Ġgl obal
ĠP aul
Ġt akes
a el
Ġab ility
Ġad m
rough t
Ġo il
Ġwe ap
ĠCal if
Ġass oci
Ġter ms
Ġwork ers
Ġpr ice
ĠS pe
iz ing
z e
Ġdirect or
Ġro ad
ĠH er
olog ical
Ġpubl ished
Ġt ou
os ition
Ġcol lect
Ġdef in
H e
Ġfin ancial
ĠS und
un t
ĠF eb
Ġm id
Ġl og
Ġs qu
Ġdec ided
ove mber
Ġl ack
W h
Ġph one
Ġm other
Ġbu y
Ġg ave
Ġg irl
Ġst ore
Ġe mer
ĠJan uary
Ġinfl u
ĠS ch
Ġcap ital
Ġrequ ire
Ġhappen ed
ĠSept ember
Ġ2 1
Ġfore ign
r ain
cl us
Ġf em
m on
" .
Ġgo es
Ġcurrent ly
Ġsit uation
ĠP ost
b ased
al ed
Ġwho se
Ġl ives
Ġind ic
ov ed
Ġoff er
Ġm aterial
Ġt al
in o
ĠA ng
Ġmem ber
Ġ ill
Ġb ur
ough t
Ġpl ans
Ġaff ect
ĠIs lam
Ġ â
Ġmet hod
vert ise
nes day
Ġpartic ip
Ġar ri
Ġ2 2
Y ou
ĠTh urs
ĠT V
ĠN ovember
Ġp ict
re ct
Ġmeet ing
Ġrec ogn
Ġteam s
Ġturn ed
ru ction
Ġb ank
Ġnet work
Ġev ents
f ully
Ġsim ple
ord er
ĠWed nesday
es e
Ġint rodu
Ġn orm
Ġc y
Ġte xt
Ġare as
ill s
Ġ }
Ġreg ard
ĠAf ric
ĠThurs day
Ġh uge
Ġcou ple
o o
Ġp age
Ġperform ance
Ġappro ach
Ġto ol
Ġcare er
Ġv ia
b l
ĠCour t
ou d
Ġm is
Ġf elt
a ur
et y
Ġem ail
Ġor d
Ġr ace
ĠK e
ap t
l oad
ĠT w
Ġquick ly
ĠEurope an
ĠAug ust
Ġr ound
ĠOct ober
---- ----
Ġh on
" ,
a ily
o or
Ġimpro ve
Ġeng ine
ist an
Ġnum bers
4 0
Ġvict im
ro wn
Ġadminist ration
ĠO f
Ġp ull
ĠCanad a
Ġbu ilt
et t
ĠCalif orn
f l
Ġf re
ch ie
ĠSund ay
ĠBrit ish
Ġl oss
Ġp ers
av y
ĠThe n
ruct ure
Ġf ather
um e
Ġth ous
Ġd ig
E D
Ġeconom y
Ġprodu ction
Ġb oy
Ġhe ard
Ġm atch
âĢĿ .
Ġwebs ite
Ġen joy
Ġsec ret
ĠBl ack
ĠS w
Ġallow ed
d own
Ġre pe
Ġhand s
Ġbo ard
Ġsp ent
Ġtr ade
Ġw ide
Ġl ower
f ace
ce mber
Ġtra vel
Ġco ver
Ġpo ll
at ory
Ġinclud ed
Ġwant s
Ġ2 3
Ġleg isl
Ġto wn
us es
Ġkn ew
Ġne igh
ĠP at
e ch
or ters
ict ion
Ġbeh av
Ġse par
es tern
Ġvis it
Ġget s
Ġper fect
ĠCaliforn ia
en ed
ĠI S
en ces
ĠRuss ian
is hing
an ks
Â Ń
Ġmove ment
g est
age ment
? âĢĿ
Ġtri ed
ess ion
ct ions
ĠU K
ĠK ore
ĠP ar
d e
Ġb i
Ġc ause
r is
op h
Ġfor ces
Ġen s
Ġf ear
l in
Ġatt ention
Ġpartic ular
) ;
ĠI nt
for ce
ĠDe cember
Ġpop ulation
h ic
ce ed
ĠM ark
Ġb rought
Ġre ach
Ġlook s
Ġvar ious
ib ly
Ġv o
A L
Ġb ud
I f
u k
Ġgrow th
ĠF in
ar ily
en ing
Ġset t
Ġm ention
Ġprev ious
Ġl ink
ur d
ak er
se qu
ident s
Ġmor ning
' d
ĠC he
c le
f ield
und red
m a
Ġf air
Ġfe ll
Ġtr aining
h old
ide red
Ġim age
Ġpro gress
y ond
all ed
Ġs ize
ĠP ark
ĠSen ate
ra z
c ies
n y
ĠT H
Ġcont act
Ġh ot
ĠF rom
Ġdem and
Ġr ac
Ġ ...
Ġs ong
ĠSt reet
] [
led ge
9 9
Ġlead er
Ġh or
ĠInd ia
Ġc itiz
Ġ ess
Ġrul es
g round
Ġl iber
ĠK ing
i ers
Ġse arch
A C
ec ause
ific ation
Ġlat est
i ant
in ks
c ome
Ġpre p
Ġstru gg
Ġup on
ĠI ran
The re
ĠJ ew
Ġf ast
Ġco ach
Ġtalk ing
Ġind epend
ond on
Ġspe ed
u ments
ĠC ons
Ġw ond
g es
Ġfeat ures
ar th
ĠT ex
Ġex am
Ġadd ition
ĠT imes
ĠPart y
Ġre b
I T
r im
ellig ence
ĠCount y
Ġcons idered
Ġlangu age
he t
ar ies
v ent
O S
ĠCent er
b ed
Ġst ar
Ġmed ical
ĠS atur
Ġu nd
Ġlevel s
Ġ200 8
ra q
Ġsl ow
il le
ĠR om
im ately
Ġa chie
Ġinvestig ation
un k
ĠMc C
Ġcon duct
ĠS and
Ġm ach
ĠDon ald
Ġs n
Ġc ard
Ġs ort
op e
I C
Ġcrit ic
Ġdo ll
am ent
ĠPol ice
ys is
Ġp aper
Ġbo x
Ġp en
as c
u f
Ġcons erv
Ġpri or
ĠMus lim
Ġsex ual
p ir
Ġsaf e
Ġsystem s
Ġparent s
Ġdoc ument
Ġhe ar
Ġjob s
ĠN et
at form
Ġwr itten
Ġsp okes
Ġs ens
ig r
ĠU p
Ġd raw
Ġincre asing
Ġse ven
Ġsee k
ĠSatur day
2 00
ĠI raq
id ge
ru ary
Ġprev ent
sy ch
an i
Ġlear n
Ġext reme
ĠL et
ĠT ur
Ġ200 9
Ġeff ort
ĠL ab
ĠL ondon
Ġs on
Ġser ious
ĠS im
Ġcon c
Ġcomplete ly
r ast
u it
Ġin n
Ġsc reen
ĠO ther
Ġ2 7
ĠM or
Ġ2 8
Ġreg ul
in ing
Ġe ight
Ġr ange
ro om
it ch
our ces
Ġviol ence
ĠS oc
Ġb ott
Ġmess age
s et
Ġob v
Ġsur ve
ĠG ener
Ġdes pite
ĠMich ael
O P
Ġinterest ing
reed om
Ġdou b
Ġopportun ity
ic o
ĠE ast
Ġclaim s
2 2
ren ch
Ġpartic ularly
an ced
Ġext ra
t r
Ġansw er
Ġsoc iety
l ight
ĠJ ames
Ġmajor ity
Ġj ournal
Ġattack s
Ġgu y
am ing
at ter
er ve
Ġexact ly
Ġcar ry
ent ially
Ġbig gest
e ff
ĠFeb ruary
U S
ĠRe ad
u x
Ġcl imate
ill ed
ĠâĢ ¦
Ġc ross
ĠPl ay
ĠM ost
Ġrequ ired
Ġare n
ib r
Ġ2 6
er c
is ions
Ġp aid
Ġh undred
Ġexper ien
Ġdef ense
Ġex cept
Ġmod ern
Ġpract ice
Ġ Ð
ens ion
vertise ment
ly ing
Ġqu arter
h a
Ġoffic ers
Ġn atural
ĠRepublic ans
ar i
os es
Ġsc ience
ines e
Ġrem ain
Ġcr im
Ġlook ed
Ġcertain ly
n ces
Ġhist or
Ġsur v
uc lear
ut ions
Ġg as
Ġst ories
Ġm iddle
ĠB ill
Ġl ay
Ġd ro
Ġt able
Ġst uff
Ġfin ally
Ġsomet imes
Ġcommun ic
Ġproduct s
Ġmov ie
Ġa w
osp ital
Ġr out
ĠC oun
Ġter m
m p
Ġim ag
Ġcon vers
Ġus er
av es
Ġp an
Ġlead ing
Ġ >
ous ly
Ġdescrib ed
Ġon es
ĠWh y
Ġchang ed
pp er
Ġdet ails
Ġsum mer
Ġu lt
h ib
Ġpr ison
Ġbl ood
Ġhtt p
Ġqu ality
et h
Ġstart ing
Ġshow ed
ĠS ince
8 0
Ġg iving
ĠM on
ic ks
Ġocc ur
u ing
Ġprov ided
ak ers
Ġn amed
2 4
Ġrem ains
ĠJ ack
Ġcost s
ĠDemocrat ic
Ġcom ments
Ġreg ion
augh t
id a
.. ..
ĠS er
Ġpo or
Ġd anger
Ġp ath
en ge
Ġch ief
Ġmult iple
ĠR ec
Ġeduc ation
Ġm ob
Ġdam age
Ġgrow ing
Ġwrit ing
co in
Ġpart s
Ġcontin ued
Ġdem onst
Ġthink ing
Ġass ist
Ġf ix
Ġpur p
in ary
Ġmain tain
ĠM any
ĠTex as
ĠLe ague
Ġwr ite
ĠCh inese
Ġread y
Ġp urch
ur t
Ġwould n
ar r
om p
Ġincre ased
f ort
ĠD is
ĠR ich
Ġd ied
Ġf ile
Ġcult ure
m it
Ġrequ est
Ġvot ers
ag o
Ġimp lement
ĠG reen
ĠE very
Ġm ill
ĠWill iam
Ġc amer
Ġeff orts
ab les
ou l
ĠApp le
ĠB o
al y
b an
Ġsp ot
Ġcall s
op er
Ġh ous
Ġper haps
Ġit em
Ġal one
F L
Ġgu ys
Ġread ing
z z
Ġto wards
Ġal though
Ġstand ard
Ġse lect
P h
Ġce le
Ġus ually
ar ian
ĠInd ian
Ġcons ist
Ġpl atform
Ġeffect s
Ġreal ity
Ġdirect ly
Ġav oid
Ġbe yond
ĠAd d
Ġk ids
Ġfoot ball
il es
Ġspe ech
ic ated
Ġ( @
Ġsub st
s p
Ġcould n
Ġsc ene
ar a
an ch
us ing
Ġinclud es
Ġthrough out
Ġstud ent
ĠCom p
it ute
in ated
Ġcomple x
row d
ĠR ober
Ġcent er
ĠSu per
ĠB el
Ġimmedi ately
ĠM art
f ord
Ġchall eng
Ġro b
Ġrec omm
Ġun f
Ġcon cept
ĠL ast
Ġep is
Ġcl os
Ġ ver
ĠDemocrat s
Ġw ife
Ġcho ice
Ġ il
e gr
Ġadd itional
Ġt ro
ĠB en
ĠWe ll
Ġ6 0
ĠO ver
ĠMin ister
st on
Ġrese arc
Ġrem ember
Ġs le
w ise
Ġg one
Ġsaf ety
Ġc ast
Ġt en
Ġdesign ed
it or
Ġcor por
he st
ĠS erv
Ġag ency
ast ic
ĠI I
Ġpie ce
ĠO ur
ac hes
ru pt
Ġa head
Ġsoft ware
Ġop in
Ġoffic er
Ġdeb ate
Ġfig ure
ĠD ay
Ġbr ain
Ġto ward
om en
2 3
Ġs we
port s
b ur
il ies
Ġcoun ter
Ġse ll
A M
ress ion
ĠAss oci
Ġo ption
Ġbl og
y l
Ġthous ands
im ent
ag on
ic ient
Ġlet ter
ĠV al
Ġs il
A s
ir th
im um
Ġrel ative
Ġpre c
ate ver
Ġpress ure
Ġrece ive
air s
Ġmov ed
amp ions
Ġst age
Ġ ut
Ġpass ed
ad em
B I
Ġappear s
Ġ x
ap h
ol ute
ro y
Ġla unch
Ġcle an
Ġproper ty
ĠL ike
Ġmean ing
ĠF rench
Ġdo g
Ġhelp ed
ĠG et
it ation
Ġtw e
O T
Ġdis app
Ġro ck
ĠT or
Ġcr is
Ġd ark
ad d
j ust
Ġorgan ization
Ġalleg ed
Ġdri ve
ĠSt ar
Ġsc ore
Ġcond itions
Ġs at
Ġtou ch
ber g
ĠEng lish
Ġsus pect
Ġd ate
Ġmov ing
Ġt our
Ġre asons
augh ter
Ġ ign
? "
Ġcomm and
ĠW ind
ur ning
Ġp ark
it ness
ri ef
Ġde g
Ġdiffere nce
Ġn ature
Ġdev ice
Ġhapp y
Ġmy self
Ġmay be
ĠS ci
e xt
ch an
Ġbegin ning
n ew
Ġfail ed
ĠAl though
m en
Ġn om
Ġf an
w ood
ĠA ir
Ġbud get
Ġenc our
iv ity
Ġcharac ters
Ġn uclear
Ġcop y
ĠH am
m ore
Ġb attle
Ġcomput er
Ġa im
Ġ2 9
ock ed
Ġtit le
Ġcomp ared
ĠL a
y an
E C
Ġw all
Ġcent ury
ĠSyri a
Ġcol lege
le ase
al ing
Ġey es
Ġest im
Ġle ague
Ġst ra
ĠGo vern
Ġsh own
ĠB ecause
Ġy es
Ġpos itive
Ġbook s
Ġpower ful
Ġref er
Ġcont ribut
ĠT om
Ġb al
Ġb and
Ġlim ited
Ġnecess ary
Ġsc he
ĠC ap
Ġcitiz ens
Ġdis p
Ġfor ced
i able
Ġar ch
The y
Ġcandid ate
uf act
Ġtr ust
Ġconf erence
our ce
ent y
Ġlarg est
Ġanal ysis
Ġsp ending
Ġs al
ig ration
2 7
ain t
or ks
Ġnot e
Ġpresident ial
ĠH igh
ĊĠĊĠ ĊĠĊĠ
Ġ19 6
Ġth row
ĠM ex
ĠDe f
E T
Ġa ware
Ġschool s
Ġme ant
ĠRe g
Ġevent ually
Ġrelig ious
ĠIntern ational
Ġexecut ive
ven ue
ĠA nt
Ġcor rect
Ġphys ical
Ġfollow ed
Ġfe ature
ĠAd vertisement
ĠSm ith
Ġm ix
Ġstre ng
ĠJ er
Ġil leg
Ġfam ilies
Ġc rowd
Ġconf ir
E L
4 5
Ġc at
Ġf irm
Ġeas ily
Ġco ol
er o
Ġaut om
Ġes c
or ney
Ġallow s
ĠPe ople
Ġd raft
Ġp us
ub e
Ġg ives
Ġyour self
Ġgr ad
Ġfe ed
ĠGeor ge
Ġtreat ment
Ġact ions
ĠAustral ia
ress ed
3 5
A P
r ated
a res
c ul
bo ard
c raft
k en
Ġdet ail
Ġover all
b and
ĠR ob
Ġsus p
ĠS chool
ir ing
en cies
d d
Ġsm art
Ġan g
Ġinc ome
Ġide as
Ġappe ared
Ġdis play
ĠGerman y
Ġcent ral
Ġpolit ics
Ġsign ed
ĠAng el
I D
Ġh ar
Ġweap ons
ĠD uring
Ġanal y
b um
ĠM et
Ġp sych
ĠBro wn
ĠE U
Ġdec ades
ĠB er
Ġn ice
Ġprom ot
Ġdis e
Ġus es
Ġfre qu
Ġsen ior
ĠÂ £
Ġcr ime
ĠChrist ian
i ance
Ġl if
O M
ĠO h
a ud
ĠE arth
ĠGener al
Ġun ique
Ġcred it
2 6
le ments
Ġdo or
r am
Ġcris is
ĠFl or
Ġal tern
) :
Ġdevelop ed
Ġbenef its
Ġm ist
res h
ĠAr ab
Ġconf lic
ĠM ac
ut y
ri age
Ġtr uth
Ġd rop
ĠB re
Ġnot ed
Ġrel ated
ĠG old
ur ance
ĠFr anc
Ġs ales
ĠT od
Ġgo als
ĠUn ion
Ġbe aut
ĠTr ans
I A
ĠAr t
Ġindividual s
Ġcontin ues
ite ly
b ox
ro l
in y
o es
Ġl ic
Ġr ap
Ġr ates
Ġst o
Ġcustom ers
Ġchall enge
Ġproject s
ĠâĢ ¢
on ents
Ġch arge
Ġpred ict
ĠCoun cil
Ġapp arent
erv ed
n own
Ġint elligence
Ġpe ace
ĠU s
p re
Ġlarg er
ĠB u
Ġprev iously
ch ange
Ġfull y
Ġmeas ure
Ġl ines
p art
Ġstra ight
Ġman ager
m ar
n et
Ġadv ant
v ille
Ġbro ther
Ġr ule
Ġsuccess ful
ĠSc ott
ĠM ag
Ġexp and
ĠA lex
Ġem b
ĠAl so
Ġhigh ly
Ġcle arly
Ġre form
ot i
ĠIntern et
Ġseem ed
or ter
Ġcrim inal
k i
Ġprim ary
ĠAn other
ow ers
ĠL aw
Ġmin or
ic ed
Ġsp read
Ġtr aff
ound s
Ġknow ledge
ant ly
Ġatt ract
Ġinc ident
Ġwe b
Ġres ources
Ġprogram s
os h
Ġsa ve
ate gy
Ġre ached
Ġgreat er
Ġsp ir
Ġke pt
Ġar m
C h
ĠF ollow
Ġfavor ite
Ġs end
ot a
Ġcol or
wh ile
Ġem ot
sec ut
Ġfe et
d om
Ġstud ies
Ġpre m
Ġpl aces
ĠSt ud
Ġman ufact
se y
Ġr are
on ent
ic it
ĠM o
Ġshoot ing
id ers
ĠY es
ĠY our
Ġknow s
ĠM att
Ġorig in
b on
ĠTw o
2 8
ĠEng land
Ġreg ular
ing ly
Ġ200 7
Ġr ise
Ġl iter
oc ks
Ġsour ces
lev ision
ĠA P
w ide
Ġfight ing
ro ll
2 9
ter m
ol ic
Ġla un
ĠC r
Ġactiv ity
Ġp un
Ġstat us
Ġown ers
Ġopt ions
Ġvo ice
E O
Ġf ine
Ġca used
Ġnorm al
Ġun s
us ion
lic k
Ġsp end
Ġclaim ed
Ġorgan iz
ĠO p
Ġend ed
ĠM od
Ġc ities
ĠHill ary
r s
a ith
ad o
Ġen em
IN G
Ġcall ing
Ð ¾
ĠCh ic
ro id
Ġref lect
Ġint egr
eng th
ĠS am
il ed
qu e
ĠFlor ida
if ying
1 00
Ġsh ut
Ġpr int
Ġresearc hers
Ġn ames
Ġha ven
Ġpr ices
ĠS un
Ġfem ale
ĠB ay
Ġv irt
âĢĿ ,
ĠPh il
Ġhapp ens
Ġemploy ees
ĠP re
ol es
Ġtr ou
Ġadd ing
um an
Ġbas ic
R E
Ġsupp osed
u ana
Ġpl ant
Ġh ospital
or g
iver se
Ġpro s
Ġpolic ies
ĠP ort
Ġra ised
Ġj ump
Ġal bum
Ġtrad itional
Ġabs olute
Ġcharg es
Ġconcer ns
Ġst yle
7 0
Ġsl ight
Ġcreat ing
ing er
Ġac qu
Ġgr and
Ġpat ients
ic a
Ġfund ing
rib ution
Ġauthor ities
Ġf reedom
Ġsc en
Ġbe at
3 3
Ġcom mer
ve re
Ġsee ing
Ġl ik
A D
ĠFr ance
. âĢĻ
Ġmin ister
2 1
Ġim pl
Ġc ry
Wh at
Ġle aving
Ġact ual
Ġme chan
on a
g en
se e
ĠChic ago
Ġg reen
ĠS l
ĠHe alth
Ġbe g
Ġ ir
ĠAt t
al se
Ġgo ld
Ġbehav ior
y a
Ġwa it
Ġpost ed
Ġb irth
Ġst ation
ĠM ike
Ġp ush
Ġm er
i pp
Ġey e
Ġagree ment
ij uana
ĠA M
Ġoff ered
Ġens ure
Ġapp l
ĠL ou
Ġwe ight
Ġe th
Ġweek end
Ġr ank
ĠB it
m ark
Ġv ac
Ġprop os
it ude
Ġwill ing
Ġreve aled
ĠR el
Ġad op
B ut
Ġval ues
ĠSec ret
Ġdeter min
. '
ww w
ear ch
i pped
ĠSt ep
Ġapplic ation
ri an
ac ing
Ġmost ly
Ġestab l
ĠInst ead
Ġper m
r ont
ĠB ush
ĠS ub
ĠM al
so ft
ĠW all
Ġad ult
Ġpict ure
Ġb rief
ĠD el
ĠOn ce
Ġbelie ved
Ġstr ategy
ĠM il
Ġlear ned
Ġrecord s
ist ry
Ġcho ose
Ġinst all
Ġwond er
I L
ĠM icro
Ġwh atever
c her
arl iam
ĠP ress
Ġqu al
Ġd ire
Ġlaw y
ĠIn c
S A
ign ed
Ġen force
Ġcomm it
Ġmass ive
p ri
ĠIm age
Ġc ars
Ġm ount
ĠT er
st e
Ġstre et
O U
ect ion
Ġfeel ing
ĠB ig
Ġw ild
Ġpart ies
Ġarrest ed
Ġdev ices
ĠJohn son
ĠA re
5 00
in n
ĠL iber
Ġwh om
Ġass ault
Ġw at
ab y
Ġinflu ence
Ġent er
Ġask ing
a e
Ġl ose
Ġm ission
Ġb order
ent ed
Ġshow ing
Ġprov ides
Ġtem per
ĠF ound
arliam ent
Ġprodu ced
Ġjud ge
Ġcrit ical
ĠU nder
Ġconfir med
Ġoper ations
ĠE v
Ġim ages
9 0
Ġt end
ĠPal est
Ġneg oti
p oint
Ġdr ink
ĠJust ice
ĠP ri
ĠComm ittee
or ial
Ġd ream
Ġcele br
ĠW estern
Ġres idents
ĠComm ission
ak ed
Ġrun s
ĠG reat
Ġf at
ra v
Ġprodu ce
Ġdist rict
ri ption
Ġet c
Ġte ac
Ġdeb t
row s
Ġc ru
c ont
n o
Ġ Ã
Ġopp osition
ĠM ad
est ic
am b
ĠFranc is
Ġc ore
ĠKore a
Ġbr and
Ġse ction
Ġpat tern
ic ial
Ġdef end
u gg
Ġindepend ent
ag s
ce ll
Ġbenef it
ĠSec urity
Ġhe ro
Ġadv oc
ĠSand ers
Th at
Ġt ick
m ine
Ġdoll ars
Ġeffect ive
ograp h
A nd
Ġ ;
oc r
Ġsol ution
ab or
Ġinterest ed
Ġdig ital
ord s
Ġv ill
Ġhig hest
h icle
Ġopen ing
Ġrespons ible
Ġwor se
ri al
ĠTH E
t ies
Ġlear ning
Ġ8 0
ĠTh ose
Ġoff ers
ĠN FL
ĠOff ice
ĠG ame
Ġrepl ace
ĠWind ows
ic ians
Ġmem ory
Ġrest rict
Ġag reed
ĠD ist
Ġd aily
Ġf it
i ation
ĠT y
Ġinvest ment
ĠChr is
Ġtri al
Ġtr ain
i pe
ĠAn y
Ġtyp es
Ġm ur
ĠD irect
g ency
ĠC up
Ġocc as
ĠComm un
Ġ3 1
C C
Ġthe ory
Ġmill ions
B A
Ġche m
Ġbas is
Ġk ick
Ġmar riage
Ġexpl ained
Ġch air
Ġgener ally
o ly
Ġhe avy
ĠU k
Ġte levision
Ġd er
ill ing
Ġprop osed
Ġmil es
Ġopin ion
ĠPh oto
ur ies
ĠSe e
Ġdef e
Ġcond ition
Ġ3 5
Ġjo in
ak s
Ġm ap
Ġon to
Ġprot est
Ġre ject
Ġm ale
Ġbecom es
âĢ ľ
Ġl oad
Ġachie ve
Ġpart ners
v est
Ġassoci ated
Ġdest roy
ĠT re
Ġv s
Ġass um
ic ip
Ġhundred s
az ing
r ate
Ġopen ed
Ġadvant age
Ġsur round
ĠC le
ĠA c
ĠB oth
Ġunderstand ing
ĠH all
com ing
Ġco al
Ġphot o
ĠP et
out hern
ĠV ir
and er
Ġob tain
Ġannoun ce
____ ____
we ll
Ġ ice
Ġman agement
Ġsle ep
Ġsh ip
el ine
Ġb orn
ĠF ox
ort hern
Ġeas ier
ĠRober t
4 4
Ġlim it
Ġcontro vers
Ġinit ial
k nown
Ġth us
Ġlegisl ation
Ġacc used
Ġbecom ing
== ==
ĠIslam ic
Ġs pl
o om
Ġilleg al
Ġun like
ĠJ ud
ĠD et
Ġspec ies
Ġ9 0
ĠO ut
wit ch
ĠPro f
Ġdou ble
Ġ200 6
B S
od es
Ġelect ric
Ġprofess ional
Ġcamer a
Ġfr ame
Ġneigh bor
Ġh arm
ol f
! !
A A
f erence
ĠTh om
ĠU N
Ġwe alth
Ġloc ation
Ġserv ed
ĠCanad ian
ĠM er
ĠW il
Ġbelie f
Ġres ist
m et
Ġsh ared
Ġn ine
Ġser ve
ĠB ank
G B
Ġr at
Ġstri k
Ġneg ative
i os
Ġextreme ly
Ġwin ning
Ġbott om
Ġscient ists
z a
Ġdoc uments
Ġact ive
Ġmach ine
Ġb ed
ortun ately
ber t
Ġg e
Ġpurp ose
Ġsol id
Ġinc red
Ġvictim s
Ġredu ce
Ġaud ience
if ul
Ġreturn ed
Ġdep artment
Ġam b
ĠP M
Ġmar ijuana
F C
ear s
i h
l ant
land s
Ġch urch
Ġr an
ĠV er
ĠJ ones
Ġexist ing
Ġnot ice
ist ics
h ouse
Ġexpl ain
ĠLe g
Ġcommun ities
e qu
Ġb omb
Ġvict ory
Ġleaders hip
ĠDes pite
ĠJ im
Ġd ie
Ġinst ance
at ically
Ġdoub t
Ġcom fort
Ġarg ument
Ġte ach
ĠBrit ain
Ġwatch ing
ĠInst itute
ĠK en
Ġun c
Ġf aith
ĠCar ol
3 6
gh an
ĠL os
ĠThe ir
Ġnot es
Ġput ting
Ġmob ile
Ġsepar ate
m iss
Ġhe aring
r ad
Ġintern et
ac ity
Ġepis ode
ĠQ ue
h ow
Ġp et
Ġf resh
Ġdefin itely
ĠM iss
ĠS il
as y
Ġback ground
Ġview s
W hen
Ġve hicle
Ġcomm ittee
Ġconserv ative
ill er
ĠTod ay
ĠB ur
Ġp urs
w orks
ĠY et
Ġco verage
Ð µ
ĠIsrael i
3 2
O L
Ġfl oor
sc rib
ĠF BI
ĠCh urch
ĠT im
Ġlaun ched
Ġdire ction
ograp hy
ili ar
Ġsupp orters
Ġiss ued
Ġm ax
Ġdanger ous
Ð °
in ct
Ġtre nd
res p
z en
Ġs un
ĠJ eff
Ġrad io
ĠFr ank
Ġcompet ition
Ġn orth
P S
3 8
Ġdrug s
Ġsuggest ed
Ġsit es
ĠIn ter
7 5
or row
in ate
and om
Ġlab or
Ġ7 0
g a
Ġst ructure
l a
ã Ĥ
Ġsp oke
Ġc ards
ar io
g u
Ġrepe ated
Ġitem s
Ġcommer cial
Ġtraff ic
Ġdec ade
Ġno vel
ĠMicro soft
Ġst ated
Ġf alse
d o
v ention
ĠUk rain
go ing
Ġcont ain
g ers
Ġref ere
Ġwor st
Ġcl osed
ĠF ore
ĠCh ar
ant ed
Ġt ask
Ġcharg ed
Ġtrans fer
rib ute
Ġdise ase
ampions hip
Ġre act
Ġh us
Ġdri ver
Ġsmall er
ct ors
Ġn or
ĠG ood
wh ich
ĠS ur
ĠP lease
Ġd ed
b ing
Ġrest aur
Ġd aughter
Ġdri ving
Ġtell ing
i us
se mb
Ġentire ly
ĠP ak
Ġdisc overed
Ġh ack
Ġpl ays
Ġtool s
ĠCon st
3 4
Ġc ash
Ġsur face
ĠG ree
Ġg ay
ĠC ur
Ġconcer ned
Ġsupport ed
Ġex erc
Ġtrans port
Ġanim als
re y
Ġas pect
Ġcomp ar
ĠS up
Ġfind ing
ĠP C
il ing
ul ated
ĠR yan
ic y
ĠWh o
ul f
in ter
Ġple ase
N N
Ġold er
and on
Ġc ateg
g l
o very
F or
Ġcandid ates
az on
te red
ĠRich ard
Ġrequ ires
om an
oy al
i est
Ġstreng th
he m
ĠK h
Ġfar m
e al
Ġwe l
Ġcont ext
ĠB ack
Ġbusiness es
ann el
Ġactiv ities
a it
ibr ary
b ut
Ġc aught
Ġlarge ly
Ġtest ing
ph one
Ġann ual
n ight
Ġcon sequ
Ġallow ing
ĠD ec
ud d
Ġf uel
ĠJ o
Ġbl ue
Ġra ise
! âĢĿ
iz es
P A
Ġins urance
oss ible
Ġmur der
Ġst ock
Ġstr ateg
E M
ĠJew ish
Ġgener ation
ar ant
cept ion
Ġconcer n
N A
k ins
Ġbelie ves
ĠS al
Ġtr uly
Ġacc ur
Ġaff ord
ĠAf ghan
ĠG OP
Ġdec isions
r ick
ic i
Ġph il
ĠG roup
ĠAfric an
Ġconst ruction
it able
Ġjust ice
os ure
ĠN or
ad a
Ġw itness
Ġhold ing
ĠAfric a
S T
av a
Ġgu ess
ĠAssoci ation
igr ants
ĠTe am
Ġpres ence
c ript
3 7
ang ing
Ġun it
Ġatt end
4 8
Ġt im
Ġsc ale
ĠR ock
Ġplan ning
ck now
ĠS T
Ġref uge
oll y
Ġs an
ĠR em
Ġr ough
Ġpl aced
Ġtell s
pect ive
Ġl ength
5 5
ĠJ oe
b re
D on
s pe
Ġestab lish
Ġse qu
ci ent
Ġmention ed
ĠPalest in
an cy
Ġwa iting
Ġc atch
Ġspokes man
Ġjo ined
Ġk id
ĠM P
ĠLou is
ĠPak istan
Ġconflic t
Ġhas n
ĠVir gin
ĠMart in
Ġ201 8
Ġmiss ing
ocr acy
Ġinit i
Ġdel iver
ĠI r
Ġupd ate
Ġab use
ig an
n el
ĠM ont
Ġinj ury
Ġrecomm end
ĠF e
ĠAngel es
Ġinterest s
ĠGovern ment
Ġ200 5
ĠJapan ese
Ġintrodu ced
Ġprov iding
Ġenforce ment
ĠC EO
ĠF ire
is ation
Ġestabl ished
Ġocc up
ic on
Ġe at
Ġrem oved
ony m
Ġcell s
b our
w in
v ant
Ġconvers ation
Ġban ks
Ġcan cer
Ġdiscuss ion
ĠAnd roid
Ġf ant
Ġsto pped
ad y
Ġhtt ps
ĠT ime
c ks
S P
ĠThom as
Ġuse ful
ĠMex ico
ic les
it z
Ġnews p
Ġhom es
ĠJ ose
Ġoff ensive
Ġass ess
az ine
Ġdown load
Ġs outh
Ġsp orts
Ġc ook
ot ed
Ġfour th
Ġobv ious
Ġtrans l
ul a
Ġmod els
Ġb ul
Ġhous ing
ow l
Ġst ick
Ġmeas ures
k in
um n
ont o
ic ations
Ġgirl s
Ġoper ation
and a
Ġset ting
form ation
Ġfil es
Ġman aged
se ason
om s
Ġident ified
Ġha ir
Ġfoc used
3 9
Ġappro pri
ĠM ary
Ġfin ished
Ġpre fer
Ġarri ved
Ġspir it
re al
Ġsk ills
Ġear th
ĠSup reme
Ġve ter
Ġfig ures
pl ace
ul ate
Ġ3 2
wh at
ĠB ern
Ġ200 0
Ġa cknow
Ġconc lud
Ġthere fore
Ġcomm itted
** **
up s
Ġkeep ing
ĠWe b
Ġfund s
ad ing
ĠRes earch
ver se
Ġex clus
4 7
ĠJ on
app ed
Ġident ity
Ġt ough
l ig
ĠAr my
Ġex change
out s
Ġother wise
Ġfeel s
Ġcl ick
Ġpart ner
h i
ĠP ut
ic ation
ĠP eter
Ġrelative ly
Ġown er
ens es
Ġdet ect
Ġsurve y
e ah
âĢĶ âĢĶ
ag n
Ġtri p
itution al
w ing
ron ic
Ġstep s
I s
Ġslight ly
k a
Ġconnect ion
r ig
Ġtwe et
Ġphot os
Ã ¡
u pp
d den
Ġdep end
Ġhus band
ĠS ol
oc al
g ar
Ġwe ak
Ġprotect ion
Ġg ender
u ct
4 9
Ġdef ensive
Ġ4 5
Ġme re
Ġe lements
ĠD en
ic ide
ren cy
Ġstri ke
Ġf le
is f
Ġcirc um
igh ter
Ġg ain
Ġcor ner
Ġkill ing
v is
ĠPr ime
il s
Ġcol lection
" :
uck y
Ġro ll
Ġd at
Ġsuggest s
an ia
anc ing
Ġsu st
ĠCol lege
m akers
Ġag gress
Ġcomm ission
Ġwind ow
pro f
r d
Ġsupp ly
m as
st ream
D A
ĠL u
T C
# #
Ġtax es
ĠP ublic
hen s
Ġbig ger
od ies
hed ul
ĠIm ages
Ġm icro
R A
Ġfail ure
Ġm ental
Ġrem ind
an o
Ġam azing
Ġst ruct
Ġs ides
ĠSecret ary
Ġplan et
l or
Ġspe aking
Ġhappen ing
Ġstart s
ĠI N
i ot
Ġorganiz ations
ĠAt lant
Ġn one
Ġgu ard
ã ĥ
Ġplan ned
Ġsu dden
R e
Ġfam iliar
Ġtal ks
Ġthan ks
ad ium
Ġspe ct
u ate
Ġw ish
am m
re es
Ġh ate
Ġa ward
ĠC amp
Ġcre w
Ġdec ide
gy pt
id ering
Ġar my
Ġimm igration
ĠA N
Ġcar ried
Ġsecond s
Ġsc ript
Ġreg ist
Ġscient ific
Ġapp oint
ĠM os
yn am
ĠMe an
Ġstand ing
el ess
ĠSyri an
ĠPro t
Ġhelp ing
r ange
ag ues
ol a
ut ers
Ġbe er
C H
Ġmult i
Ġrev olution
ĠM ars
i as
ost on
ĠBit coin
ĠJ es
Ġfil ed
a wn
ĠAm azon
ĠServ ice
Ġenvironment al
Ġdom estic
im al
Ġqu e
oc ol
Ġstand ards
Ġvar iety
ĠPl an
g n
Ġmark ets
N o
Ġphil os
ĠB et
Ġs ch
6 5
Ġb atter
ĠA ri
Ġturn s
er ous
a ven
S h
Ġt ack
Ġimp ossible
ĠCent ral
Ġp air
Ġvot es
] .
Ġaccount s
ĠTor onto
ĠB ob
ĠM ur
Ġdeg ree
Ġv ul
Ġdro pped
Ġac adem
Ġco ld
Ġinter act
Ġter rit
ĠOp en
Ġneighbor hood
Ġposs ibly
ĠSoc ial
Ġbal ance
Ġser ver
Ġoper ating
Ġapp re
Ġprofess or
is er
ad ed
Ġtest s
Ġaltern ative
are n
f e
Ġhon est
Ġwor ry
ill a
Ġcut s
r un
Ġun ion
H L
! "
Ġr ich
i pping
Ġincreasing ly
ĠFound ation
p m
Ġfell ow
Ġpr inc
ĠD an
Ġ //
Ġapp ly
c ious
Ġl ived
Ġchang ing
Ġl osing
ru it
ar ks
it ect
hic les
Ġapparent ly
ĠR ub
w ith
ĠUS A
Ġun ivers
rast ructure
ĠDist rict
Ġdevelop ers
Ġult imately
Ġhum ans
Ġag encies
ict ed
ĠCarol ina
Ġsound s
ore s
Ġtw ice
Ġrelig ion
Ġse a
Ġcol le
Ġabsolute ly
= "
as hed
ĠR E
Ġat h
o ch
ĠSec ond
ĠV e
00 00
Ġsold iers
ans ion
Ġclos er
Ġinn ov
ste in
Ġun its
Ġsc hedul
Ġm ut
ĠCh ief
Ġauthor ity
Ġhealth y
Ġbeaut iful
Ð ¸
ĠE gypt
ĠBe fore
Ġequ ip
Ġposs ibility
ack s
Ġpay ing
ĠF ederal
A meric
rou d
Ġdevelop ing
Ġexp ensive
Ġy ards
Ġcorpor ate
Ġfl ight
Ġv ast
Ġwrit er
Ġsk in
ain e
Ġap art
ĠM iddle
4 6
Ġregard ing
c oh
ĠM el
ĠF ree
Ġad just
ĠM ass
Ġde ploy
ĠW he
Ġseek ing
Ġexper ts
Ġv ir
Ġimag ine
ist ed
ĠSte ve
ĠB oston
Ġsol ar
Ã Ĥ
ĠMed ia
Ġapplic ations
Ġt ast
rel ated
ĠG al
Ġ200 4
ĠL at
Ġanim al
Ġs itting
ĠC ru
ĠFrancis co
ĠS pr
Ġintern al
ap ers
Ġv ision
Ġcap acity
olog ies
at ures
ĠLe e
Ġhe at
Ġc overed
Ġp il
I V
ĠM em
ĠTh ough
ĠS ing
l ook
p ire
Ġg ar
Ġp it
Ġel im
os en
Ġun less
ĠB ook
Ġar ms
Ġer ror
Ġtr ail
Ġrespons ibility
Ġelect ions
ĠW atch
Ġl ob
ĠJ ournal
I ON
st ate
EN T
Ġun iversity
I M
ov ing
Ġpresent ed
ĠWilliam s
Ġf ol
Ġfam ous
Ġfor ms
ĠS ant
en ced
s en
le ts
ĠE ach
Ġear n
Ġsurpr ise
idd en
Ġgu arant
Ġf if
Ġatt orney
Ġconv ention
Ġo dd
ĠT op
Ġsy mb
ĠPh ot
ay er
Ġt ight
ur ation
rib le
Ġr id
ĠC ath
ort ion
Ñ Ĥ
ust er
ĠP ower
Ġsp ort
Ġbro ken
I P
Ġhelp s
Ġte en
ĠM s
Ġint ended
ĠVirgin ia
ĠOn ly
m ail
Ġinst it
u nder
ĠR o
p ret
Ġve hicles
ĠS ign
Ġestim ated
por ary
ĠSt ill
Ġcl im
Ġfl ow
ress ive
Ġsh all
ĠH ist
h and
Ġstre ets
Ġoccur red
ce l
Ġdeter mine
ĠCol or
Ġcons ult
( )
Ġt on
3 1
ĠCons erv
p erson
ĠCh arl
Ġexper t
Ġpie ces
Ġf ired
ĠPar is
anc he
Ġtro ops
-------- --------
all s
ĠAustral ian
ĠGu ard
Ġloc ated
use um
ĠR ad
x ual
ter day
ri e
Ġpro ve
Ġrap id
O W
Ġst ars
Ġprep ared
ot y
or age
Ã ĥ
Ġspecific ally
Ġbring ing
Ġpot entially
ĠS aud
L E
ĠR iver
Ġhy p
Ġn ar
Ġcon clus
ph as
ed er
Ġse ctor
Ġr andom
ĠSh ow
Ġbo ost
Ġf aster
Ġgovern ments
Ġst ress
Ġpl enty
s s
Ġvul ner
y m
Ġse lling
Ġequip ment
ĠPro ject
Ġb reat
Ġb aby
ĠMed ic
Ġse asons
Ġpropos al
Ġcoun cil
ĠA v
Ġhe av
Ġj ail
ĠN ov
Ġrul ing
Ġ= >
end ment
Ġrem ove
ad er
Ġref used
Ġfact ors
ce an
Ġinf rastructure
in i
Ġd in
Ġer a
Ġoff ering
Ġsec ure
m m
Ġbro ke
Ġweap on
Ġdr am
Ġpro secut
Ġcl in
Ġcl ot
ĠT ra
Ġexpress ed
Ġvot ed
h t
Ġequ al
ĠAnd rew
ĠW ork
ĠIs land
Ġchalleng es
ro ad
Ġmethod s
Ġconduct ed
ve y
w ar
e y
is her
n oon
ure au
ĠH ol
Ġelect ed
Ġcomb at
e an
Ġcar bon
D P
Ġt ourn
Ġpoint ed
Ġpos itions
y r
ĠO k
ĠN AS
, '
Ġtr ig
Ġrem ained
Ġpr ime
ĠS um
ro g
Ġcult ural
Ġret ail
ĠJack son
Ġorigin ally
ock ing
ol it
ed s
ĠSp ace
Ġm aster
on om
ĠH aw
iss ions
Ġsign s
Ġfin ish
ash ion
Ġcritic ism
ĠMean while
Ġwere n
ly n
Ġsh ape
Ġthan k
Ġpercent age
Ġgreat est
Ġs ale
Ġsignificant ly
Ġappear ance
ĠP ac
ĠFor ce
et ic
Ġvot ing
Ġfac ing
ol ved
Ġyou th
ĠW here
Ġst ret
our s
Ġinvol ve
Ġ5 00
ĠH uman
Ġaffect ed
Ġte le
p ired
ly mp
Ġdetermin ed
Ġredu ced
Ġw ood
Ġreg ime
U T
Ġchem ical
ri er
stand ing
6 4
Ġb ought
Ġher self
Ġmod e
Ġm arg
Ġind eed
T r
Ġobv iously
Ġmin imum
ĠD aily
I G
ar p
Ġg rew
Ġh urt
ĠB BC
M y
Ġth r
re ens
Ġhand le
Ġrem aining
Ġ199 0
Ġh un
ĠD ou
Ġcont rast
ĠMay be
Ġre nt
9 5
Ġpl us
ĠR oad
Ġpolit icians
Ġc as
Ġarg ued
ĠDirect or
g ment
igh ters
in ating
Ġsupport ing
ĠM a
Ġs witch
ĠLab our
Ġrecord ed
ĠA T
Ġsub s
c ol
Ġlead s
ĠSu pp
Ġre venue
Ġpurch ase
Ġsurpr ising
Ġappre ci
Ġwe aring
Ġb ound
Ġpro ced
Ġt act
Ġexc ited
Ġcons idering
ĠD own
Ġvide os
Ġmin ute
Ġfil ms
Ġexpl os
Ġbas ically
Ġ19 5
ow nt
Ġexperien ced
Ġpan el
Ġa id
Ġdiffere nces
Ġt urning
Ġcon cent
Ġexper iment
Ġident ify
coh ol
Ġacc ident
Ġsh ift
ess ions
Ġopportun ities
l o
Ġafter noon
Ġbel ong
Ġsp ring
Ġobs erv
ĠO lymp
og ue
ĠR od
Ġpull ed
Ġser iously
Ġair craft
Ġmot iv
Ġgl ass
ĠW al
ru ption
ĠTur key
cl ass
ll er
Ġconsum ers
ĠAb out
ĠDe velop
Ġpros pect
l ife
Ġag ent
ĠO l
Ġlist en
Ġdis s
Ġse at
Ġd im
t op
Ġend s
ĠF er
Ġdep art
S o
Ġeven ing
ĠH y
G et
Ġemer gency
Ġvis ual
Ġcomple ted
as p
ĠP enn
os ite
Ġtre ated
0 1
Ġ id
0 5
Ġe lement
Ġa st
Ġpack age
app ing
ĠTe chn
ĠR on
he red
p et
ap ter
ut s
Ġcomb ined
Ġconst ruct
Ġi Ph
ĠSy stem
Ġstrugg le
pl om
Ġlot s
Ġenem y
ĠS qu
it a
Ġhop es
Ġapp s
Ġm ort
m es
ĠG en
Ġpass ing
Ġtalk ed
ĠJ ul
, [
Ġ3 6
Ġsupp l
ang ed
Ġpriv acy
ĠW ood
th at
Ġ200 3
ĠL in
k et
Ġp owers
uc ks
ens ions
Ġpl ants
ab ilities
ra ud
Ġdisc l
Ġopp osed
Ġwide ly
Ġsu it
Ġadv ance
ĠOh io
ive red
Ġcal cul
P D
Ġtrou ble
Ġdis miss
ne ll
ĠB us
u ous
Ġpro ceed
Ġp ages
Ġb urn
ĠV ict
Ġattempt s
at o
ĠS her
Ġs ad
ĠA C
Ġfact or
or al
Ġdist ance
Ġliber al
Ġz one
Ġcopy right
ĠSci ence
Ġdef ault
ok ing
Ġref erence
ĠGr and
Ġt un
Ġfr ust
Ġc art
Ġre action
ĠK im
ra wn
Ġst orm
est ival
Ġrep orters
Ġup gr
ĠIt s
Ġcoll abor
Ġ \
Ġtyp ically
g ent
Ġval id
Ġgr ab
ad ow
z er
Ġs ac
r ist
ĠAg ain
Ġinst ruct
Ġm ent
Ġh ol
l i
l ines
ĠS omet
Ġqu ant
ribut ed
m osp
ap ed
m ond
Ġqu iet
Ġco ord
Ġwrit es
st s
Ġdisapp oint
id el
Ġ200 1
ĠRe v
Ġden ied
ĠWe ek
resp ond
Ġappro ved
ĠE r
Ġb odies
ain ts
c are
Ġappe al
ac he
ĠL ife
Ġmat ters
ĠSt r
ĠD ani
raz y
Ġopt im
Ġent ertain
Ġb att
Ġrespond ed
ur b
Ġset s
Ġstand s
om pl
ĠI ll
ĠR ight
ĠM L
ĠF ar
ell y
Ġcap able
Ġconf idence
Ġre new
ff ee
ÃĤ Ãĥ
Ġexpl o
Ġm al
ĠAfghan istan
Ġtrad ition
tern al
ĠL ook
ĠB raz
Ġcre ation
ok en
es ters
Ġg iant
Ġinstit utions
ĠB est
ĠTh anks
ĠTh ank
Ġwe ather
h ab
P R
f ree
Ġconf ident
Ġun able
Ġp itch
ĠP R
ĠA D
Ġsat isf
Ġbroad cast
Ġcl oud
Ġco ast
Ġse vere
Ġprom pt
Ġpers pective
Ġg ra
Ġm and
Ġf ly
ĠC NN
Ġad vert
Ġtrans ition
is ters
4 2
Ġnum erous
Ġtechn ical
p ass
un te
Ġcapt ion
ĠSe attle
ĠSc ot
ĠV ol
ob e
8 8
c an
ab led
Ġreported ly
ĠT O
em ploy
Ġcr imes
ab in
h ost
Ġpict ures
Ġl it
ĠI re
Ġord ered
Ġl oved
Ġc raft
Ġfac es
Ġfor get
Ġfl ag
Ġadv ice
ĠH en
Ġexperien ces
un ction
Ġv an
Ġexpl ains
Ġrout e
Ġshould n
Ġappro x
Ġdecl ared
Ġsuff ered
ĠG M
Ġviol ent
ĠNot e
Ġreport ing
Ġmess ages
Ġp roud
is hes
as tern
ĠC arl
ĠSt an
amp ion
Ġmov ies
Ġdel ay
Ġsubst ant
ĠSaud i
] ,
Ã ¤
Ġnewsp aper
Ġb ull
Ġon going
Ġgun s
Ġcircum st
ĠMich igan
Ġcan n
il ty
ĠChrist mas
Ġconnect ed
L e
Ġdecl ined
Ġco oper
Ġev al
f ere
ĠF our
ĠI D
N ew
Ġdel ivered
ov es
Ġinj ured
Ġex cell
ul ations
Ġthough ts
Ġpick ed
ĠS ov
ĠG ar
ĠL ong
Ġdisc rim
Ġacc ompl
ĠUkrain e
Ġfind ings
Ġadm itted
Ġappropri ate
Ġfor g
Ġb rows
Ġe c
Ġle aves
ĠBl ue
ĠH ou
Ġg ather
ĠH el
ell ow
Ġpr in
Ġem phas
ion ally
ĠMuslim s
Ġro t
Ġmar ried
du le
ang ers
ner gy
r ant
r um
Ġed ge
g ia
Ġpublic ly
ĠM ount
c alled
u ations
Ġr ail
Ġupd ates
ess or
Ġread ers
Ġarch itect
, âĢĻ
Ġwalk ing
Ġper man
4 3
Ġem ails
ĠP rem
he w
Ġedit or
Ġgr aph
ĠW alk
ans as
Ġreal ize
Ġd ial
Ġdri vers
Ġlawy er
Ġstate ments
Ġa uth
t ion
r id
l ong
ĠDe v
Ġg od
o oth
Ġs ession
Ġconf irm
Ġleg it
Ġactiv ists
Ġexerc ise
Ġour selves
Ġcont ains
Ġ198 0
Ġpo ol
d ate
Ġar med
ĠRom ney
end a
Ġag ents
Ġarg ue
Ġterror ist
m ates
I R
Ġpat ient
ĠE lect
ul s
ĠAn n
Ġ3 3
az a
Ġmor al
Ġtal ent
Ġquarter back
Ġobject s
Ġf illed
Ġte ch
Ġbuild ings
ent ure
T V
Ġcr ack
Ġtrans form
Ġlab el
Ġt ree
our ney
Ġpract ices
Ġd ynam
u ild
c ons
ĠEx p
ÃĤÃĥ ÃĤÃĥ
ac ter
ĠL ake
i at
Ġeffect ively
Ġmiss ed
Ĥ ¬
Ġexam ples
Ġfl o
Ñ ģ
am ental
Ġcent re
Ġca uses
Ġsh op
Ġs ke
Ġwe ar
ER S
ĠS ky
Ġsub sequ
Ġf ish
Ġhe ll
Ġalleg ations
Ġcl ient
as ure
ev in
Ġdeb ut
Ġsecret ary
7 7
res ents
Ġb ond
T ube
Ġinj uries
ound ed
ĠSw ed
Ġdi plom
in ent
ag ers
Ã Ń
Ġth inks
ord ers
Ġess entially
Ġs am
ĠA ff
or ry
Ġart ist
ĠC op
al a
Ġexp ansion
ĠIre land
Ġmot or
Ġ ing
Ġr ain
ĠR am
Ġ3 8
ĠY ear
ĠCol umb
Ġdes ire
Ġinit ially
ĠBraz il
ĠD iv
or se
w ord
Ġp ure
ĠiPh one
Ġmaterial s
O D
in als
ĠL ib
Ġexpl an
il it
Ġfr anch
Ð ½
ar ters
4 1
6 6
O n
Ġfact s
ĠA ut
ad or
ĠC ub
Ġnecess arily
ri p
Ġinc or
Ġgovern or
Ġdat ab
ic ing
Ġlink ed
Ġperform ed
I I
Ġschedul ed
Ġaccept ed
Ġmy ster
ĠA L
en ger
Ġwar ned
ĠBar ack
es ome
ĠS ar
Ġlist ed
A n
Ġvar i
Ġadv anced
Ġincre ases
Ġmag azine
ĠPol it
Ġsu c
et te
Ġplay off
Ġb are
Ġj oint
Ġfac ed
Ġdo ctor
Ġne ither
ĠNe xt
ĠBo ard
Ġab andon
ed y
ĠF urther
Ġinter pret
w ater
ĠF ig
Ġm ir
Ġath let
ill ance
Ġyes terday
Ġdec re
ĠV iew
Ġannounce ment
Ġevery body
Ġrad ical
Ġn ations
Ġoff ense
ir ty
ĠS ports
T A
Ġnear by
M A
ĠPer haps
Ġsp ons
ĠIS IS
Ġfor t
Ġfollow s
ĠD i
ĠN BA
Ġres olution
Ġbeg ins
ĠB oy
ĠAri z
Ġat mosp
ĠC ard
Ġmov es
Ġal t
ill y
Ġconsequ ences
Ġsurpr ised
Ġconf ig
ĠH ome
ath an
Ġimpro ved
Ġdist ribution
ot ic
semb ly
Ġp ra
le vel
ĠEn ter
Ġ3 7
Ġappl ied
Ġrep resents
Ġch art
Ġplan e
l aw
Ġen h
Ġa f
ĠA uthor
ĠJew s
Ġst ood
ĠE conom
ĠTh ree
Ġwar m
Ġadd s
Ġp hen
ĠD C
ĠM en
Ġr ide
Ġ200 2
ĠCl ub
ab b
Ġdem ocracy
Ġrem ark
Ġout put
it ors
Ġfl ood
ĠHou ston
Ġt rib
L A
Ġgu ilty
ĠW ik
Ġthreat s
Ġpus hed
ird s
Ġbr ings
Ġmanufact ure
ĠG ra
ĠE ll
Ġsh ots
ĠColor ado
Ġphilos op
Ġal cohol
w hel
ĠBro ok
Ġsong s
Ġre in
ĠKore an
Ġwith d
ĠC y
Ġtot ally
bur g
us al
Ġbehav i
Ġdiscuss ed
Ġhistor ical
ĠE ric
du c
Ġlaws uit
Ġent ry
ĠF am
Ġs ought
Ġf ill
Ġconsist ent
Ñ Ģ
Ġr ising
Ġro w
Ġrece iving
Ġinvest ors
Ġent ered
ĠAs ia
Ġ3 00
ide o
Ġcomb ination
Ġexist ence
Ġbr ight
ĠM ot
Ġrestaur ant
Ġn ative
Ġboy s
S S
ĠT ake
Ġsc r
r ich
Ġin put
Ġis land
Ġart icles
ĠYou ng
Ġbut ton
m itted
Ġhead s
Ġsub scrib
Ġcreat ive
ĠCont in
Ġst orage
Ġ4 8
st ood
Ġcor respond
Ġsc ored
Ġrough ly
Ġsqu are
Ġclass es
Ġhigh light
ĠF il
Ġres ident
Ġse m
f ortunately
ĠO ld
al ty
Ġunlike ly
ac le
Ġsa v
ĠR ights
Ġb oss
ed ia
Ġcont est
Ġl ie
Ġconsum er
Ġnet works
ic ious
ĠG ames
ĠYou Tube
T S
ĠW omen
Ġl ibrary
ĠV an
Ġfair ly
ĠChar les
Ġwar ning
Ġsuc ceed
Ġfun ctions
Ġtemper ature
Ġcolle agues
p an
Ġres c
P U
Ġl ock
am in
ĠD u
Ġheav ily
b orn
Ġspl it
ĠDav is
Ġsy m
ic ian
g reg
Ġp arliament
ĠH olly
Ġ4 9
Ġhouse hold
ĠIn s
Ġsymb ol
ch o
Ġdeath s
ard en
Ġstr ing
Ġany where
Ġpro hib
om in
ĠW ild
ok ed
ĠD ie
ĠM ax
Ġprot ests
iqu es
Ġcur rency
Ġpl ot
Ġyoung er
Ġtarg ets
Ġdef ined
ĠM ic
Ġimport ance
Ġto w
Ġbre aking
Ġb ike
Ġz ero
Ġexpress ion
Ġman age
Ġmet al
Ġr ally
ĠPut in
ic an
on na
Ġclass ic
Ġl inks
Ġf raud
Ġbu g
Ġc ere
Ġs now
Ġstore s
Ġrepl aced
ĠK evin
het ic
Ġem pt
Ġdo ctors
I m
Ġsh if
Ġn av
Ġbu ying
ed d
Ã ³
ĠCh ild
A r
Ġmarket ing
d ef
Ġfac ility
Ġbl ow
Ġregul ations
Ġsome what
Ġwas te
ĠStep hen
Ġfav our
ĠW ay
Ġill ust
Ġconf ront
Ġopp osite
and al
Ġ3 4
ĠO F
w est
Ġalleged ly
Ġl augh
A l
Ġsch ol
Ġess ential
Ġprom ise
Ġhold s
ĠM at
Ġfl at
m l
ro it
u zz
Ġcamp us
Ġvers ions
Ġopp onent
ĠJes us
ĠC ast
ag an
Ġmot ion
ĠT ay
ock et
' ,
ĠDef ense
Ġmom ents
Ã ¶
t witter
ĠB at
Ġhard ware
ĠT it
in em
Ġv ice
p ower
ĠCru z
Ġev olution
Ġadult s
ĠC IA
Ġrele vant
ĠBr ad
Ġr um
ĠAr ch
en a
Ġb ag
x y
Ġse es
Ġh at
Ġto m
ĠP an
ĠSov iet
ĠI P
H ow
ĠN Y
ol ve
ĠE nergy
ĠPalestin ian
Ġch ain
ĠIt al
es c
Ġhop ing
Ġclose ly
Ġhard er
Ġfew er
ĠVal ley
Ġb on
Ġs ick
ĠAriz ona
Ġd ownt
ĠL ord
Ġindust rial
Ġact s
Ġvol unte
Ġsy n
Ġreturn s
ĠSt and
O C
t a
d is
ĠT al
Ġint ention
c hen
Ġmechan ism
ĠR et
B l
Ġacknow led
Ġparticip ants
g ame
Ġm ine
Ġcustom er
ens us
Ġf ashion
Ġdiv ision
s hip
Ġsqu ad
g as
er ry
Ġis ol
Ġemot ional
ĠJ ord
ĠS C
Ġimmedi ate
Ġfl u
Ġh ur
Ġg rown
I F
Ġext ent
Ġcircumst ances
7 8
ul ous
Ġexper im
el lect
Ġtourn ament
om a
olog ist
v in
T o
ig er
erv es
ï ¿
Ġsuff ering
C on
ĠW at
Ġexcell ent
ate ll
Ġter min
Ġdetail ed
Ġw ins
ĠDani el
v a
ef ully
n ic
ĠCath olic
Ġcy cle
Ġdescrib e
A ll
ocrat ic
6 8
ke l
Ġw ave
ĠJ ava
ĠF ort
ĠP y
ĠCl ass
Ġche ap
ĠD am
Ġc razy
Ġan cient
Ġrelationship s
cer tain
Ġl ies
Ġcarry ing
Ġfund amental
Ġkind s
Ġp ip
Ġt iny
Ġimm igrants
f riend
Ġun us
Ġgu ide
Ġfeat ured
Ã ¼
Ġdec line
ĠC amer
i i
Ġsk ill
ĠM iller
C l
b ar
Ġear ned
Ġauth ors
Ġstr ange
Ġcompet itive
Ġtr ick
n am
0 8
Ġinst ru
Ġart ists
Ġact ing
st r
Ġeff icient
Ġfor med
Ġc ert
n ame
Ġem br
ut ch
m ission
Ġpus hing
ĠSt ory
c hers
ĠP S
ot al
Ġman ner
oc key
aw a
st yle
Ġreg ional
Ġsh aring
b el
Ġsign ing
ĠIn vest
Ġ7 5
Ġupd ated
Ġcomfort able
ĠW ars
Ġrefer red
Ġfrequ ently
Ġown ed
Ġcontrovers ial
Ġr ing
Ġw ire
ĠE nd
ĠB as
F P
u ated
Ġalong side
Ġrepeated ly
an ish
ĠWil son
ĊĠĊĠ ĊĠĊĠĊĠĊĠĊĠĊ
Ġhot el
Ġm outh
ĠNAS A
S he
Ġcommit ment
Ġme at
h us
Ġattempt ed
Ġd u
Ġcol umn
um ber
ĠFin ally
Ġe gg
rom e
Ġup coming
ĠRe al
Ġur ban
we ight
Ð¾ Ð
Ġfem in
Ġsent ence
Ġreal ized
Ġsche dule
u able
Ġint ent
or a
Ġdep th
Ġded icated
iven ess
Ġsu icide
Ġstru ck
f oot
Ġk it
Ġ Î
Ġl iqu
an es
ï¿ ½
Ġpre gn
Ġins pired
iam i
Ġb at
ri ve
Ġun iverse
r ison
Ġwalk ed
ce ived
ograp hic
Ġtarget ed
Ġmain stream
Ġdes k
Ġpl ed
k o
ĠL ove
iz z
Ġus ual
Ġj ourney
Ġmed ic
Ġopp onents
Ġass ets
Ġag enda
Ġord ers
Ġca using
Ġvirt ual
Ġnews let
ĠL and
Ġrep ut
Ġserv ing
Ġs ister
Ġstud io
Ġch annel
Ġprotect ed
ĠE p
Ġsurve illance
Ġwat ched
Ġchair man
Ġover whel
Ġco ffee
Ġsurround ing
u gh
ĠD un
Ġs and
Ġlat ter
ĠT urn
ad el
Ġliter ally
Ġobs erved
Ġsubs id
ĠIn f
Ġh all
Ġpost s
ĠD id
az e
az i
Ġt ort
Ġknow ing
at i
Ġteac hers
Ġstre am
ĠW in
ĠS k
ĠDet roit
lud ing
com m
Ġwin ter
ĠF ord
Ġbatter y
ĠChe ck
Ġf asc
Ġprec ise
g or
ĠAm ong
0 9
Ġappro val
Ġk ing
Ġra pe
Ġdeep ly
Ġs ending
ph y
Ġfix ed
Ġsim pl
ĠB rian
OR E
Ġcommunic ation
Ġw al
% )
Ġcon gress
Ġdeal ing
ing u
Ġas ide
ren ce
Ġfol ks
Ġn arr
ici ency
Ġrem ote
ĠAd am
i pl
ĠSh are
Ġnot iced
Ġ197 0
Ġexc iting
Ġpass ion
d it
se x
pr int
Ġbas ket
Ġproper ties
Ġfor th
ĠJ r
av or
Ġvol ume
Ġsk y
P ro
so le
Americ an
Ġal ive
Ġris ks
Ġrequire ments
Ġcr ash
b oy
r ors
Ġexpl ore
Ġrefuge es
ĠK n
Ġne ut
6 7
Ġswe et
ĠSpe cial
D S
ĠM S
Ġw ake
Ġex hib
ĠG all
ĠOr gan
ĠCon f
Ġun known
ar n
ac c
Ġany way
ĠAd minist
Ġd iet
ack ing
ĠL ight
ult ure
r ations
Ġdefe at
ens ity
Ġhe ight
Ġtest ed
Ġre ward
ĠIt aly
w oman
ab is
Ġprom ised
Ġun employ
ĠR og
p ool
Ġg ang
Ġdom in
ger y
Ġe ating
Ġg ap
Ġmist ake
Ġinvol ving
Ġattack ed
Ġw est
Ġdestroy ed
onym ous
Ġloc ations
Ġwel come
Ġphen omen
all as
Ġbl ame
ĠHolly wood
Ġse lection
ĠW ater
Ġw age
om ing
al le
Ġput s
Ġproper ly
Ġpro of
Ġext ended
i xt
ĠC am
ĠGeor gia
Ġsudden ly
Ġimp ressive
Ġapprox imately
u a
ĠC lick
Ġmat ches
um s
Ġs ample
ĠN ight
ap se
Ġterrit ory
ĠSte ven
ĠJord an
or ation
Ġcon ver
h tt
ĠComp any
Ġd ry
Ġn orthern
U R
Ġsust ain
ĠA R
Ġw id
ĠM iami
ang es
Ġdisc over
Ġprot esters
âĢĻ .
p o
Ġslow ly
ĠT est
st one
Ġp al
ĠB ell
Ġmere ly
ĠUn fortunately
Ġprom ote
Ġfranch ise
Ġterror ism
l v
oc ation
Ġmax imum
ĠSp anish
Ġlic ense
Ġch ose
ĠLab or
Ġ3 9
Ġtyp ical
Ġsh o
Ġteac her
Ġf uck
Ġselect ed
Ġrequ ests
0 4
ĠAg ency
ĠD ark
Ġdi agn
ĠSoc iety
ĠD ig
Ġshe l
ow ered
Ġob lig
Ġmod er
et her
5 9
Ġnar row
Ġdis ag
ob ile
A t
Ġthem e
ĠC at
ĠL ew
Ġe ast
ĠKe y
ver ty
ĠU t
d ro
Ġret ire
it arian
Ġwor ried
ĠC all
Ġrecogn ize
Ġass ume
ins on
ĠNet work
ĠV is
as er
Ġsupport s
ĠA h
Ġtop ic
f ire
a o
ĠG i
as ks
Ġr ub
Ġde als
y ou
ost er
Ġpo verty
Ġab ortion
Ġpro te
Ġad apt
0 7
Ġlik es
ĠIr ish
t le
ĠTh us
Ġnom ine
ĠN ick
Ġall ies
Ġfac ilities
ĠAtt orney
ĠJer sey
ĠMo ore
Ġarg uments
ĠVict or
ĠB ru
ĠC D
Ġunder stood
p es
ĠWh ich
Ġform at
Ġcontro lled
ax y
Ġp ed
ay ers
ra id
ĠDis ney
Ġfe es
Ġconst ant
Ġso le
Ġsome how
og an
ĠH un
ce ler
0 2
ad s
Ġresist ance
ĠD ar
Ġhon or
on ic
Ġd ress
GB T
Ġcrit ics
l ist
Ġdr ag
V ER
Ġph ase
ĠS n
Ġequ ival
Ġjournal ists
Ġsche me
Ġreg ions
os is
Ġcommunic ations
em s
Ġvill age
g ender
Ġst im
Ġb unch
Ġobtain ed
au g
Ġlim its
ast s
Ġperson ally
Ġtrans p
Ġpun ish
Ġexp osed
ĠAs ian
ĠTur k
Ġev il
Ġth read
Ġch ampion
ĠO per
ll s
ĠN HL
Ġstrong ly
Ġfall ing
ĠS uch
Ġsome where
ĠO S
Ġdec k
red it
Ġcond em
ĠSe a
Ġvac c
0 6
ĠSen ator
ĠJose ph
Ġprof it
5 8
Ġesc ape
ar ity
Ġdefin ition
Ġempt y
c ow
Ġhar ass
Ġcompar ison
st ers
ort ed
ĠT em
ĠF re
ĠC are
Ġpoll s
ĠRe view
Ġf lex
ĠE duc
Ġmeet ings
ĠJ osh
Ġp ic
Ġencour age
Ph oto
ow a
Ġdatab ase
N C
Ġwin ner
ĠBus iness
Ġem issions
Ġtr uck
al o
end ers
Ġdec ent
ĠN ever
Ġcut ting
Ġbe ar
Ġb id
if orm
or ic
pect ed
Ġs outhern
h an
Ġcomp rom
ĠC oll
c ers
ĠC ross
Ġemploy ee
Ġtre es
Ġdes per
ĠD NA
ci ples
z ens
ur a
Ġan x
nes ota
Ġh its
Ġstrong er
Ġgood s
int end
Ġgot ten
Ġdirect ed
a ire
ĠScot land
Ġpurp oses
Ġide al
ĠN ations
Ġde leg
ĠC ivil
ĠInd eed
Ġ4 2
Ġin qu
ĠH as
Ġclaim ing
ig ation
ĠAc adem
p ost
ĠI d
Ġben ch
5 7
m o
ĠR un
9 8
Ġint ellect
i very
Ġfind s
Ġs oul
Ġch osen
s er
Ġfif th
Ġoffic ially
Ġf old
r ary
Ġ icon
ĠS ource
Ġelectric ity
Ġun w
O ur
Ġdevelop er
Ġdri ven
ĠServ ices
ĠC ome
Ġext ensive
Ġstret ch
Ġamount s
Ġreve al
Ī Ĵ
in er
ĠH ot
Ġt ies
ick en
O ne
Ġd rawn
ĠO s
Ġrul ed
Ġinc l
ess ed
in ations
ĠAn th
Ġs ight
Ġpay ments
Ġthreat ened
as ters
ĠT ony
Ġend ing
Ġre tain
ĠTay lor
se a
Ġreason able
Ġdog s
ep ing
Ġcol on
Ġpar am
ĠFore ign
Ġdist inct
Ġsp in
Ġreject ed
Ġperfect ly
w an
Ġaspect s
ĠD allas
Ġcapt ured
ĠSp ain
ĠPro gram
Ġsome body
ow ed
Ġansw ers
Ġeng age
ĠK elly
Ġconst antly
Ġprim arily
Ġtrad ing
Ġf ighters
Ġb le
0 3
ĠS outhern
Ġr ig
ĠItal ian
Ġse ats
Ġfield s
reg on
E W
Ġcho ices
Ġhous es
Ġb oot
Ġp od
ĠMar c
Ġpark ing
Ġany more
Ġt ank
T H
Ġf lying
t es
Ġestim ates
r as
Ġr ival
Ġconst it
Ġsol utions
ĠMin nesota
Ġtechn ologies
z y
ĠN BC
U n
ir ms
ot es
ĠDe ad
Ġreg ularly
Ġelse where
Ġcour ts
Ġresult ing
f ast
Ġ %
Ġpay ment
ĠU lt
Ġact or
Ġno body
Ġbre w
Ġcont em
Ġemploy ment
Ġnarr ative
Ġout come
Ġenc oun
Ġex ists
Ġaw esome
ĠS P
ap es
Ġprov ince
< /
v y
ĠCh ampionship
ĠR ay
ĠB owl
Ġprof ile
Ġkeep s
Ġcontrol s
is an
Ġcomp onents
hip s
Ġmix ed
re hens
Ġlet ters
ret t
Ġcontribut ed
Ġsign al
ĠOr ig
Ġ5 5
Ġm urd
Ġmay or
Ġworld wide
ld er
ĠM ake
Ġap artment
Ġsit uations
ot ten
Ġincred ible
ag ram
m od
Ġfound er
Don ald
> >
Ġconclud ed
ĠHist ory
Ġbase ball
ĠL o
âĢ ĺ
ear ing
ĠF ood
Ġcl ients
Ġenem ies
ĠConst itution
ĠF ull
Ġcoal ition
Ġbill s
ĠP ay
Ġatmosp here
ic er
Ġwe ird
ĠI T
Ġun p
Ġk il
Ġlo an
Ġcru cial
Ġcontin uing
em en
Ġu pper
Ġregist ered
ĠMc G
Ġaccur ate
Ġincred ibly
Ġdem ands
Ġinform ed
Ġfeed back
ĠM ajor
in ity
Ġent hus
Ġt ied
ĠF oot
r ates
ĠSt art
ĠRom an
Ġcons cious
Ġdrink ing
.... ....
Ġassist ant
Ġrep orter
Ġcateg ory
Ġang ry
ĠS af
Ġgener ate
Ġprov ed
Ġst ead
Ġ( $
Ġter rible
Ġst uck
W ith
Ġrout ine
al i
m ont
Ġexplan ation
Ġcon ven
6 9
ĠB alt
Ġtick et
il arly
Ġim per
ĠG reg
ĠGl obal
ind ing
c ar
." [
Ġinf ect
ĠM u
Ġmach ines
Ġdo zen
Ġr us
3 00
s m
Ġret urning
l ock
Ġra ising
b a
Ġ6 4
Ġinn oc
C E
k er
isc al
Ġ6 5
Ġnew ly
Ġaggress ive
Ġwrit ers
ons in
Ġrepresent ed
ack ed
Ġconclus ion
r age
Ġman ip
Ġrec overy
Ġex cess
se ll
Ġpain t
if er
Ġg aming
isc onsin
ĠR ick
Ġconsum ption
ĠC H
ĠD ata
ĠG er
l ights
Ġcomp ens
ĠH ave
adel ph
ĠP arliament
Ġro ot
Ġg ro
Ġest ate
Ġmy th
Ġpen alty
E x
l ers
Ġdoll ar
ĠLin ux
Ġprogram ming
Ġro ster
Ġorgan ized
im p
b al
ian a
ĠO regon
Ġcapt ure
Ġcons pir
Ġcompl aint
ĠPac ific
ĠH om
ĠAs h
anche ster
Ġcompl icated
Ġt all
ĠL ive
Ġs atell
Ġgr anted
ific ations
ĠMos cow
ann y
ĠFollow ing
Ġmag ic
ry pt
Ġch ances
Ġassist ance
Ġcount y
Ġ199 9
Ġpl astic
ĠB ull
Ġsym pt
ĠS ever
Ġpil ot
Ġn ut
Ġaud io
ĠJ ason
Ġha bit
Ġo k
Ġbit coin
e lect
im a
Ġsh ares
M L
adelph ia
â ĸ
Ġthe rap
Ġsuccess fully
ĠN ation
Ġ iron
st ar
r ating
Ġtechn iques
ĠK ent
u an
Ġlaw makers
ĠHen ry
ĠZ eal
gor ith
he nt
Ġveter an
act ions
the re
e z
ĠSer ies
Ġautom atically
Ġdeg rees
ĠF C
Ġant icip
ĠL GBT
re te
ĠM id
Ġscen es
Ġr u
Ġind ex
Ġext ract
Ġp in
ĠJud ge
Ġeng aged
M P
Ġoper ate
ĠA S
ĠE SP
it als
Ġaim ed
ĠH ard
Ġt aught
ĠI owa
ar on
Ġbl ocks
Ġph r
Ġsurv ive
Ġteach ing
Ġperman ent
Ġad s
id ency
Ġinst alled
ind er
Ġtit les
it ar
Ġmon it
ch ain
ĠS now
Ġsol ve
ĠDevelop ment
ĠJ ac
Ġatt ended
Ġw estern
Ġext rem
a ed
Ġmark ed
ĠN orthern
L C
ĠV iet
ĠRep ort
Ġacadem ic
Ġacc omp
ĠE astern
d a
ĠN ob
Ġr ating
y e
l an
Ġc up
ĠF red
Ġval uable
ĠDo es
ĠAl ab
r ific
Ġvulner able
Ġh idden
ĠW isconsin
Ġtast e
% .
Ġun certain
) )
Ġlawy ers
Ġf ake
Ġ4 4
Ġen able
Ġwork er
Ġb om
er a
Ġdep ending
Ġpriv ile
Ġ âĢĻ
ĠCo ast
Ġregard less
Ġd ict
ib ilities
Ġcollect ed
ĠU se
Ġch ampionship
Ġp ace
ĠM oh
Ġpass es
ĠH or
Ġdownt own
Ġaf raid
Ġover se
Ġvis ited
u ine
Ġins pir
Ġc able
B e
ĠK urd
Ġrec ording
ĠGree k
Ġsuff icient
Ġwar ming
ĠAr m
Ġadv is
Ġreput ation
ĠTh rough
ĠK ir
Ġsur gery
Ġtrack s
5 6
Ġb es
Ġel ite
as hes
==== ====
ĠA venue
Ġdis aster
Ġenjoy ed
Ġe lev
Ġth in
Ġequival ent
Ġcom ic
atur ally
Ġexp osure
ĠR and
Ġap olog
Ġrac ial
Ġbus y
Ġprin ciples
ĠPol icy
Ġcry pt
et ary
ĠO K
Ġph ones
Ġgener ated
ĠProf essor
Ġ4 7
Ġsp r
ĠPhil adelphia
Ġprocess es
Ġport ion
Ġprom inent
Ġtrou b
ĠWith out
ĠO ak
Ġint ense
Ġperson nel
Ġnegoti ations
ath y
Ġgr ant
Ġent it
Ġd uty
Ġmain ly
mon th
i ro
Ġg all
Ġ4 00
Ġdef ence
ĠUs ing
Ġresult ed
Ġfun ny
qu arters
Ġext ension
ĠF und
act ive
Ġm ail
Ġp ounds
ul es
ĠM anchester
man n
pr ise
b ro
ĠH T
ã Ģ
ĠS H
O h
Ġunus ual
Ġemer ged
âĢĻ ,
Ġdescrib es
f all
Ġbr ut
Ġpattern s
Ġengine ering
ri a
Ġt ur
ĠL ist
Ġadop ted
E A
Ġevery where
Ġcompet e
w o
Ġbl ind
ĠN avy
il er
M S
ĠM ir
g un
Ġf ought
ĠH it
ĠP oint
Ġdisc ipl
up id
ĠHar ry
Ġposs ession
Ġbrows er
ic ate
Ġtax p
Ġhad n
ĠZeal and
Ġmed ium
w orld
ĠB ry
ĠAlab ama
Ġfeel ings
f ront
Ġcor ruption
cl ing
ant ic
AT E
Ġexpl icit
re p
Ġprop ag
c les
Ġsan ctions
sc ape
Ġc ited
re ll
Ġst ations
Ġth ick
Ġcontract s
Ġen orm
ĠR oyal
ĠBu ild
Ġrare ly
ĠMay or
Ġrec ru
ĠN C
a un
Ġminor ity
Ġrec ip
Ġexpect ations
Ġin ev
Ġcamer as
8 9
he rent
p read
ĠMus ic
Ġshort ly
w rit
v iously
or ough
ĠV ideo
Ġsu p
8 6
idel ines
Ġstr ict
ĠPrem ier
ist ent
if ies
Ġsh arp
ĠF air
Ġthous and
m al
Ġh o
Ġfin ance
ĠEduc ation
Ġf irms
Ġt or
ĠRe uters
Ġscen ario
ĠR os
te xt
ik es
Ġperm ission
Ġimplement ation
H S
Ġvis ible
ĠAm endment
Ġm el
Ġ4 1
Ġlight s
5 4
Ġ15 0
ĠH ay
ink ing
il ton
Ġparticip ate
Ġadvert ising
Ġl oud
Ġprior ity
Ġw ing
m aking
Ġpl ug
Ġj u
ig g
ĠS ir
Ġac celer
el and
ĠP ack
Ġv en
ĠSomet imes
ob s
Ġphot ograph
ĠG iven
ĠAtlant a
Ġloss es
az z
ol t
ĠN ic
ĠInd epend
Ġbr idge
ĠSt at
Ġaff ili
ĠC re
og en
ĠL ittle
Ġcreat es
Ġhistor ic
Ġsh ock
n i
Ġstrik es
Ġla id
ĠP en
ĠE xt
Ġdo zens
ĠE s
Ġve get
Ġt ag
Ġcomput ers
Get ty
Ġ4 3
Ġob st
Ġy ield
og ether
Ġair port
Ġinter face
ĠR ose
ose xual
5 2
ĠS at
at hered
Ġfound ed
Ġclub s
Ġcoun sel
ĠL ind
l og
Ġbeh alf
Ġsc oring
ab s
as ion
ask a
Ġag ric
Ġwonder ful
ars h
Ġform al
w r
Ġal gorith
c ore
Ġst un
Ġfe e
iz on
Ġg ained
Ġprinc iple
Ġw ww
ĠSever al
x ic
Ġepis odes
Ġf ault
Ġto ler
ĠL uc
Ġbasket ball
Ġcomp onent
ĠSe ason
f ound
Ġgen uine
ĠW H
Ġmanufact uring
ĠMark et
Ġp ump
U L
c r
ĠHe ad
ĠRad io
ĠKing dom
Ġun com
Ġestablish ment
ĠR us
Ġrid ic
Ġcy ber
we et
ĠF ield
ĠAdminist ration
ĠC O
ĠTurk ish
Ġrel ief
oun ced
prof it
or ne
Ġg ift
Ġphilosop hy
ĠMatt hew
Ġmag n
ĠMcC ain
Ġst able
Ġun iform
Ġh ole
Ġsa ved
au c
ent h
d ed
im ore
et ime
um er
th is
Ġ19 60
le te
a us
ol is
ĠSci ent
m ate
Ġdraw ing
Ġfound ation
Ġexcept ion
Ġjournal ist
ĠIn formation
Ġst adium
ĠL y
rat ors
ili pp
r ative
wh o
Ġwhe el
Ġ199 8
ĠV R
Ġsp ark
Ġhead ed
5 3
Ġstrugg ling
ĠF ed
b ell
Ġc rop
Ġed ition
Ġfoot age
Ġindic ate
Ġrecogn ized
Ġcann abis
Ġdo ors
Ġban ned
Ġ- >
M an
Ġleg end
ĠCon ference
Ġre ly
s he
ĠDie go
Ġprofess ion
Ġro les
i el
Ġbelief s
Ġsy nt
Ġpl ate
ĠRel ated
Ġ4 6
u er
ĠESP N
Ġst ab
am ber
ĠR en
port ion
Ġcont aining
Ġback ed
Ġwithd raw
ides pread
ĠA BC
Ġneut ral
Ġdin ner
em an
ĠAN D
Ġsh ips
Ġlik ed
Ġneigh b
ou red
ĠPat rick
ĠC irc
ĠL ink
Ġent ering
i y
ig en
ĠAcadem y
ĠI ce
j a
Ġprodu cer
Ġch a
E very
Ġh ang
Ġr iver
y stem
Ġachie ved
Ġg onna
ĠG ov
Ġdel iber
Ġfl aw
Ġmove ments
: :
o en
Ġtack le
te en
ul ating
+ +
ĠCent re
Ġredu ction
5 1
ĠU FC
Ġwall s
Ġh ired
Ġfarm ers
ĠJ ay
Ġar range
ĠK at
ĠBern ie
B O
Ġf inger
Ġdest ruction
ĠWhe ther
bur gh
et ts
ĠS S
ĠN AT
rou s
ĠAnth ony
Ġinterview s
es y
Ġb ath
Ġnomine e
Ġlangu ages
Im age
________ ________
sy lv
ĠS et
ĠEm ail
Ġbare ly
ĠK ansas
ĠO nt
B y
Ġdiscrim ination
ĠCommun ity
Ġa ver
ĠCur rent
c a
ĠT enn
Ġstruct ures
Ġpro ven
Ġ201 9
ĠM ah
Ġfore ver
Ġinc ent
int erest
C S
P e
Ġdel ivery
ach ing
4 00
ĠChrist ians
ĠDiv ision
Ġconv in
ĠB attle
Ġprocess ing
Ġcont ained
k ed
ĠT ri
aw ay
Ġchalleng ing
ĠC ook
ĠO N
9 7
Ġup set
ĠP ot
ri ers
Ġconv icted
Ġun ex
Ġo cean
Ġre n
ĠMed ical
Ġro se
Ġprodu cing
Ġtechn ique
ĠCamer on
ol en
am i
ĠWalk er
ĠC ore
Ġrestrict ions
Ġb orrow
u ce
Ġh itting
us ive
E P
Ġret ired
Ġintellect ual
Ġill ness
Ġdesc ription
Ġh am
ĠPenn sylv
Ġut il
ĠAll en
abin et
Ġas ks
ĠB rew
Ġelect ronic
Ġindic ated
s a
Ġh ide
% ,
Ġsm ooth
ams ung
ĠA p
Ġrapid ly
R S
ĠA le
ĠC ost
Ġcorpor ations
ĠAnt on
Ġreview s
y ard
Ġsuggest ing
Ġfl ash
ĠHe ll
Ġbeg un
ĠP erson
Ġexclus ive
Ġnot ion
Ġb ra
Ġbr anch
fere nces
olog ists
Ġex ternal
Ġrecogn ition
ĠB all
Ġnorm ally
ĠT own
Ġper pet
Ġequ ally
ĠConserv ative
Ġw idespread
Ġl oyal
ĠH aving
less ly
eng ers
Ġtick ets
8 7
ĠFam ily
ĠBe ach
Ġ 00
ou ver
h o
it i
Ġlist ening
Ġsh it
ĠP op
ĠR a
ĠH D
Ġreach ing
ĠN OT
Ġcont ribute
ĠSpr ing
Ġwebs ites
ud es
Ġfriend ly
Ġgr ass
on c
ĠJ un
p age
ĊĠĊĠĊĠĊĠ ĊĠĊĠĊĠĊĠ
um a
im m
Ġinv ent
Ġrepresent ative
alle l
Ġcoll apse
ion e
Ġrob ot
t hen
g ener
Ġsc ream
ĠAl bert
ĠA ction
ach us
ĠPennsylv ania
Ġm o
Ġsett lement
Ġprogress ive
enn y
Ġhard ly
ĠArab ia
Ġcampaign s
Ġar ray
ri k
ust ed
ĠLat in
arr ass
Ġpract ical
r ical
Ġview ers
Ġterror ists
Ġwe lf
Ġprep are
Ġb ail
ĠAust in
Ġcare fully
sel s
Ġsm oke
Ġredu cing
ĠSt one
ĠEn vironment
Ġfr ag
Ġex ceed
app y
ter ing
ĠW as
el f
Ġunc lear
th on
ĠN SA
e en
9 6
Ġwelf are
Ġh ook
Ġeth nic
Ġoverwhel ming
Ġmind s
Ġt ail
Ġsens itive
Ġ ~
Ġiniti ative
Ġrespect ively
ĠC BS
ow ing
is p
ned y
vel and
ĠBro ther
ĠSqu are
l ad
Ġrac ist
Ġrec over
ĠL ater
ĠSant a
Ġassoci ation
Ġdep uty
ĠP ass
Ġinvolve ment
Ġf iscal
ĠR oss
ĠAnd erson
anc ouver
Ġth rown
Ġ ?
Ġl ists
ro lled
Ġconvin ced
igr ant
Ġmil k
P G
Ġfeat uring
c ription
um es
ĠR oy
ut ies
Ġdev ast
Ġv ital
ĠMin istry
ĠGold en
if est
b n
Ġel ig
Ġconnect ions
ĠBalt imore
Ġv ary
j o
ĠH o
ann a
A G
f r
8 5
ĠKe ep
N ot
b ec
ec ut
ĠPh ilipp
Ġframe work
ĠP ent
ĠCon nect
he ast
ĠX box
rat or
Ġdeep er
ĠQue en
Ġstat istics
Ġfant asy
Ġinv ited
ĠM useum
Ġdef ine
ĠII I
d em
Ġc os
Ġimprove ments
Ġinvestig ate
Ġunemploy ment
Ġrem em
Ġbehavi our
Ġstrateg ic
Ġw ine
Ġmen u
ĠM ORE
P M
Ġjo ining
Ġany body
Ġ199 6
Ġsu gar
Ġcompl aints
Ġl uck
achus etts
ĠB on
Ġconst itutional
ĠL im
ĠGree ce
ĠA ud
ivers ary
Ġindepend ence
Ġscore s
Ġw ars
Ġan ger
Ġsc reens
ĠB ad
Ġsubject s
ĠW W
ES T
Ġno ise
pl oad
Ġschol ars
w orth
ĠB udd
Ġroad s
ĠG un
Ġr aw
Ġj ury
ĠT ro
Ġf iction
f rom
ĠY eah
Ġtouch down
ou ch
Ġcitiz en
ĠE arlier
Ġowners hip
Ġtr ained
Ġfail ing
R C
Ġg ear
ĠCh air
Ġal ien
ĠPro v
os it
Ġdisc overy
Ġlob by
ĠBro ad
ĠS ony
ih ad
ino is
Ġg athered
ĠL iver
Ġimplement ed
od ing
Ġcontrovers y
Ġin ject
Ġcomp rehens
Ġfear s
ĠPl us
Ġw ages
Ġreg ister
ĠS amsung
Ġsc andal
Ġlic ens
ick ing
ĠKen nedy
Ġf ab
Ġdem ocratic
Ġi P
Ġserv es
ĠHow ard
Ġcap tain
Ġover t
Ġcollect ive
ĠS us
ĠP o
Ġt ip
ĠF orm
Ġult imate
ĠCont rol
Ġs oph
Ġincor por
Ġdisag ree
Ġst upid
m ad
ĠLew is
Ġneigh bour
Ġpe ak
Ġpro sec
Ġtrans gender
re f
ĠDe ath
Ġtem porary
Ġ199 7
Ġrefer ring
Ġ5 2
Ġvers us
Ġhand ful
ĠVe gas
ĠM ain
ĠEx per
ick et
Ġleg s
ĠD ave
E G
ĠHar ris
R I
Ġaware ness
Ġrecomm ended
sen al
ĠGuard ian
U N
Ġsympt oms
Ġre ven
ĠS ix
Ġcas ual
Ġs in
Ġplatform s
Ġrep rodu
Ġt asks
Ġr ural
7 4
Ġtest im
m ary
Ġrem arks
ar ry
Ġdynam ic
ĠMass achusetts
ĠIran ian
Ġattempt ing
Ġacc us
ĠF reedom
ang el
Ġattack ing
ĠColumb ia
Ġhead ing
Ġt one
c ific
Ġdiscuss ions
" )
Ġsuff er
ĠEng ine
Ġvisit ors
Ġreg ulation
Ġlay er
ĠP itt
ĠV ancouver
are t
h our
Ġsam ples
st ract
Ġsp aces
' .
Ġing red
an ing
Ġest imate
Ġcivil ians
Ġlog ic
Ġexpand ed
ĠB a
ĠG aza
Ġâ Ĥ¬
y er
ĠAP I
Ġpo ly
ac on
Ġign ore
Ġpublic ation
ĠPr ice
ph ones
u ros
Ġthe at
ĠEx pl
Ġext end
ĠL ow
Ġliqu id
Ġgen etic
Ġatt ached
Ġsett ings
ĠA st
ak a
ĠCle veland
Ġhyp ot
Ġne ck
Ġeas tern
Ġdis pl
Ġground s
ition ally
Ġi OS
Ġbr ill
Ġs orry
Ġpurch ased
ĠO tt
Ġenorm ous
7 6
ĠAd v
es h
b i
ĠGet ty
inc luding
Ġentertain ment
ci ence
p at
ĠRev olution
Ġaff airs
Ġres ource
ict ions
Ġadm it
Ġsuspect ed
Ġfact ory
Ġtweet ed
Ġrank ed
Ġrec all
Ġhol iday
ag g
Ġhor se
Ġbrother s
Ġact ors
Ġst ake
à ¤
Ġview ed
Ġlegit imate
Ġinter vention
Ġimprove ment
Ġr ational
Ġ _
ĠH op
ĠSt adium
ĠL as
ĠDes ign
ay ing
Ġr aces
ĠB ang
Ġactiv ist
l ah
rap h
ĠL yn
Ġc ro
ĠA ge
intend o
ĠJ am
Ġout s
ĠL A
Ġseem ingly
Ġinvol ves
ult ural
Ġopin ions
ĠIll inois
Ġpres um
re pre
omm od
Ġhuman ity
ĠH on
c ase
Ġfall en
ĠâĢ Ŀ
Ġinvestig ating
Ġco aches
Ġdram atic
Ġemb arrass
ir y
Ġinvestig ators
Ġro ok
Ġsubstant ial
ov al
Ġsal ary
Ġd iversity
oty pe
Ġfore st
Ġabs ence
Ġco vers
Ġbo at
ar ms
Ġtom orrow
ĠN orm
Ġg am
Ġrefere nd
ge on
Ġmedic ine
Ġlo ans
Ġf ulf
Ġoffic es
. -
ĠU C
Ġsusp ended
Ġadvoc ates
Ġm ad
Ġj e
Ġstay ed
Ġk m
ĠPro p
ĠInt elligence
Ġmon itor
Ġconspir acy
ĠH ospital
Ġprov iders
i ability
Ġc ogn
Ġcele b
Ġch apter
repre ne
ĠM ill
Ġp apers
Ġres ign
Ġj ur
F F
d ri
ĠF all
Ġb ars
in ch
ĠS ure
Ġover s
ĠB uff
A pp
ect ive
Ġ5 1
x it
d y
S cript
Ġcare ful
Ġam id
Ġb ureau
ĠIraq i
ĠL ine
Ġf oss
we red
Ġp orn
Ġaut hent
Ġdis rupt
âĢĶâĢĶ âĢĶâĢĶ
ĠBel ow
ĠC hel
Ġpre ced
Ġc oc
7 2
Ġconsist ently
Ġtransport ation
Ġsh r
Ġdep ends
Ġthrow ing
co ver
cl aim
Ġcol ors
Ġaddress ed
am med
re ts
Â Ĵ
Ġperson ality
Ġmin ing
r ance
ĠPr ince
Ð »
ĠH a
u ction
Ġatt itude
v ard
Ġhand ed
Ġmiss ile
Ġread s
Ġpet ition
Ġinfl ation
Ġclot hes
ip al
ty pe
ĠMar vel
Ġmount ain
Ġnot ing
Ġsur f
ĠCop y
Ġvirt ually
Ġf ruit
The se
W ell
ĠFor mer
ĠJust in
ĠFoot ball
ĠF ix
ĠUn like
Ġconvers ations
Ġch at
ĠC ode
ĠE vent
Ġste el
in f
Ġm os
Ġcon sole
ien ces
Ġwar rant
Ġspeak s
ĠComm on
ĠT our
Ġcon ce
ĠSh ort
Ġprof its
ĠUp date
! )
Ġlow est
ĠNAT O
Ġg ains
P C
ĠM oon
Ġm ic
ĠC apt
um in
ĠM aster
Ġshould er
il a
Ġgu est
d es
Ġhor ror
Ġcl osing
Ġfant astic
m aker
Ġtri es
ĠC redit
ple te
h ot
Ġast ron
ĠMex ican
ke ep
ĠPhot os
Ġspirit ual
Ġappreci ate
Ġread er
iv als
Ġw rest
ĠPat ri
ĠU r
fl ix
Ġcontribut ions
Ġinc idents
ĠC reat
Ġacc ommod
pl ate
Ġst one
Ġhand ling
ĠMars h
ĠAb b
Ġprot ocol
Ġguarant ee
Ġmar ks
D o
z ed
Ġdep ression
ed ing
Ġte a
" .[
Ġvot er
Ġh int
rop ri
Ġd rew
Ġd ance
Ġ199 5
sc ale
Ġphot ograp
u its
am ac
Ġr het
Ġsubsequ ent
Ġball ot
Ġm aps
E E
un icip
ĠN on
Ġr anks
ĠMr s
Ġencour aged
Ġin ner
ord on
Ġl ucky
Ġsw ing
Ġsp oken
ĠLiver pool
ut ed
s erv
av al
Ġprom ises
Ġtre m
Ġb acter
un es
Ġcover ing
Ġl ands
ĠH ind
ĠAlex ander
Ġdiv ided
ĠIndian a
ĠDe b
Ġinnov ation
Ġjud ges
Ġg rav
Ġbu ff
Ġbro wn
Ġins ist
Ġsh out
Ġprem ium
ĠT en
ĠFr ont
ri ent
port ed
it age
Ġche cks
ĠDen ver
Ġmus ical
oun ce
re c
Ġport ray
Ġth rew
Ġimpro ving
Ġextra ord
ĠF inal
ĠF ive
Ġre vel
ĠCor por
Ġdist ributed
Ġeff iciency
Ġsil ver
ĠE ag
Ġdr ama
it ter
p a
Ġmist akes
ĠTechn ology
ann els
ab eth
Ġreplace ment
ĠE qu
Ġl ocked
ĠPort land
ĠU nt
s l
Ġtemper atures
y o
pl ed
Ġspokes person
Ġc ust
Ġacknowled ged
ĠT rib
7 9
ĠAssoci ated
ĠSar ah
Ġr om
Ġjo ke
ing ton
Ġl ying
W hy
ĠCo oper
Ġrespons es
Ġcom edy
ĠRober ts
Ġd ump
arg o
Ġprotect ing
ĠR ather
Ġso il
Ġg al
ĠN intendo
Ġbreak s
Ġy ellow
ĠA k
Ġbar rel
ap ing
Ġliter ature
Ġhom eless
Ġinstru ment
Ġle ts
Ġleg acy
ĠD O
Ġreferend um
## ##
ĠK ong
amac are
iet ies
ĠT es
Ġj oy
Ġabandon ed
he im
ĠLe ft
ĠT ed
back s
ĠB ase
ĠD ream
ĠUt ah
p ie
Ġsc an
ij ing
Ġvir us
ĠB ra
Ġpass engers
er ted
Ġ( âĢľ
Ġord inary
d ated
og s
Ġm oon
Ġf estival
in ction
ĠSwed en
ĠOnt ario
F A
Ġcommon ly
x x
ĠC ro
Ġbl ast
Ġdemonst rated
hes is
Ġtw enty
ĠJon athan
Ġcop ies
Ġex it
Ġign ored
ir a
Ġd iverse
Ġst olen
Ġ199 4
ĠAtlant ic
Ġt ape
Ġnom ination
ĠEm pire
ass ador
ĠM ach
it ary
od ed
Ġfund ed
Ġass ert
Ġmid field
Ġfall s
Ġgr id
ĠL ear
ĠA I
Ġr if
Ġn aturally
8 00
Ġhelp ful
Ġacqu ired
Ġl es
Ġre ar
Tr ump
Ġsc ope
Ġcom pe
Ġstud ied
Ġupgr ade
ĠE ff
ĠG irl
Ġd ad
ĠN one
ĠWar ren
ĠLiber al
lah oma
est y
P l
ile y
Ġb ub
Ġmeas ured
6 3
A Y
ĠRub y
f und
Ġtrans actions
Ġst y
Ġcount s
ack et
Ġarri ve
aw are
Ġm arch
Ġaut o
Ġpartners hip
Ġmonit oring
com es
ĠH ur
Ġins isted
Ġsy mp
V E
Ġhead quarters
Ġst ages
ĠGal axy
ĠAl i
Ġdef icit
Ġrepl ied
ĠBe ck
Ġcap abilities
i ate
Ġrat io
oc ument
ĠK ar
Ġske pt
Ġf ro
ĠB ureau
Ġrece iver
Ġrepresent ing
Ġcl ock
Ġprote in
h op
Ġmat hem
Ġre nder
Ġsuppl ies
Ġtrack ing
ct ic
Ġus age
ĠSil ver
Ġa x
Ġdist ract
Ġperform ing
ĠA ward
h igh
Ġun ions
Ġrac ism
Ġgu itar
ĠV ill
sh ire
Ġconserv atives
R L
ĠGra ham
Ġunivers ities
Ġassess ment
" >
Ġpropos als
Ġpl ain
ĠArt icle
ĠH old
a is
ĠSpe aking
Ġt ie
Ġequ ality
Ġaccompl ish
aed a
Ġcritic ized
Ġhop ed
Ġwat ers
Ġtr ave
6 1
br idge
ĠEl iz
z ing
Ġconc rete
Ġconvention al
Ġ20 20
ĠEd ward
Ġdom ain
Ġwar n
Ġpar allel
ĠInd ust
en cing
j i
P P
Ġbeaut y
US T
c ut
Ġsho pping
ĠC ow
ĠY OU
Ġr amp
h ar
Ġlet ting
Ġappoint ed
Ġprogram me
p ed
G o
ecut ive
Ġex ch
d oor
7 3
Ġrel iable
er ies
Ġin equ
ugh t
Ġmarg in
pt on
Ġintrodu ction
ĠP ict
? ?
ĠOlymp ic
Ġabs or
usal em
Ġd ust
ĠBe ijing
ĠTe ch
ĠBl oom
6 2
Ġdismiss ed
ĠChel sea
c rib
ĠGovern or
Ġab road
ĠFig ure
ĠE st
m at
ian o
Ġcan ce
Ġv es
ĠC S
Ġart ific
Ġne uro
Ġvis iting
Ġappear ances
ol ph
d ney
Ġland scape
f ol
ĠL es
arch y
Ġclass ified
ĠMary land
m ony
Ġdro ve
the less
Ġtrig ger
ir ts
A F
Ġresc ue
Ġhy per
pl us
ĠTe le
ĠW olf
Ġentit led
Ġj un
Ġveter ans
ĠJ ere
ene z
Ġh ung
Ġpres idency
Ġb read
ĠOk lahoma
Ġm useum
ĠB ud
Ġp atch
om es
con f
ĠSe an
ult ane
m ade
ĠH u
Ġtrans it
ĠBel g
Pe ople
Ġ5 3
ĠS om
Ġur ged
Ġblock ed
Ġh ockey
Ġsen ator
Ġcent ers
Ġpop ulations
Ġcongress ional
Ġd ub
ĠS ab
Ġspokes woman
ĠNet flix
ĠI ron
Ġass ign
ik a
ĠD er
Ġpredict ed
Ġwhen ever
Ġrock et
Ġpolit ically
room s
Ġf iring
ag a
ĠP D
Ġcl ar
is k
iam ond
Ġc ig
ĠChild ren
Ġw ider
Ġtarget ing
ĠD utch
ĠBru ce
Ġsequ ence
ĠE ver
ĠCar ter
Ġs alt
Ġbreat h
ĠHar vard
9 2
Ġrequest ed
ĠM ess
Ġsurv ival
et ers
Ġd ates
Ġsw im
ĠB ible
Ġtestim ony
ĠLe on
j ud
ĠBr idge
Ġpers ons
ĠE arly
b ow
Ġpurs ue
Ġdocument ary
on ly
Ġappro ached
Ġcomp are
Ġqu ote
Ġmembers hip
ac co
ĠHam ilton
Ġm ole
Ġm ac
Ġdisc our
Ġrepresent atives
res ident
Ġemploy ed
Ġtact ics
Ġsoc cer
p ress
6 00
Ġbrill iant
Ġpopular ity
ĠMc K
ol ves
Ġp ig
**** ****
Ġviol ation
ĠEvery one
Ġt ips
ĠMag ic
ĠCh o
ĠRep resent
ĠJer usalem
is ons
Ġcont rad
Ġbur den
Ġintrodu ce
Ġsh adow
ĠOb amacare
ĠAnd re
St ar
ber ry
el a
Ġsatell ite
Ġto xic
Ġdis order
Ä ĥ
or ous
Ġmonth ly
ĠV ice
ĠThere fore
ĠB i
ĠG ary
Ġ9 5
Ġphr ase
Ġf ighter
ĠC ra
th rough
Ġbank ing
Ġrestaur ants
Ġbon us
Ġth orough
Ġsa ving
ĠT otal
Ġdesign s
Ġprison ers
ct r
ĠPri v
ĠM ult
ĠE th
Ġobject ive
est ed
Ġretire ment
Ġac id
Ġh osp
er ts
ĠU ber
Ġfocus ing
Ġpip eline
Ġent reprene
Ġr ush
Ġunex pected
Ġexperim ents
ra pped
u per
Ġw edd
at ar
ĠA z
ĠM uch
Ġgener ations
ĠF riend
ĠL t
ound ing
C A
Ġch annels
ocol ate
Ġpre par
Ġprodu cers
Ġbut t
Ġfor cing
Ġscient ist
a ver
Ġfore cast
Ġcelebr ate
Ġser vers
bre ak
ĠAr k
ĠMore over
Ġb ab
Ġab ilities
ĠAn na
Ġlo ose
S p
Ġke ys
Ġc ul
f are
Ġanx iety
Ġdemand ing
Ġt ab
ou ri
Ġden y
ĠCap ital
Ġoverse as
af e
Ġsett led
eder ation
ĠC ustom
ĠRed dit
Ġinvestig ations
Ġchild hood
ĠScott ish
Ġprep aring
Ġact ively
Ġarg ues
ĠG T
ĠTenn es
he ld
Ġun pre
Ġphenomen on
em ed
ĠQu est
C an
m ans
ĠViet nam
B M
Ġunivers al
Ġst ability
Ġweek ly
du ction
ĠMor gan
ĠBer lin
d on
el son
op her
m ers
Ġmaintain ed
Ġok ay
oen ix
tr ans
ĠB oe
Ġ5 4
Ġfl ags
Ġinnoc ent
Ġsh ame
ĠF al
Ġwealth y
Ġf ool
ĠSupp ort
Ġ **
Â °
ĠCr ime
Ġwe igh
ĠB al
Ġroom s
min ute
Ġcirc le
ast y
Ġmin i
Ġencoun ter
Ġrele ases
Ġdifferent ly
ah u
Ġarg uing
Ġsure ly
Ġt ens
Ġex ha
ĠLe ader
Ġround s
Ġ199 2
Ø §
Ġsp ots
or ious
enn is
Ġann iversary
âĢ¦ âĢ¦
o is
Ġsecond ary
ĠS av
m ind
Ġl unch
Ġhealth care
Ġprov ision
ĠS ound
omp son
Ġsav ings
ir lf
Ġsil ence
ore t
ĠW r
Ġtit led
Ġsm oking
Ġa er
Ġlegisl ative
ĠY emen
H T
ag ic
9 3
Ġreve als
ic ism
ĠL am
9 4
Ġsub mitted
Ġrel ax
ent er
ĠPalestin ians
Ġton ight
Ġbroad er
ph a
Ġland ing
Ġhy dro
ĠTr ade
S L
Ġsmart phone
ĠG ulf
irlf riend
Ġf ate
re ction
Ġquestion ed
ab et
Ġsm ell
Ġm it
ĠH ong
Ġal arm
ĠP H
ĠSh ould
ht ml
Ġf ur
Ġdead ly
ĠO pp
ĠW ould
ĠBat man
ten ance
Ġro of
Ġs orts
Ġwind ows
Ġâ ĪĴ
Ġout rage
Ġodd s
Ġqu oted
ĠR oll
a a
Ġharass ment
Ġf ing
Ġrat ings
Ġre verse
ĠOther s
Ġer rors
Ġche st
7 1
e ven
Ġafford able
Ġmort g
AN D
Ġde lic
old s
Ġgrad uate
Ġpr on
ag h
le e
Ġcivil ian
Ġg ent
w alk
Ġse ar
ĠBe ing
Ġreform s
ond er
Ġcons ent
Ġse vent
k ing
Ġ1 20
Ġthreat ening
al ia
ĠSy dney
Ġprosecut ors
Ġimportant ly
is a
ĠP age
Ġpropag anda
Ġst ored
Ġadv enture
ĠC rit
Ġinstruct ions
Ġh al
ĠK ick
b ered
ĠK now
Ġcal m
ĠMar x
ĠC A
Ġprecise ly
Ġtort ure
Ġstrik ing
Ġcomprehens ive
Ġcere mony
l ined
the y
ĠS on
Ġp uzz
Ġstrugg led
Ġposs ess
Ġpers u
ĠEliz abeth
V D
Ġaward ed
Ġsh ield
Ġint im
s es
Ġch icken
ĠInst agram
Ġag es
Ġbi as
Ġ !
Ġvo ices
ĠL i
Ġd ying
act s
Ġb irds
Ġp icks
N ow
ĠP A
b its
Ġconsider ation
Ġbur ning
Ġkil omet
Ġdemonst rate
Ġb orders
ie v
et he
Ġw aves
Ġpoint ing
ĠMic hel
ail ed
Ġstre aming
Ġtrem end
Ġdifficult y
ater n
ĠMur ray
Ġcooper ation
ik i
ĠCl ark
ĠB ox
ar ia
Ġdes erve
ĠSt ore
Ġtr illion
ĠC ould
ĠT ok
Ġrook ie
Ġexec ution
d iv
ut en
Ġproced ure
ĠS ud
as ant
ĠT ax
Ġass ass
Ġsim ultane
Ġstay ing
Ġnewslet ter
Ġdial ogue
Ġsem i
er g
ish op
iz er
ĠT ai
S ome
ier ce
ĠBre xit
Ġcre am
it ol
Ġdist ingu
ĠH art
port ation
Ġarchitect ure
Ġaut onom
A fter
ĠH and
Ġassum ed
Ġste pped
Ġcateg ories
Ġjud gment
Ġanaly st
Ġ5 8
h att
Ġprom ising
ĠAs sembly
Ġcons ensus
as ury
ĠSt aff
Ġdri ves
ĠOak land
ĠMan agement
ĠCharl ie
Ġphys ically
Ġ199 3
Ġrepe at
d s
ĠSim on
Ġplayoff s
Ġg if
ĠCome y
Ġan s
Ġgreat ly
Ġwhere as
Ġc ow
Ġstrateg ies
Ġst em
Ġwant ing
or gan
ÃĤÃĥÃĤÃĥ ÃĤÃĥÃĤÃĥ
Ġimpl ications
ĠG il
ig ious
hold ers
Ġhigh lights
ĠJ enn
scrib e
b ury
Ġe le
cept ions
Ġinc hes
ĠTh ompson
ĠTh ink
ĠNe v
ĠLib ya
w as
ĠG O
om y
Ġass igned
ced ented
ap olis
Ġexecut ives
ĠH ad
Ġal ter
ors hip
et ch
om ed
- >
part y
Ġform ation
Ġsm ile
Ġfrequ ency
Ġdefe ated
Ġsuper ior
Ġcont ribution
Ġremark able
Ġ5 6
ad ers
se ct
ĠL ocal
it ual
ĠV ik
ĠJ ean
ĠA ccess
Ġop ens
Ġemer ging
htt p
ĠG ordon
Ġaccess ible
st ep
y es
rib utes
Ġco inc
ĠF estival
r if
Ġcontact ed
a fter
Ġw ounded
ĠTennes see
ak h
ĠOff icial
Ġ9 9
Ġdisp ute
ĠP sych
Ġhost ed
ĠM it
Ġmeaning ful
Ġman aging
ĠCap tain
Ġparticip ation
Ġn ic
ĠInt el
ig ate
Ġbl ank
st al
H z
Ġdr one
Ġ19 50
Ġindic ates
ĠTh ings
c est
Ġcompet ing
Ġdon ations
in ator
iff s
Ġre vers
ĠEx ecutive
Ġe ase
um ble
Ġmin istry
Q u
ar ation
ĠAff airs
Ġcent uries
Ġmem ories
Ġclot hing
Ġn in
ĠS U
Ġpromot ing
ĠB ow
Ġtri als
Ġar bit
Ġkn ee
ĠC ON
ĠDown load
ic ity
Ġg ross
T P
ĠPent agon
Ġathlet es
Ġopen ly
r ac
Ġpass age
Ġb in
Ġclin ical
Ġinf o
Ġend orse
8 4
Ġr iding
ĠHaw ai
Ġgu idelines
Ġman ifest
Ġrec ipe
r ace
ĠO cc
ch ild
ll a
Ġ2 50
Ġinvest ments
b u
Ġenthus i
Ġins pect
Ġt ired
ĠH oll
av ed
ĠC ase
Ġph arm
Ġleg ally
vertise ments
âĢ Ĳ
Ġsubst ance
Ġsuspect s
Ġfac ilit
Ġn a
Ġd ating
Ġelig ible
Ġenh ance
ĠOn line
ĠRem ember
j s
C O
er ia
Ġgr ade
ov a
ĠD ur
Ġtrans action
ĠPlay er
Ġdam aged
it o
ĠR est
ĠRus sell
Ġfoss il
Ġcust ody
ĠDig ital
Ġspe ll
Ġpo ison
Ġm ood
ĠSt ation
ann on
Ġl ux
Ġmem o
Ġtherap y
N S
Ġdiv or
Ġt ap
ĠML S
Ġg ate
ak i
Ġbatt les
Ġag ed
iss ue
Ġh ip
Ġdef ending
Ġdis h
Y es
Ġchar ity
ĠTh ird
ĠAdd itionally
Ġeduc ational
Ġstud ying
Ġrac ing
Ġper ceived
ĠÂ ©
Ġmus cle
Ġspect rum
Ġb owl
Ġaddress es
Ġse ed
Ġst ere
ac hel
Ġpresent ation
ĠSt ew
o z
a uthor
Ġexpand ing
ĠFurther more
ĠAl an
T ER
ĠD isc
ĠUnt il
Ġman agers
ĠIm m
ĠW ales
ĠHe art
ĠHar per
ol n
Ġback ing
Ġt ables
ĠAss ad
Ġdiscuss ing
os a
Ġl apt
I nd
Ġ( "
20 16
Ġb ot
v ision
Ġpick ing
Ġthe ories
Ġmod ule
Ġkit chen
Ġhop efully
it udes
Ġmiss ions
Ġdomin ant
ĠZ e
Ġv ig
Ġfollow ers
we ek
Ġgl ad
Ġp ocket
ri ors
Ġt ons
Ġcapital ism
ĠDr agon
ĠB M
Ġunder lying
Ġcounter part
od ox
Ġimp ression
Ġe cho
w atch
b ase
or able
ĠPitt s
ac her
Ġdisc ount
Ġn erv
Ġs ed
m ath
g us
Ġdise ases
os ystem
Ġstop s
ĠKent ucky
Ġfood s
ĠPh ill
Ġindust ries
ge red
ĠT able
Ġgather ing
ass y
al ysis
Ġcomp at
play er
Ġbott le
Ġsh ipping
igen ous
Ġsurv iv
ĠEconom ic
it ure
Ġunf air
Ġrec ruit
Ġbe ings
Ġcoach ing
Ġfund ra
ater al
ĠS a
Ġtim ing
Ġshe ll
Ġhe lic
Ġorgan ic
h ard
og y
Ġarri val
Ġgraph ics
ĠP ers
b uild
Ġscr ut
O b
Ġb ow
Ġbe ach
ĠCo le
Ġvar iable
Ġob sc
land o
ĠK u
Ġcreat ures
mark et
yl um
Ġfl ed
pt ions
ĠO x
ĠB urn
Ġinst itution
Ġe ager
": "
ĠB ol
AL L
Ġt ut
Ġproced ures
Ġexpl aining
Ġcr us
Ġh ire
ĠKh an
Ã ¢
i ac
Ġro y
le ft
J ust
d ie
Ġhosp itals
enez uel
ro ph
ĠAnd y
ĠH al
ĠF ant
Ġset up
Ġ5 7
U p
Ġsign ature
Ġpunish ment
ĠY an
ĠRe f
8 3
Ġans wered
Ġar r
ative ly
Ġregul atory
Ġrec re
Ġst ance
Ġso vere
Ġrhet oric
D e
Ġpull ing
Ġprefer red
Ġins ult
ĠG ro
Ġengine ers
Ġm ath
Ġd ies
Ġreb els
ĠT R
Ġper mit
Ġrequire ment
ĠB ul
ĠPh oenix
Ġtrend s
ĠDel hi
ag ger
Ã ±
Ð º
Ġacknow ledge
Ġhelic op
Ġbe ating
Ġtop ics
qu est
alt ies
ĠD od
ar re
Ġp ill
Ġl ad
l s
9 1
A d
Ġmer ch
Ñ ĥ
Ġgen es
unicip al
Ġsearch ing
Ġinter action
Ġover come
Ġlo op
em ic
Ġbad ly
ĠOr der
Ġsix th
Ġevery day
Ġ199 1
Ġprinc ipal
Ġperiod s
iz za
Ġpsych ological
Ġre nd
ke e
Ġstat ist
Ġadv iser
Ġsign als
g ence
Ġcommand er
Ġsent enced
ĠD ick
Ġbill ions
Ġcl er
Ġout lets
Ġgen re
ĠAr senal
Ġline up
Ġunder t
C ont
Ġspeak er
Ġse ctions
Ġocc urs
Ġpoll ution
Ġg ig
m ic
se ction
oc a
br id
Ġex port
Ġesc al
Ġblock chain
Ġ8 5
Ġconv ince
ĠC L
Ġrequ iring
Ġl oves
ĠNot hing
aren cy
en ess
ĠD E
Ġsh oes
ri x
Ġse gment
Ġhom osexual
gr ade
Ġtwe ets
Ġunpre cedented
ĠMont real
Ġinst ant
Ġcor rupt
ĠA aron
Ġpart ly
Re uters
Ġcoll aps
Ġeconom ics
Ġar ts
Ġle ct
ol ving
Ġbut ter
new s
Ġsp an
net ic
c ott
Ġtem por
Ġrem oval
ĠBrook lyn
v an
20 14
Ġattract ive
Ġb old
Ġc iting
Ġm igrants
Ġ ).
ĠB an
Ġv end
ol i
Ġappro aches
Ġconcept s
Ġcar ries
ĠM ove
Ġcompens ation
Ġc ock
Ġbul let
ĠE PA
ĠG DP
Ġengine er
Ġshe et
Ġe lder
Ġweak ness
Ġextraord inary
Ġgr ap
ĠRe agan
Ġegg s
all ing
Ġfab ric
ay a
ĠL og
ĠV enezuel
Ġam endment
ð Ł
20 15
Ġu pload
Ġfrequ ent
ang le
Ġper ception
Ġridic ulous
ĠF ind
" ,"
ĠJere my
Ġro ots
ĠW ord
Ġro lling
ĠH an
che ck
O K
Ġg ene
Ġpost ing
h r
Ġelim inate
Ġinst ances
ĠDo ctor
ĠJava Script
Ġf o
ĠC C
ĠBar b
ĠO cean
e le
ĠAnton io
Ġs its
ĠF uture
ist ol
Ġinv asion
ows ki
ĠCh ange
ol ar
ĠTy pe
Ġmain tenance
Ġar c
Ġdead line
Ġconstit u
Ġm ice
ĠE T
Ġtal ented
s ub
ĠTes la
Ġm ask
Ġun ve
8 2
is dom
ĠEvery thing
ne cess
ixt ure
ĠMet ro
Ġcol our
Ġpubl ishing
Ġnot able
Ġdram atically
e ared
ot ing
ĠI M
ĠMar ine
Ġpar ad
Ġdisplay ed
o pp
Ġb ene
ĠW rit
row ing
Ġcontem porary
Ġaim s
Ġmyster y
Ġut ility
ĠTr ust
Ġcom ics
Ġcorrect ly
ĠCra ig
Ġcamp s
Ġbu ck
Ġfunction al
sc reen
ĠCh annel
Ġanaly sts
ĠLe vel
Ġinqu iry
Ġins ight
ĠK l
Ġencour aging
ĠC R
ĠC B
Ġdream s
Ġlab our
V P
on z
Ġpri ze
ĠContin ue
Ġassoci ate
Ġneighb ors
Ġrecommend ations
ib an
Ġche aper
ĠCo al
Ġl ift
Ġcollabor ation
Ġg est
Ġfat al
Ġdeploy ed
Ġcommunic ate
ĠCon vention
v i
Ġres erved
ĠIndepend ent
ĠMiss ouri
ĠAr gent
Ġmanufacture rs
ĠEd itor
con st
ĠE nt
Ġdisappoint ed
Ġdiplom atic
Ġprompt ed
Ġdist ur
ĠO R
Ġtr aged
Ġrep air
og a
ĠB es
inc oln
Ġemploy ers
el le
est yle
Ġint r
Ġinterview ed
w a
igh th
Ġdemand ed
c ur
ĠN S
Ġland ed
Ġmoder ate
Ġhero es
ap ore
ĠAuthor ity
Ġn ose
ĠRes erve
c or
Ġfight s
Ġviol ations
Ġcou ples
arg et
Ġse ized
ĠS D
Ġs essions
Ġcou p
Ġingred ients
Ġexplos ion
Ġkn ock
8 1
ĠF A
Ġan onymous
Ġprospect s
in stein
Ġoccas ionally
Ġsub sc
Ġinequ ality
art ed
Ġc ens
Ġple ased
Ġcogn itive
Ġem p
Ġaccomp an
Ġrepresent ation
m ir
ĠM un
O s
un ity
ĠAd ams
Ġmod ified
Ġp unch
P L
Ġartific ial
ĠV en
Ġbirth day
Ġ< /
Ġres olve
Ġbi ological
Ġconst itution
ĠPl ace
ĠHit ler
Ġgu ests
th rop
c our
ĠStand ard
Ġless ons
Ġexc lud
ĠOr lando
Ġconscious ness
Ġir re
ĠPitts burgh
Ġ7 2
ĠMod el
Ġec osystem
Ġint ellig
in ally
Ġopp ose
ĠSte el
Ġown s
ĠL ibrary
ric ane
ĠNev ada
Ġdr unk
ĠR aj
Ġbe ll
ip edia
Ġad equ
ĠP ope
Ġtown s
p g
ĠAre a
ĠW right
ĠP ubl
i ens
ix on
Ġadop t
Ġperform ances
ĠChrist opher
ist ant
Ġdesign er
ĠOff icer
ĠSher iff
w ill
Ġter r
Ġpregn ant
w ich
ĠInd ones
Ġvolunte ers
h ist
Ġlif etime
ac re
Ġh anging
ĠR ome
Ġdef ender
ĠPer ry
le ans
Ġrel ation
Ġemot ions
r ank
Ġlog o
2 50
ĠProt ection
ĠB or
Ġass et
ib l
ag en
Ġmaintain ing
Ġl ibr
ĠT el
ĠStud ies
Ġstim ul
ĠFil m
ĠN O
ĠMount ain
Ġche ese
ĠG h
Ġimp osed
ĠM ail
Ġp a
ult y
ĠInt erest
ĠT s
Ġsh irt
ĠE ve
ĠG ill
ĠPort ug
is ition
ial s
Ġsold ier
end ar
IL L
Ġcl ip
ĠE b
Ġab stract
ĠPro duct
v o
Ġb ands
ik h
ĠLe ban
Ġprofession als
ĠDu ke
Ġconf used
Ġmilit ants
ĠCom b
Ġs wit
Ġg irlfriend
Ġst amp
Ġwedd ing
Ġtravel ing
Ġjump ed
ĠN ear
Ġ6 00
Ġless on
ĠRob inson
ĠCap itol
ump h
Ġsh ocked
ail able
Ġacc um
Ġn urs
Ġunder ground
Ġst ro
Ġbox es
ĠM ap
ac les
Ġst ack
hatt an
A B
Ġrec alled
Ġgu id
g ets
Ġinter ior
Ġisol ated
vern ment
app ropri
ĠN ame
Ġconfig uration
ry ing
Ġn od
Ġopp osing
Ġv ocal
ĠSp ir
Ġexist ed
ĠH oly
Ġconcer ning
ĠB and
G E
h uman
Ġann oy
Ġadvoc ate
Ġp m
Ã §
e lection
h as
ĠStew art
Ġcreat ure
Ġsurround ed
aw ks
d r
Ġs ne
st arter
Ġ vert
Ġ198 9
Ġpod cast
Ġdescrib ing
Ġsub ur
ĠOr leans
Ġfor um
Ġqu it
Ġj ihad
Ġmin imal
ĠM arg
ĠF R
ĠV ar
I nt
Ġsum mit
Ġinspir ation
Ġm ile
Ġsil ent
own ed
ĠP ant
Ġdesper ate
ĠH amp
Ġv oid
Ġbrut al
Ġintegr ation
ĠGr iff
Ġut ter
Ġin herent
bour ne
Ġref ers
1 50
Ġkick ed
or ge
Ġcho osing
ĠM other
ĠV lad
Ġrefere nces
ĠA ren
ĠRes p
Ġy eah
Ġpeace ful
g ate
ab e
ĠR s
t ra
ĠL incoln
ĠG ib
Ġh oles
Ġintegr ity
( "
he ro
Ġth ro
Ġorgan isation
ĠBl ood
Ġy ell
Ġide ology
Ġ6 2
ĠSub scribe
Ġdesk top
Ġcred its
Ġfle et
ĠU b
p ack
Ġregist ration
Ġcomp r
Ġelect oral
Ġbur ied
Ġmoment um
Ġbank rupt
Ġstrugg les
Ġsusp ic
ĠE D
Ġembr ace
Ġev ident
ĠEnter tain
Ġteam mates
ĠAll iance
Ġme al
f ather
ĠH ung
Ġe uro
Ġref use
Ġan cest
Ġsub mit
ĠTre asury
Ġpro be
ĠSing apore
Ġsustain able
Ġkn ife
Ġte eth
book s
Ġat he
ro ck
Ġexp ense
Ġj er
Ġwond ering
im ize
Ġd ual
Ġpromot ion
Ġnerv ous
Ġbom bs
ĠC ars
p en
Ġsc ar
ĠUkrain ian
Ġaccept able
Ġrefuge e
Ġb ird
Ġ5 9
Ġgu ards
ĠSo ft
Ġcon vert
ĠWith in
ĠO il
h ire
Wh ile
Ġsubscrib e
F i
T R
b ound
Ġpr ide
Ġrem oving
Ġclos est
at us
ĠUn ivers
Ġexp enses
H A
ut ter
Ġprof ound
ĠN azi
ist le
ĠF OR
inc ome
L et
Ġfl our
Ġdom inated
d ict
Ġst ating
ĠT am
c al
Ġelect ron
ĠE mer
ĠMan hattan
Ġoccas ional
Ġjust ify
Ġdel ight
Ġbrief ly
ing e
ĠChair man
ĠWar ner
Ġcomprom ise
Ġas sembly
che ll
ar o
Ġcharacter istics
Ġeng aging
ĠK ings
ĠK r
Ġexclus ively
s ome
ĠJ ane
str ong
ĠC as
Ġconsider able
b es
âĸ Ī
ĠUS B
Ġsurv ived
ĠCl imate
Ġjournal ism
ĠJer ry
Ġtremend ous
Ġinterpret ation
Ġexecut ed
Ġdon ors
ĠÂ ±
Ġbre ast
U C
ĠComm and
gr ad
ĠD rug
Ġload ed
el ing
Ġmon ster
ĠP oll
ĠC PU
st op
om ic
Ġpro st
Ġkey board
oc ated
ot te
ĠB C
Ġsubsequ ently
U M
Ġdisapp ear
Ġfle e
ok er
ĠGi ants
T ON
Ġh arsh
Ġcont rary
Ġconf usion
Ġout comes
Ġsoph istic
ĠEd it
Ġcha os
ĠS ection
Ġprint ed
ĠO sc
Ġstead y
Ġ6 6
Ġeng ines
Ġobs er
Ġres erv
c op
ĠNet her
ĠN i
Ġmin isters
ĠPol and
Ġsp o
Ġrob ust
orne ys
ĠTr ue
ĠMar io
Ġlob b
sec urity
at tered
ĠD al
Ġspeak ers
ĠTal iban
Ġcert ific
. ]
Ġgame play
Ġdistrict s
el ve
ĠMiss iss
M e
Ġf el
Ġrout es
Ġsex ually
Ġmir ror
ĠT ower
Ġcur ious
Ġconcer t
ĠV in
Ġas ylum
Ġspec ulation
Ġpro portion
li hood
Ġphys ics
ĠF ather
ĠOtt awa
g ood
ĠCopy right
Ġch ip
Ġatt ending
b en
Ġbr ands
N BC
Ġp ir
Ġrevolution ary
Ġfail s
re ck
ĠGr ant
St ation
Ġh iring
Ġpat ent
im mer
es ter
v ia
Ġg ri
Ġl in
} }
app er
w ind
ĠD ak
ĠH ug
c ap
Ġ8 00
â Ķ
Ġc abinet
ĠR ound
Q L
m ble
Ġch ronic
Ġcrim inals
Ġpass enger
Ġpack ages
E X
Ġnow here
ĠS EC
Ġde emed
Ġem bed
en h
ĠD a
Ġwitness es
ĠMP s
le ep
ĠEd ition
Ġchalleng ed
ï ¼
ĠEntertain ment
---------------- ----------------
ĠV o
ĠN iger
ĠC old
Ġstreng then
S e
ĠW inter
ĠB ased
Ġc inem
ĠH ans
if ier
ĠDe ep
ĠSc he
ad i
Ġpres ents
Ã ¨
Ġd a
Ġal ert
Ġend ors
ĠS N
Ġf ert
am ous
Ġo xy
Ġcharg ing
Ġdro pping
ĠJim my
Ġn u
Ġjur is
Ġev ac
Ġguarant eed
Ġcor rel
ment ed
Ġav o
Ġfig ured
ate ful
Ġas semb
ern and
Ġpack ed
ĠN elson
ĠPh ys
Ġle aked
ou b
ĠSt ock
Ġ6 3
r c
Ġsusp ension
p ing
ĠFl ash
an im
Ġhost s
Ġprodu ces
l u
Ġmathem at
wh ite
D R
v as
ĠAb u
oph ob
ĠW i
Ġdef ended
ard o
ĠBu y
ĠAb d
res hold
Ġattract ed
ĠN ich
Ġsl ot
Ġcheck ing
Ã³ n
ĠF O
us er
ĠM ind
Ġhun ting
Ġeng agement
Ġst atic
Ġdevelop ments
Ġple asure
Ġep ic
ĠRuss ians
Ġsimultane ously
Ġt ear
Ġw et
Ġcap s
is hers
gr aph
ĠOver all
Ġpat ri
t arian
Ġresearc her
ĠQue ens
th ood
Ġblock ing
Ġrepe al
n an
ĠF act
Ġintegr ated
ĠG ard
ast e
AR T
r ics
Ġbacter ia
ĠCanad ians
Ġang le
Ġbo om
Ġrec overed
Ġen act
ades h
M ay
Ġexam ine
ĠP a
im ir
Ġvari ables
mer ce
Ġjun ior
Ä ģ
Ġcy cl
lyn n
Ġsol o
Ġfl avor
ĠK a
Ġl ane
K E
Ġb its
in st
gg ed
Ġbomb ing
ĠVictor ia
ĠFin ancial
Ġdepend ent
R ep
Ġv it
Ġfing ers
ĠH IV
iz arre
AT CH
ĠSnow den
Ġedit orial
Ġtaxp ayers
Ġagree ments
Ġr ic
ĠD ate
B N
d am
Ġrad iation
Ġhousehold s
th odox
Ġsurprising ly
ĠMod ern
Ġfl ights
l ow
g al
ĠEgypt ian
Ġra ises
th ur
Ġo rient
7 00
Ġpubl ish
ut er
orm al
Ġimpact s
ĠB ir
Ġback s
ER E
ĠW y
on ed
Ġbl amed
Ġin her
o ft
Ġdecre ase
ĠBl ake
Ġforg otten
Ġsc ared
ĠStan ford
ere nt
Ġexpect s
Ġcon secut
u i
Ġen abled
ĠL arry
Ġmotiv ated
Ġaccur acy
N e
Ġproduct ive
Ġall iance
n ie
Ġun necess
Ġburn ed
Ġintim id
Ġkill er
ĠS port
Ġcontin u
b ian
ĠMod i
Ġv ent
ĠLouis iana
Ġrest ore
ĠRub io
Ġtow er
Ġb arg
ĠOlymp ics
ĠAl aska
lim ited
Ġrank ing
ĠV ery
Ġacc ord
Ġl os
Ġt anks
Ġinflu enced
Ġident ical
ĠS in
ethe less
Ġign or
ress ing
âĢ¦ .
ĠN ik
Ġcour age
Ġoccas ion
Ġfl av
Ġcourt esy
Ġexpect ing
ter ror
Ġre ass
Ġoccup ied
Ġv enture
ie re
ĠP ear
d ep
g ly
look ing
ĠR angers
Ġp y
Ġh ub
Ġexplicit ly
ĠStan ley
Ġcrit eria
Ġdes p
Ġqual ified
in ite
Ġinev itable
rim inal
ick ed
ĠMal ays
Ġ `
ĠSum mer
Ġvis its
Ġdist ribut
id en
Ġanim ation
ul se
Ġsh ops
ĠF if
ĠiP ad
Ġev olved
ĠCl oud
Ġtransfer red
Ġtrail er
ah oo
Ġsen ators
ĠMan ning
w ed
Ġconflic ts
Ġfunction ality
ipp i
Ġcheck ed
ĠF ight
Ġrele asing
ix el
Ġtele phone
Ġnation wide
i ar
Ġuncertain ty
ach ment
ĠCapt ion
ĠT alk
v ol
Ġdepart ure
for ward
Ġpromot ed
ĠBl ock
Ġorgan is
Ġout f
ĠMedic aid
Ġch ocolate
v ation
ĠC itiz
Ġpolit ician
Ġbel t
ĠTok yo
Ġin aug
ĠP rom
l arge
ĠCor p
r ition
Ġbab ies
Ġmet ers
ol id
z one
ĠN ature
ĠF le
Ġst ats
Ġsc rew
ĠHam as
Ġimp rison
Ġearth qu
Ġd iver
ĠColl ins
Ġtransp arency
Ġappl ies
u ating
Ġinvestig ated
Ġreb uild
le ading
Ġall y
unt u
ĠNether lands
ac o
Ġw ise
Ġmod est
ĠK al
Ġprivile ge
Ġpain ting
Ġsing er
ag ine
Ġb ases
Ġprov ider
Ġ6 7
Ġj et
Ġsole ly
Ġb ol
Ġt ent
F O
m ay
u z
ĠBe h
ond uct
Ġk iss
Ġconcent ration
Ġuncom fort
ree k
ĠFore st
Ġrel uct
ĠL ad
c ard
Ġvol unt
bre aking
oll ar
ĠSm all
~ ~
Ġball s
ĠPy thon
Ġ6 1
Ġform ula
Ġv oc
ke ley
ĠPlay Station
rif ice
Ġo ught
ĠWay ne
Ġinf ection
Ġthe ft
Ġhead lines
eral d
J P
im b
Ġdim in
Ġor bit
ĠChr on
Ġsa ke
Ġent rance
ĠLu ke
Ġinvest ed
Ġalgorith m
ĠHamp shire
Ġover l
Ġimp ressed
le ted
R es
Ġdis abled
Ġhand led
Ġlif estyle
ol as
ĠSm art
ĠM and
Ġm art
iz ations
ĠMedic are
ĠBuild ing
Ġregard ed
ou p
Ġinflu ential
Ġpo et
Ġâ ĸ
ĠE C
Ġpass word
Ġl ens
am ine
ri ke
ĠS M
Ġfil ter
ĠTre k
Ġins ur
ĠT oy
ist a
ĠL aur
Ġsim ilarly
Ġanal ys
off s
Ġin box
Ġconsecut ive
ĠCorpor ation
or ate
ĠOrgan ization
Ġch ips
Ġstri p
il ation
Ġprov isions
ĠN ash
ter y
ut her
ĠQ ual
Ġdest ination
? âĢĻ
amp a
Ġbul k
Ġsu ck
Ġcol leg
Ġprosecut or
Ù Ħ
ĠSte am
Ġb one
angu age
ĠM orm
C ol
ĠA FP
Ġabs urd
Ġaccept ing
Ġg ym
Ġprosec ution
ĠRon ald
be ing
bl ock
? )
id al
Ġimm une
ĠK night
ĠIn n
ĠPhilipp ines
Ġguid ance
o vers
ant e
Ġdest ro
d f
Ġt ears
olit an
ĠCh ampions
d ing
Ġant ib
ES S
Ġoper ated
ĠMc Donald
Ġle an
Ġro lled
Ġin ex
ĠEnvironment al
Ġoper ator
t own
). [
ĠR T
ra h
Ġrec k
ĠN a
Ġlaunch ing
Ġke en
20 13
Ġcompl ained
Ġtraged y
Ġm ales
Ġg arden
ĠP od
ĠIm p
Ġpres erve
ĠRog er
âĢĿ )
ĠPro gress
d og
ĠT an
ous es
Ġdet ention
ur ches
Ġne ur
Ġbo ards
ĠLook ing
Ġsett le
Ġb other
ĠO w
i per
ĠY ang
ĠSing h
viron ments
Ġpo lling
bit ious
com p
ĠBet ween
Ġ1 000
Ġlux ury
ĠMur phy
n on
tr ack
Ġsy nd
ar med
m illion
ĠMcC on
Ġemphas is
ab out
boy s
ll or
ism s
Ġconv iction
Ġbene ath
Ġcompe lling
Ġbet a
on ing
ĠWik i
Ġad ap
C L
Ġf its
Ġa wards
ĠN ative
Ġg ut
Ġfuck ing
Ġexc use
s uch
Ġen for
Ġel abor
Ġthe ater
ĠP ir
Ġkid n
Ġexam ined
Ġmiss iles
Ġphotograph s
Ġparticip ating
Ġsust ained
c itation
ass ion
Ġcons ists
ĠB enn
friend ly
ĠPe ace
ite ment
Ġneighborhood s
Ġb ump
ĠD rive
Ġrese mb
Ġpost er
Ġmand ate
ĠKurd ish
un a
ĠDe an
ĠA y
Ġshel ter
Ġf ed
Ġ6 8
Ġcirc uit
ig e
ĠR h
ĠCom put
Ġoccas ions
Ġreal istic
l aim
uck er
Ġtr ains
f ish
Ġproject ed
Ġm ouse
b in
l ink
Ġb ags
Ġent ity
Ġreflect s
Ġrec ession
ĠI V
ĠS ep
ĠAgain st
Ġt ension
Ġle ak
Ġaffect s
Ġman ual
Ġaccus ations
Ġsupposed ly
Ġaccompan ied
g ov
Ġadv ent
Ġsub tle
Ġposs ibilities
Ġf er
ust ing
20 17
ĠC ry
ĠJ ess
Ġexperim ental
Ġm m
Ġp ose
Ġresident ial
A b
Ġsto pping
Ġback up
ĠM as
ĠJ en
Ġsee ks
ĠS ac
ĠRed s
ist ance
Ġsur ge
ĠL ess
Ġer u
ĠN ap
Ġcook ing
Ġsignific ance
Ġinnov ative
Ġprevent ing
Ġd ressed
ĠD omin
Ġdr um
Ġad vertisement
Ġin hab
ia h
Ġrenew able
ĠCub a
ber y
ug by
âĢ ³
Ġdocument ed
ĠB ah
O r
Ġint rig
G A
ĠPatri ots
Ġconstruct ed
Ġcop s
O f
Ġinf ant
ĠS ide
Ġlay ers
spe ed
cent ury
Ġr hy
ĠP interest
ĠWh it
Ġass ists
Ġg olf
New s
Ġw isdom
Ġout standing
Ġfavour ite
Ġthe oret
Ġhe s
ĠR ow
Ġspeed s
ĠD or
Ġco in
Ġlong time
ĠBl u
for mer
Ġf ut
ĠD VD
w all
ĠAnt i
Ġold est
Ġbeat en
Ġpain ful
any ahu
ĠTai wan
ĠF un
Ġsec ular
ĠComm ons
Ġdocument ation
w ords
Ġoccup ation
il st
m art
io x
ĠMot or
ĠG re
ĠN EW
ĠS E
Ġfin ishing
ĠT ell
ĠRe id
Ġcontro ller
ĠAs ked
Ġtrad ed
th al
Ġpol ar
f unction
Ġreview ed
Ġpan els
Ġwire less
Ġmyster ious
Ġgl obe
ĠHe at
Ġpra ised
Ġicon ic
ĠAir port
Ġit er
r ons
itt y
Ġinteract ions
Ġliber ty
inc ial
Ġcle ared
ĠI an
Ġ198 8
ĠPlay ers
ĠAl ong
u y
Ġt orn
o op
Ġspot ted
Ġtri ps
ĠB ab
ĠP el
I O
ĠP ur
Ġaw ful
ĠOr ange
Ġb icy
Ġthe r
ĠHT ML
ĠBe yond
F rom
ĠMississ ippi
ĠW ard
ĠH ann
Ġwal ks
ĠMag azine
Ġsur re
Ġautom atic
Ġd irty
EM ENT
ĠL en
ĠG ab
ĠFer gus
Ġcross ed
Ġreven ues
ĠJac ob
Ġcross ing
u ke
Ġhost ing
ĠK y
Ġcontain er
pp ers
Ġf ishing
ĠCh all
ĠSt orm
Ġb ip
ĠMit chell
Ġal ign
Ġth reshold
ĠSwed ish
ĠS essions
Ġres ort
â Ĥ¬
Ġste al
Ġen vironments
ĠM A
S C
art s
ĠMan ager
st ra
Ġan ch
Ġproduct ivity
k ind
ect s
D C
ĠR ap
sel ess
Ġdispl ays
Ġearn ings
ard ed
Ġr anging
Ġoper ators
Ġdeal t
ĠK as
Ġb izarre
Ġbur st
20 12
ĠMad rid
ĠL ady
ĠSpe aker
Ġl ady
Ġmortg age
i ated
ot ion
ĠG ene
Ġr iders
u els
f irst
f ers
M AN
Ġfil ing
Ġconven ient
ĠW el
Ġto ss
ĠHun ter
Ġ3 60
am ents
Ġrob ots
Ġconver ted
ĠN az
Ġunf ortunately
ne g
s k
Ġjuris d
is ive
Ġgrap hic
Ġsl ide
Ġadminist rative
ĠTod d
ĠF lynn
T E
ob b
Ġcreat or
ch arg
ĠQue bec
Ġp our
ĠH uff
Ġlibr aries
Ġmother s
ĠBen j
oc ial
Ġt ale
Ġdevast ating
Ġcalcul ated
ĠAm b
ĠBe at
Ġear ning
ch ing
Ġdo ctr
Ġmurd ered
Ġreg ret
Ġpred ec
c ular
i ors
Ġh iding
Ġaddress ing
Ġres erve
ĠCh rome
m ons
be at
ari os
t est
Ġatt orneys
Ġsp ray
ĠMarsh all
ĠSaf ety
Ġreflect ed
cel ona
Ġover night
sh ore
Ġdrop s
Ġam bitious
Ġ198 4
u ably
Ġre wards
Ġrestrict ed
Ġsleep ing
op t
N D
ĠL ions
U D
Ġappear ing
ĠEag les
Ġexplo it
Ġsafe ly
ĠG a
ĠCamp bell
ĠD om
ĠS wit
Ġnewslet ters
Ġm unicipal
en cer
n amed
ow der
ist ing
ĠC os
ĠNet anyahu
ĠVlad imir
Ġw ore
Ġindic ation
k ward
arm a
AS H
Ġview ing
Ġuncomfort able
ail ing
ĠBr andon
Ġcompet itors
Ġscrut iny
Ġamong st
ĠWat son
Ġco ins
Ġwh is
Ġcomb ine
Ġarrest s
Ġadop tion
ĠLaw rence
u j
ĠL ie
Ġavail ability
m ap
al id
ĠBer keley
ĠCongress ional
ĠPr int
Ġlimit ations
Ġcur ve
ĠE X
Ġrel ie
ĠB aker
ĠS ad
Ġse eds
Ġnewsp apers
Ġdepart ments
Ġcomplex ity
Ġpe er
qu es
Ġr ivals
Ġme ets
Ġd uties
Ġs ons
ĠK yle
ac ies
Ġdelay ed
b us
go vernment
ĠPost s
Ġpubl isher
ĠKick starter
Ġwin ners
ar ians
Ġexpl oring
ĠB L
m id
a very
Ġcomm od
ĠTe xt
prof ile
Ġpregn ancy
Ġm isc
Ġprepar ation
Ġintellig ent
Ġcollect ing
Ġsophistic ated
Ġtou g
ro t
ĠC a
Ġinter ven
Ġp ension
win ning
ĠMel bourne
Ġ7 6
Ġnight s
c ount
Ġhor rible
Ġdes ert
Ġbuild s
Ġt u
Ġre ign
Ġreb el
ĠD raft
Ġemploy er
X X
Ġbe ef
c at
s ize
Ġin du
ĠMc M
ĠM obile
Ġan onym
Ġor ange
Ġ198 6
Ġpr ayer
Ġcelebr ated
Ġr itual
ĠF ederation
Ġab und
Ġact ed
ob by
ĠS aint
Ġcor n
Ġv iable
Ġce ase
Ġsepar ated
Ġthem es
ĠPark er
Ġdes erves
Ġt issue
Ġrel atives
b et
Ġsuggest ions
Ġrad ar
Ġparam eters
Ġdeleg ates
ern el
T O
ath on
ag u
Ġcar rier
ac cept
oc ur
er r
R uss
. ),
ĠM om
Ġcour ses
t wo
ĠAr ts
ĠBr and
ĠChristian ity
Ġchemical s
P s
Ġmechanism s
Ġmean while
b urn
Ġdet ained
S U
Ġst ir
ĠCommission er
ĠExp ress
Ġquiet ly
Ġpsych iat
Ġoxy gen
Ġlight ing
c re
Ġcomm ands
ĠD J
Ġca ution
are r
ĠFergus on
Ġfire arms
ĠLa ure
ĠCoal ition
Ġworld s
b ably
Ġf et
Ġp ending
Ġstart up
Ġfund ament
oy d
S E
ĠA wards
Ġequ ipped
ug s
Ġas pir
ri or
ĠBloom berg
Ġgrad ually
Ġbug s
ĠCurrent ly
ers ion
Ġens uring
ren cies
IC E
Ġdeb ates
Ġgent le
Ġremem bered
Ġamb assador
Ġnot ably
Ġc ave
Ġwitness ed
Ġcat ast
ĠAren a
om ach
âĶ Ģ
ĠB art
Ġto b
Ġdeliver ing
Ġf ires
n atural
Ġt ends
AT ED
Ġch amber
qu er
ĠSo on
Ġinstall ation
is ode
ĠLeg isl
S D
ĠSte in
Ġcount less
d ev
Ġcomment ary
ĠF ro
ĠAd vertisements
ĠR y
Ñ ı
Ð ²
Ġtransl ation
ĠC OM
Ġ' '
ĠMor ris
pie ce
Ġgr ants
u h
em it
Ġfor b
Ġdemonst ration
ĠI C
Ġven ue
Ġoff season
od a
ĠS ong
C o
Ġpled ge
Ġun l
ĠH end
found er
Ġm igration
As s
Ġpr icing
Ġt empt
Ġviol ated
Ġlog ical
Ġver ify
Ġgra ve
ĠR ain
Ġquestion ing
Ġimp ose
N ame
ĠH us
Ġdiscipl ine
Ġact ress
om er
Ġpart ially
Ġsum mary
p ot
Ġgold en
ĠSim ilarly
ĠCor ps
Ġ0 1
Ġad j
Ġhapp iness
les h
ĠCamp aign
Ġt um
sh ot
Ġcru el
ĠOb viously
Ġann ually
Ġg host
Ġfrust ration
out ing
IS T
Ġrepl acing
Ġcom ed
ĠK erry
f i
Ġexpl oration
Ġdem o
Ġbond s
Ġs izes
u ates
Ġincor rect
Ġare na
AT ION
ĠM ov
Ġhighlight ed
ĠN atural
ĠBar celona
Ã ¥
op les
Ġsty les
ĠBenj amin
Ġdisapp eared
Ġw ound
arent ly
Ġpoor ly
Ġf urn
Ġdr inks
Ġpre view
ĠK arl
ĠH P
Ġdesign ated
Ġprevent ed
g ments
Ġal ike
ĠSen ior
ĠN at
Ġtechn ological
or i
ĠEv ans
ĠR oc
ĠU I
ĠReg ard
Ġend less
Ġpra ise
or ical
Ġpro l
od ay
Ġtrans mission
Ġst arter
r int
Ġmarg inal
f s
Ġcon ced
Ġenter prise
ĠHawai i
Ġsupp orter
S c
Ġperm itted
p y
Ġh unt
ond a
ĠNever theless
form ance
ĠF arm
st ring
ect ed
Ġhonest ly
Ġpros per
ol s
ĠB E
ĠC ut
b ie
ĠMcCon nell
Ġclim b
ĠNC AA
Ġplan es
Ġcult iv
ĠFor ces
Ġprotect ions
Ġcompl ain
ĠPri or
ĠB ond
Ġlapt op
ĠE lection
ĠHot el
/ .
ur ities
ĠM oney
d i
Ġobserv ations
Ġfasc inating
auc us
ĠDak ota
ĠBar ry
ude au
Ġcont ents
tt es
ĠRec ords
Ġalt ogether
Ġsuggest ion
Ġpar ks
Ġbub ble
Ġbath room
ĠD og
Ġd il
ra it
ĠR ice
ĠDou g
r in
Ġinst antly
olog ically
ĊĠĊĠĊĠĊĠ ĊĠĊĠĊĠĊĠĊĠĊ
ĠWh atever
Ġtable t
Ġelect rical
Ġfac ulty
Ġre cept
Ġappoint ment
Ġpat rol
ier re
Ġcitizens hip
comm un
Ġdam n
anc hes
Ġagric ulture
Ġ) ;
op en
Ġstun ning
Ġ7 00
r idge
ĠPolit ical
h ill
Ġp owered
Ġc ous
vers ion
Ġc rown
Ġvacc ine
ĠOx ford
ĠH ide
Ġan arch
DA Y
ĠM itt
Ġreact ions
EC T
ĠT reat
ĠInd ians
Ġsac rifice
im s
Ġdr ones
ĠNe ed
ĠTer ry
ĠCh ance
Le aks
Ġcap ability
Ġsupp lement
E n
Ġfle w
Ġ6 9
appropri ate
ĠHis pan
Ġg reet
F S
Ġm akers
Ġ ^
re qu
Ġaccompl ished
Ġto ll
Ġas h
ĠSomet hing
Ġwe aken
Ġst ressed
ore r
Ð ¼
ĠAbb ott
pl ing
Ġeth ics
l as
Ġheart s
u ccess
Ġess ay
ĠE ss
ĠJ e
Ġr ice
ĠE mb
o j
ĠK it
Ġdraft ed
p in
Ġtr ucks
Ġceleb ration
Ġtob acco
p olit
Ġarg uably
ĠSw iss
Ġadv ised
Ġbuy ers
Ġassum ption
Ġcirc les
Ġdev oted
em in
Ġmet aph
ĠBr us
F ig
ĠPost ed
Ġsing ing
Ġmount ains
ĠM D
Ġep id
g roup
Ġscr atch
Ġder ived
Ġfr act
Ġdec or
Ġdirect ors
Ġsevent h
ĠEvent ually
ĠAl t
ĠB uck
ĠTe a
ru p
Ġpress ing
Ġaw kward
it ate
ĠSwit zer
ĠMil itary
am an
ĠPhil ip
id th
ĠH um
ĠTem ple
ĠBl og
Ġadvoc acy
ĠKir k
Ġy ard
ĠOcc up
Ġbound aries
M ar
Ġ197 9
Ġdep os
ĠK rist
fl ow
ĠF CC
or ia
ĠDep uty
Ġsh ake
ĠInvest ig
Ġc ats
Ġreve aling
augh ters
Ġtravel ed
ĠCo hen
ĠT un
ĠNot es
Ġhost ile
Ġmechan ics
ĠT ampa
m n
Ġaud iences
Ġbu nd
Ġhistor ically
Ġline back
s ur
ĠCh ap
Ġha z
Ġsp y
ast ed
oc us
Ġn ode
j an
Ġapp lying
ĠGr ay
Ġorient ation
Ġl one
ĠA w
Ġ198 7
Ġsup rem
Ġent ities
ip her
Ġl yr
ĠT a
ĠW ATCH
Ġconfirm ation
ĠT ry
ĠKe ith
ue z
ĠA B
it ivity
ĠF ried
ĠR io
g i
ĠR ail
ĠTr udeau
iv an
ĠB eng
htt ps
Ġsa uce
ĠR aid
ult s
ĠA round
Ġin eff
Ġpain ted
T IS
Ġrespect ive
d ata
m are
Ġshoot er
m other
Ġfocus es
um ing
Ġquant um
Ġunnecess ary
ĠD ub
ĠAny one
Ġexpert ise
at oes
c ode
Ġinter rupt
ĠB R
Ġsh ocking
ĠAlbert a
g ary
form ed
Ġconclus ions
at re
hand ed
f ile
Ġmotiv ation
Ġfr ank
con nect
Ġfrust rated
Ġpen alties
Ġmet h
ĠFix ed
Ġilleg ally
ĠAl most
Ġmand atory
r ust
Ġd uration
Ġstrong est
Ġ7 7
Ġt ar
Ġacqu isition
Ġt ill
Ġcrop s
Ġst omach
k es
m un
Ġunderstand s
P I
â Ħ
ĠChrist ie
Ġlong est
Ġprint ing
? '
Ġdist inction
z es
le ton
st orm
mind ed
Ġint ensity
Ġv ague
Ġexperien cing
ĠIn side
uer to
T y
Ġenjoy ing
ĠWik ipedia
m atic
ĠMedic ine
Ġconvers ion
ĠP ed
Ġrespond ing
Ġbre ach
Ġsw ord
st an
Ġoper ates
Ġpl acing
Ġce iling
Ġbe ars
k m
Ġm ild
à ¸
Ġfemin ist
pro t
Ġhack ing
Ġcoord inator
ĠDou gl
ĠFrank lin
lim inary
v ious
Ġcomput ing
Ġsaf er
h alf
Ġpartic les
Ñ ĭ
Ġcontribut ing
Ġres ur
Ġ7 3
ĠNe ither
ĠMem bers
Ġcount ies
Ġachieve ment
Ġrece ives
Ġc am
Ġqual ify
Ġadd iction
oty pes
Ġcomp osition
Ġgro cer
Ġd ensity
Ġbit ter
Ġcal endar
Ġovers ight
ĠD ue
ĠRe ferences
Ġinc omp
on ia
Ġdiv ide
od ge
ĠW ant
Ġaccept ance
Ġemer ge
ac ular
ag raph
Ġfast est
Ġg aining
ut o
ĠF ast
ab ling
ir s
ĠAr ctic
ĠP ok
Ġped est
ry ption
bor ne
ut t
ĠN umber
com ed
Ġscen arios
d ec
Â Ķ
ĠSwitzer land
Ġcomp osed
Ġ198 5
Ġconserv ation
out heast
Ġdirect ions
Ġb io
Ġimper ial
Ġd ign
n or
Ġinvest ing
ĠW orks
Ġdist ant
M us
ver ning
Ġover d
Ġins ane
Ġrot ation
ĠBuff alo
ĠSpe ed
PD ATE
Ġpri est
Ġl ung
ĠM aine
Ġtrans formation
ĠL ock
Ġu gly
Ġ= =
Ġe arl
m i
Ġhe aven
Ġiniti atives
or ient
b les
Ġmanufacture r
Ġexch anges
and ed
Ġf illing
Ġdes ired
Ġsc ary
w estern
Ġp or
Ġbal anced
Ġrespect ed
by n
Ġn ull
st ory
Ġt une
W S
im ents
ĠFire f
Ġp ione
Ġcontro lling
Ġsent ences
ch ron
ĠBes ides
Ġto ile
ĠRog ers
Ġser ial
ortun ate
ĠPr in
in itely
ĠTy ler
ĠCh uck
ĠLyn ch
o a
Ġcont am
Ġ7 4
Ġmon etary
ul pt
Ġcondem ned
ac er
spe cific
Ġpop ul
ĠD iff
ĠNe il
umb led
Ġw ings
Ġtou ched
Ġtun nel
ĠSus an
Ġsh orter
ĠConserv atives
Ġm amm
Ġprot otype
Ġpe ers
pro duct
ĠN av
ĠFant asy
Ġch urches
Ġp ink
Ġtut orial
Ġra id
Ġoper ational
ec onom
ĠOsc ar
Ġ19 30
ĠSc ar
lect ed
Ġb ones
Ġcrowd s
ĠS aints
Ġpan ic
Ġres erves
val id
Ġrif le
Ġsl avery
Ġcult ures
Ġro cks
Ġres idence
Ġphilos oph
ĠF at
Ġ7 8
ĠF isher
ĠCirc uit
ĠE V
z b
l ast
Ġt el
Ġtreat ing
Ġhuman itarian
ĠD est
t it
Ġpress ed
gu ard
AC K
sec ond
Ġanim ated
Ġflex ible
f ix
Ġide ological
Ġsec ured
N G
Ġexplos ive
ĠJ ets
Ġp ays
Ġis lands
Ġinf ring
idd ing
Ġsubsid ies
ĠD ri
âĦ ¢
bo ards
Ġnon profit
ĠWW E
Ġanticip ated
Ġagric ultural
Ġfr ight
Ġl ib
Ġform ally
Ġhigh way
ĠL uck
b rew
Ġgreen house
ĠC and
ĠB h
Ġspace craft
ĠB und
Ġcomple tion
Ġn aked
ĠBr ady
Ġwor ship
Ġfree ly
Ġvolunte er
Ġher itage
d rop
Ġe ars
Ġres igned
ĠE c
Ġacqu ire
ĠLiber ty
ĠSt re
Ġj okes
ĠC orn
ĠVenezuel a
s ign
ell o
Ġjud icial
Ġrespond ents
h ol
Ġh ier
Ġappro ve
Ġl anes
Ġatt ributed
Ġattend ance
UT ERS
ĠP uerto
Ġinstru ments
ĠCh apter
ro c
Ġconsequ ence
Ġsent iment
Ġs her
Ġprior ities
ĠS alt
Ġex em
ĠY ahoo
Ġdifficult ies
Ġto ken
ict s
Ġt urb
im ens
ĠPart ners
ic ut
Ġbu zz
( '
Ġdis par
Ġcon j
O G
Ġinc ons
ĠCent ury
Ġparticip ated
ĠArk ansas
Ġdiscl osure
at ile
o ard
s ized
Ġch ap
th ink
Ġelder ly
ĠJ u
Ġspread ing
i ary
r ane
He y
il ateral
Ġqu otes
Ġcr ude
( );
ock ets
Ġz omb
ĠM M
Ġworth y
Ġcle ver
Ġflex ibility
ay ed
Ġc ake
Ġdecl are
ch i
Ġappe als
Ġgr ateful
ĠG PU
b art
ici ary
iz ard
Ġre aches
ĠTurn er
Ġexc itement
Ġexp ed
d ale
ĠB ou
s upp
ĠHar vey
A m
ĠRob in
ĠA th
Ġ7 1
cont rolled
Ġre hab
Ġdesign ers
ĠCons ider
Ġaff air
Ġhat red
he alth
Ġadvant ages
ĠHe y
Ġdisp os
Ġinst inct
ĠD anny
inc inn
Ġconst rain
val ue
ĠMar ia
ĠMor ning
Ġz ones
ll i
ĠMc L
Ġrum ors
Ġassum ing
Ġl un
Ġb ass
are ttes
ĠFriend s
Ġmechan ical
Ġeconom ies
ĠT ig
ĠJ ake
ere r
ĠCommun ist
I E
Ġteen ager
ĠCont act
ĠColumb us
ing ing
ĠR ank
ch arge
ell er
e u
abet es
VER TIS
Ġw rapped
ĠSol ar
Ġkn ocked
Ġrep ly
ĠRE AD
ĠLuc as
Ġs ends
Ġcrypt ocur
ĠWiki Leaks
Ġdeliber ately
N T
Ġmag ical
Ġt ensions
Ġinter rog
ĠM ission
Ġrus hed
ĠRod rig
ĠOl iver
Ġres olved
Ġp osed
or ig
Ġaltern atives
Ġref using
Ġannoun cing
Ġprob ability
Ġdecl aration
Ġlegend ary
ĠD R
Ġharm ful
Ġdetect ed
Ġ8 2
z o
Ġhar vest
ĠR aven
Ġflu id
Ġ: :
Ġpled ged
Ġgr asp
ĠAM D
Ġvir al
ow ell
b ecause
ĠNor way
pr ising
ĠF el
Ġwel comed
incinn ati
or ph
c rat
ĠP ap
ĠG arden
Ġflo ating
it ably
o ons
Ġabs ent
Ġident ifying
ous ing
Ġtext s
Ġtrig gered
Ġcondem n
Ġdistur bing
ĠTh under
Ġg rip
g s
Ð ´
m ain
w he
g t
Ġf est
b age
Ġedit ors
Ġtr apped
est one
Ġport fol
Ġtransp arent
ĠT ob
Ġab ol
Ġequ ity
E d
az y
Ġavo ided
Ġsatisf ied
Ġin hib
Ġha bits
ĠCor byn
] :
Ġsu itable
Ġinter f
Ġremind ed
Ġshif ted
ĠRet urn
ĠBrus sels
Ġprev al
ust ers
Ġtend ency
ĠWe iss
Ġarm or
Ġwh istle
Ġass ured
ĠGu y
Ġhope ful
ur i
ĠJeff erson
Ġbreak fast
ĠP ence
ĠPr inc
Ġ Ï
ĠC ass
ĠSh an
ĠRead ing
rop olitan
keep er
ĠR C
Ġst ocks
f ig
Ġimm ense
Ġindic ating
at in
Ġinn ings
Ġmut ual
ĠMer kel
ĠC rown
ab l
ĠIm per
oc ate
Ġtechn ically
ĠP red
Ġste ep
ĠF DA
Ġbr ains
ĠK am
Ġimag ination
ĠEl sa
Ġf are
Ġwid th
ĠAr thur
ĠCharl otte
Ġdeploy ment
Ġoptim istic
Ġearl iest
ĠL oad
ll ers
Ġthrow s
Ġprov incial
Ġwa ited
ĠCount ry
ĠHoll and
ĠM ust
p ace
ĠB ears
Ġexcess ive
ell a
ĠAn im
p owered
ĠI RS
Ġdec iding
Ġtempor arily
Ġpres erv
l ash
Ġhy brid
Ġtrust ed
f old
Ġdivor ce
Ġm ixture
hes s
Ġcolle ague
wr itten
st ock
ne ver
Ġpresum ably
ĠMad ison
Ġf t
Ġf itness
ĠWar riors
ĠAdd ed
Ġedit ing
ĠZ h
Ġbel oved
Ġcompl iance
Ġdefend ers
Ġn ick
be it
ĠCars on
Ġconduct ing
greg ation
Ġr all
Ġcast ing
Ġem pire
ac ent
ĠN ort
L Y
ĠConnect icut
Ġminor ities
ĠR oom
Ġsupp ose
Ġhead line
Ġa est
Ġgrab bed
Ġfro zen
se ud
Ġdo se
ab il
Ġbl ess
Ġve gan
Ġess ence
Ġsocial ist
iv a
ĠG host
Ġ vel
Ġsoc ieties
Ġclick ing
Ġres on
Ġl ake
ne red
ĠBook s
Ġch ampions
Ġstruct ural
ĠTh or
Ġpurs uit
b est
Ġparliament ary
Ġbutt ons
Ġimm igrant
ĠJ oy
g ree
Ġw ishes
ĠN in
ĠEm ploy
Ġcolleg es
s omet
Ġwh ites
Ġatt itudes
Ġbar riers
Ġex ports
ĠIs lands
ĠP ast
Ġspark ed
ĠF ab
ig hed
Ġlif ted
Ġsurviv ors
Ġinfect ed
ĠBrad ley
Ġident ification
ĠMem orial
P ost
ĠL iving
Ġ ì
Ġhum or
Ġf ont
ar ound
ĠI l
ĠG R
Ġtradition ally
Ġplan ets
Ġbar rier
Ġsqu ee
Ġtour ists
Ġpen et
Ġpurch ases
Ġthere by
Ġcomp os
es is
ct ive
A V
ĠGu ide
s ky
Ġrec y
ĠC her
l en
Ġmet ab
ĠUb untu
Ġlegisl ature
ĠPh one
P er
Ġf ru
ĠSe ven
ĠGall ery
ĠAl tern
Ġstr ain
ĠJ a
ĠCl ar
w al
Ġprocess or
ĠC incinnati
Ġdam aging
ĠAn ne
Ġdec ides
ĠP i
ĠStud io
ĠPri ze
ll y
Ġsc rap
ĠB os
Ġdet ain
Ġadm its
Ġur ge
au kee
Ġeconom ists
Ġapproach ing
v als
Ġcart oon
Ġgrow s
Ġt rop
ot ton
af i
Ġrom antic
Ġa uction
ĠM ort
Ġn ons
ruct ive
Ġh orm
ĠU RL
ĠM C
ĠB Y
m aster
-- -
on er
Ġtem plate
âĸĪ âĸĪ
ĠAd vent
Ġeth ical
Ġmeant ime
f il
Ġathlet ic
Ġ Ø
ation ally
e or
Ġliber als
Ġpurs uing
Ġremind er
G M
ĠCommun ications
Ġdis g
ĠCam bridge
ĠW R
te ch
ĠP L
ple x
r ained
s ki
st art
ĠProf ile
20 11
Ġret reat
Ġ> >
th a
ĠUn iverse
ĠVer izon
Ġver dict
IV E
P al
Ġun ity
ĠH unt
ĠPet ers
Ġfl ip
ĠGl ass
Ġ18 0
Ġunder mine
ĠSt ars
Ġunf ortunate
Ġembed ded
ĠVer mont
Ġsac rific
Ġobserv ation
Ġt ang
Ġwal let
Ġsec rets
Ġhack ers
ĠS W
ĠRE UTERS
force ment
ĠG arc
Ġm asc
Ġpure ly
Ġt ong
Ġ8 8
act or
own ers
ĠIm agine
Ġdon ated
t ics
enn a
Ġbreak down
ĠEb ola
Ã £
per or
Ġwind s
ĠMe et
) |
Ġoff set
Ġex empt
ect or
Ġfail ures
Ġpre ference
Ġcomp ly
L ook
not e
s chool
w hen
Ġpassion ate
ĠUnivers al
Ġlicens ed
Ġemot ion
Ġam pl
ĠS ave
Ġperm its
p ath
Ġwarn ings
b ig
Ġexp end
ĠMu ham
roll er
T e
Ġeconom ist
w aukee
Ġrec ount
vis or
ors es
ĠSpir it
med ia
Ġout er
t ail
ur red
iz able
Ñ Į
ĠS elf
Ġvar iation
qu ality
ĠPol ish
ĠSer ge
ĠBet ter
Ġaccount able
back ed
ĠIndones ia
Ġvert ical
Ġbott les
ĠD NC
ĠCo ach
v ar
ĠO d
Ġdraw s
ĠK le
Ġ198 2
Ġbatter ies
Ġsens or
Ġ( )
ĠR osen
f ive
ĠHind u
Ġexec ute
Ġstab il
ĠG onz
ĠGl enn
ĠLe af
ol k
Ġs illy
Ġsequ el
Ġscreen ing
Ġcomp aring
p op
in ates
ĠDougl as
Ġconclud e
Ġsucceed ed
urn ed
A ny
1 10
ĠC M
Ġregul ators
Ġlobb ying
Ġarri ving
Ġche er
Ġdem ol
ĠH ub
Ġ198 3
Ġfr action
Ġl aser
Ġgif ts
ĠC u
VERTIS EMENT
Ġafter math
Ġwond ered
l ib
ĠR ams
Ġh oney
Ġsl ave
ĠS ay
ĠV irt
Ġdecre ased
Ġund ers
Ġcapital ist
Ġcount ing
point s
ĠPakistan i
Ġcre ep
Ġd ys
ĠÂ ·
Ġdis orders
Ġdestro ying
Ġsu ed
Ġtreat ments
ĠUp dated
ĠRec ord
Ġdiagn osed
E ven
ĠBelg ium
Ġh ill
Ġtr agic
ĠD M
Ġfeed ing
Ġd aughters
Ġlast ed
Ġfin ancing
ank a
ĠC elt
Ġdon ation
ir able
Ġgo verning
ĠB ash
Ġmass es
Ġre un
Ġrec onst
ĠV eter
Ġfem ales
Ġintent ions
Ġadv ances
is ers
N et
Ġmill enn
Ġf ence
Ġgener ous
Ġde ce
ĠÐ ¿
Ġcomp ound
Ġlack ing
ut ical
Ġtr ash
Ġin sect
Ġ ðŁ
Ġsl ower
Ġsepar ation
S ec
Ġl ip
Ġed ited
ad vant
Ġcorrespond ing
Ġr ib
writ er
h aul
Ġmed ian
ra pe
d ig
ĠM ember
accept able
Ġdis pro
p x
ĠNob ody
Ġtreat y
Ġun h
ĠÂ ĵ
Ġ0 2
ãģ ®
ĠPhot ograph
uss ion
Ġc ort
Ġcontact s
n ormal
g iving
Ġmon op
Ġp izza
ĠMorm on
Ġenh anced
Ġfar ms
ĠJ S
id ays
ĠP ick
Ġf ierce
Ġhelicop ter
it bart
Ġbenef icial
Ġaw a
Ġcl uster
sh irt
Ġc ub
Ġvill ages
ĠN ixon
ĠMet hod
ĠSh adow
ĠS or
arent s
Ġretail ers
aren thood
Ġten ure
ĠTit le
Ġcare ers
Ġcollaps ed
h al
Ġcons iders
ĠH alf
ĠFin ance
Ġele ph
ur se
Ġsuspic ion
ĠCol omb
J ohn
Ġfe ared
st ore
ĠStud ios
Ġtransform ed
Ġbe ers
Ġstre ak
Ġfound ing
ĠJ oh
ĠTo o
Ġb oring
ĠAm y
Ġtaxp ayer
ed ed
Ġcommission er
on i
ĠThe atre
ĠSci ences
ĠPok Ã©
Ġisol ation
angel ical
Ġtra its
ĠCow boys
Ġenc ount
ol er
ĠIslam ist
ĠRel ations
ĠS earch
Ġind ict
Ġencount ered
crib ed
Ġincl usion
Ġsusp icious
g ian
Ġsm ugg
Ġth irty
Ġorganis ations
Ġinter ference
ĠQ B
Ġdirect ory
ĠMichel le
Ġsoon er
Ġclean ing
ĠIs a
ĠInc re
um m
ĠR at
are st
Ġgrav ity
Ġdoub led
ĠBern ard
======== ========
ĠM ason
Ġag ing
P resident
m outh
ĠY ears
C D
h ome
Ġcred ibility
ĠL ane
Ġag rees
ĠM aking
Ġbelie ving
ip h
ĠWork ing
ad ows
Ġd umb
her ic
Ġfire f
Ġcivil ization
Ã© s
Ġking dom
ĠHill s
Ġm ock
Ġf ib
ĠGet ting
Ġden ial
Ġobs erve
Ġgr ace
Ġste am
Ġsp awn
Ġstatist ical
Ġnovel s
ch a
Ġle verage
Ġcontin uous
Ġbreat hing
ĠJohn ny
Ġout right
Ġcomp iled
Ġinv ite
ĠLeban on
claim ed
amp s
oll ah
Ġauthor ized
ĠT D
ĠB B
ĠMar co
ri en
ĠâĢľ [
Ġgam ers
Ġboy friend
ool s
ĠK ind
ĠM O
ĠSoft ware
Ġa ired
Ġhe nce
ol o
Ġur ging
I d
Ġpil ots
Ġinst ruction
Ġwar fare
Ġl au
Ġshif ts
ĠArgent ina
Ġmagn itude
Ġjust ified
ĠJenn ifer
Ġelim inated
Ġinst itutional
Ġrecru iting
V iew
Ġeduc ated
ĠG ay
Ġwork place
d irect
ĠM erc
T ime
Ġgl ob
ĠB ros
ear chers
it ative
pl an
c end
Ġeval uate
Ġn an
Ġrhy th
Ġc odes
Ġtraff icking
U E
ĠB JP
Ġbr anches
Ġroutine ly
Ġlab els
Ġgen et
Ġen ables
Ġspons ored
Ġlicens ing
Ġple aded
Ġdam ages
Ġpart ial
ĠAl f
ĠL isa
Ġwhe els
ĠIn v
ĠC ond
Ġcry ing
ĠH i
Ġwrest ling
Ġreal m
Ġac res
ĠE ither
Ġr iot
ĠT ill
ĠWal ter
ĠS ent
M od
Ġcreat ors
ĠG ates
Ġinv ented
Ġ19 20
ĠH at
Ġ1 10
ig ma
ĠA qu
ĠH em
Ġrus hing
op ard
Ġtermin al
Ġsc ulpt
20 10
ess ional
ace utical
st age
Ġorgan izing
Ġincent ives
Ġfirm ly
ast ically
ur able
dri ven
Ġtransl ated
Ġd irt
s ource
co ins
Ġconnect ing
Ġdec ks
au x
B ook
Wh o
Å ¡
Ġentreprene urs
out ube
ĠA ve
Ġhypot hesis
Ġult ra
ĠSp ider
Ġvis a
Ġincent ive
Ġlay out
ĠIn it
ĠE S
ah a
Ġscream ing
Ġvac ation
Ġsolid arity
w idth
Ġcoc aine
ck er
Ġmidfield er
Ġmon sters
Ġlyr ics
p ur
ĠMil waukee
Ġpe oples
ill o
al og
Ġreg ards
ale y
res a
Ġsh ar
Ġintrodu cing
Ġcompar able
Ġte ens
Ġpre liminary
ĠV iol
C al
ĠBud get
Ġunve iled
Ġment ally
ĠIm pro
Ġ7 9
lud e
ĠO wn
Ġv ibr
ĠJ ar
Ġarrange ment
Ġun st
M B
if ting
c s
Ġto y
eng u
Ġappe aling
Ġjump ing
Ġpsych ology
ĠW oman
Ġtouchdown s
fe ld
Ġgr ain
Ġcomment ed
ĠN PR
ĠBrazil ian
Ġb ust
Ġfin an
Ġfun eral
ĠTra vel
Ġproceed ings
ĠN G
Ġadequ ate
Ġexcept ions
ĠR ah
Ġdetermin ation
re ach
L ast
Ġun rest
Ġshould ers
i ots
Ġwork force
ue ller
ĠP T
ĠL ED
ĠStud ents
O ver
Ġtrad itions
ugg ed
Ġtr ace
. âĢľ
ĠH ope
Ġ198 1
Ġclim bing
ĠCarl os
Ġsn aps
ĠR ace
Ġmar ine
j e
Ġconv inc
Ġcomp assion
ord able
Ġaccur ately
Ġshe er
Ġ8 4
Ġd ivers
ĠGold man
Ġcelebr ity
Ġswe at
ĠBl ues
umb ling
Ġtri ple
D B
H ere
ĠSer ver
Ġmatch ing
ias m
Ġwild life
Ġan ime
Ġse ctors
ĠBrook s
Ġwilling ness
ĠBr un
Ġthreat en
Ġtw ist
Ġtem ple
an ium
ĠL ost
elt a
ĠW onder
Ġp upp
onc os
Ġlike lihood
l ive
N ET
Ġpath s
Ġcr icket
aff e
Ġcount ed
Ġbet ray
ĠSo x
cc a
ĠIs s
ĠR ic
ĠRe ed
Ġcounterpart s
arth y
ul ative
Ġinvest or
Ġlength y
ĠD ennis
ell ar
ĠÂ »
IT Y
ĠSt op
Ġnegoti ate
Ġprec ious
ere nces
ĠP ere
ĠBr oncos
ra ham
Ġc ents
ock er
Ġam end
Ġdesc ript
ubl in
Ġshe d
Ġavoid ing
ik ing
ĠI de
Ġf ict
Ġun ch
pp y
Ġmag netic
on nect
Ġdisappoint ing
r ide
Ġcreat ivity
Ġj ew
iss a
Ġearthqu ake
ĠWork ers
Ġsmart phones
Ġestabl ishing
Ġdub bed
Ġme als
Ġpl aint
Ġ1 30
Ġshif ting
ĠS el
t able
Ġind irect
ĠQ aeda
Ġalbum s
oc c
air y
Ġc od
ate ur
im age
ĠLt d
is ible
ĠTrans portation
ol ine
. :
Ġ196 7
Ġprohib ited
Ġsevere ly
ĠÃ Ĺ
ĠUs er
Ġmotor cy
Ġfold er
ĠP AC
Ġdis m
Ġsp are
ĠT ory
Ġover look
ĠBenn ett
ĠJ uan
ĠSuper man
Ġendors ed
Ġsens ors
Ġpar agraph
Ġint u
Ġgener ating
ĠAD VERTISEMENT
Ġaver aged
d ays
ĠSe ah
ul um
Ġimplement ing
l ie
Ġrenew ed
ĠOb ject
Ġaccount ing
ĠHar rison
Ġo x
ĠSp encer
u ced
U s
Ġwor n
Ġkill s
h ave
Ġd ivid
ĠRepresent atives
ĠMuham mad
ĠTr uth
Ġconsum ed
Ġm erc
ĠN ex
ĠV A
Ġmusic ians
iv ic
Ġcertific ate
Ġle agues
Ġmar ry
Ġref lection
Ġimp ress
ĠTrib une
ack er
it ated
Ġwood en
ĠRes ources
ro se
Ġind igenous
re r
Ġfilm ing
ĠDou ble
Ġaccomp any
Ġcor ners
ll o
Ġspecial ist
p se
ak u
C om
ĠSe lect
Ġi T
Ġlaws uits
Ġ10 1
ĠCh arg
b ull
OS T
ac ious
ett a
Ġsh aped
ĠSh ar
Ġbra ve
ĠHigh way
Ġv on
Ġproblem atic
agh d
Ġ8 1
Ġesc aped
Ġassum ptions
S ee
Ġfol k
Ġor g
mun ition
ĠQu ick
Ġsubsc ription
ĠPr im
Ġ196 8
Ġinteract ive
Ġtrad em
ĠA ld
Ġsl ip
Â ®
Ġd iox
Ġreason ing
ĠPalest ine
ĠUr ban
Ġin mates
t ic
in ance
ĠShe l
ĠAn aly
Ġin ch
Ġliter ary
ĠK el
Ġrec alls
ze ch
ian g
oot ing
Ġ19 40
T oday
ĠEx change
Ġy e
ĠBu zz
Ġtri umph
ĠK och
ĠAr men
Ġch ains
Ġc ra
Ġattack er
ĠCl ose
Ġless er
ĠP as
ĠF L
Ġspec ified
ah l
n ik
ĠG ate
Ġsl aves
g el
aw s
as m
Ġle af
Ġaggress ion
ĠPal in
Ġbankrupt cy
olph ins
ul ent
oc aly
Ġconsult ant
Ġunder way
ĠCol lect
ĠCal gary
Ġp owder
Ġaffect ing
ugg ing
ĠAg ree
ĠMove ment
Ġdark ness
Ġh ij
Ġroy al
Ġadapt ation
Ġfar ming
ĠE ight
Å į
Ġh oly
Ġwhere ver
ĠTer ror
oc ity
ĠStud y
Ġvulner ability
Ġfundra ising
ĠG ear
ĠElect ric
ĠGer mans
ios ity
cl osure
ĠBill y
ĠSystem s
amb ling
Ġsa il
Ġcontin ent
ID S
orn s
Ã£ o
Ġw reck
Ġcompat ible
i op
Ġhe aling
Ġres ume
Ġtim eline
Ġrel ating
ĠWall ace
Ġ __
Ġ8 3
ĠM MA
âĶĢ âĶĢ
Ġes p
Ġp ants
ĠBl air
ĠG ive
ĠS oul
ĠN E
Ġtrans cript
ĠOfficial s
ĠEd wards
Ġdet ection
ĠCom ics
Ġt ub
w art
Ġmount ed
ke es
ĠPlan ned
ĠC art
ec hes
Ch rist
ĠDen mark
ĠF ile
ili ation
ĠGM T
es ity
Ġle ather
ĠUn it
as i
Ġexha ust
Ġt att
Ġcy cling
Ġswim ming
Ġpredict ions
au er
th an
ull ivan
Ġdel ays
Ġdem on
Ġstat ue
Ġsher iff
ĠUp on
lev ant
Ġaud it
ig nt
Ġo h
Ġsupport ive
ĠH ud
ne ath
ĠR ou
Ġform ing
ĠH ockey
Ġm aker
Ġpurch asing
ĠS i
Ġb ite
ĠZ ero
ĠOper ation
Ġ** *
cul es
Ġsw ift
ĠAss istant
ant o
Ġcr ashed
Ġhe d
Ġsu its
ĠA gr
Ġtr ap
ather ine
Ġf uels
Ġadm ission
Ġgod s
Ġthorough ly
ĠG it
ĠHer o
Ġgar bage
Ġs ie
ĠJo ined
ĠM ack
Ġorig ins
Ġadjust ed
ĠAct iv
row th
Ġmort ality
Ġsk illed
Ġab used
Ġshoot ings
Ġ9 8
k g
Ġphotograp her
ĠR achel
Ġgr ay
Ġlaugh ing
Ġ197 6
Ġafter wards
â ĪĴ
pe ople
ĠG PS
Ġpract ically
ĠLiber als
pe red
L ist
Ġsuper hero
Ġ8 6
Ġlin ear
Ġlect ure
Ġdi abetes
Ġresign ation
ĠBre itbart
B L
ĠEp isode
Ġclass ical
en c
Ġm ph
in os
ĠAC L
Ġsound ed
Ġpe pper
add y
Ġenc ryption
Ġap ology
IN E
Ġin appropriate
iss ance
Ġve to
en z
ĠC ertain
Ġcost ly
Ġloc ally
Ġteen age
Ġl ap
Ġp ub
pp o
Ġblack s
Ġindepend ently
Ġsh ore
ĠG as
ĠHom eland
Ġbus es
Ġ197 3
Ġoblig ation
Ġmob il
j ar
Ġbroad band
Ġloc als
r ants
Ġdis k
Ġrep ublic
Ġk ernel
ĠN A
Ġclin ic
Ġins ists
Is rael
Ġair line
Ġunf old
ail and
u um
f our
ä ¸
bl ack
Ġed ges
Ġpubl ishers
ĠC reek
ĠN DP
Ġautonom ous
Ġcons olid
Ġtest ified
Ġ197 2
Ġcorpor ation
ĠP un
Ġrank ings
be an
Ġtra uma
Ġdis advant
ĠTe h
Ġun anim
ĠJam ie
id ges
AR D
ĠRaid ers
Ġinter cept
Ġveget ables
Ġfor ums
ĠDef ence
ĠCh ile
H D
.. ."
Ġeval uation
Ġcolon ial
Ġint end
Ġqu ery
ĠM arl
ĠGriff in
ĠVik ings
ĠBull s
se lling
Ġc m
Ġne at
umb l
Ġstraight forward
ĠMalays ia
Ġpre st
ĠM i
Ġh alt
Ġ197 5
ĠA bs
Ġorgan ize
ĠLeg end
ol an
ĠF ly
ĠLaur a
w er
ab ul
act ic
te am
Ġswit ched
Ġportfol io
Ġoff shore
ol utions
Ġarch ae
Ġdoctr ine
b ul
ĠP arenthood
Ġpro x
Ġemb assy
Ġr ated
ĠJo in
ĠSeah awks
ocument ed
Ġinf amous
iber al
Ġl oving
Ġbes ides
Ġaltern ate
Ġfrust rating
ĠF itz
qu al
Ġreb ell
Ġexp ose
Ġlabor atory
v iol
Ġd ated
pro of
ĠG B
ĠD ublin
g ro
Ġn uts
ĠSh ield
Ġchart s
B ER
ĠP ros
oca ust
ĠAr n
fund ed
Ġqual ities
ĠOrig inal
Ġlim iting
Ġse iz
Ġle aks
ĠI b
1 20
oub ted
Î ±
ignt y
Ġpriv ately
Ġobser vers
ah n
Ġmat ched
ĠM ueller
ĠFour th
ill ery
Ġout break
Ġsac red
Ġlist ing
Ġf ame
ĠSil icon
Ġnom inated
ĠO t
ĠCol on
ion ed
Ġath lete
0000 0000
i ology
Ġ0 3
Ġdiagn osis
Ġunc ons
Ġbehavi ors
Ġimag ined
Ġatt ributes
Ġe ighth
ere n
Ġsear ches
al in
ke ys
Ġexam ination
Ġinf er
Ġstrik er
r ament
ĠMcC arthy
ĠAcc ount
Ġexerc ises
D E
ble m
oth y
Ġdeal ers
ĠSp ot
u v
ĠBry ant
Ġelabor ate
art isan
Ġmod es
Ġmis leading
osit ory
Ġp orts
it is
pe lled
Ġaccommod ate
Ġ Ù
Ġs isters
Ġor che
ĠApp arently
Ġun e
ĠVill age
ĠS L
ĠI v
az ed
ĠBre ak
Ġst ays
Ġc her
Ġgall ery
Ġsp ill
Ġfl owers
Ġmem orial
E l
Ġterrit ories
ĠFor um
Ġves sel
Ġs ink
Ġgr at
Ġ197 8
Ġn it
Ġtrib al
ir k
ĠBry an
Ġdemonst rations
Ġeffect iveness
op es
Ġkill ings
Ġenthus iasm
Ġhe ter
ĠAL L
min ation
th s
Ġclass room
ĠNear ly
Ġent ries
ĠZ ion
ĠR EL
ur u
Â £
Ġhistor ian
f eed
Ġrub ber
ĠBob by
ĠiT unes
ĠPokÃ© mon
ĠIce land
Ġcon vey
Ġdiox ide
Ġdelic ious
Ġd ash
Ġd rought
ĠR oth
Ġcelebr ating
Ġfundament ally
Ġhung ry
B ecause
Ġfriends hip
Ġb ind
Ġsk ull
D es
Ġp ipe
ĠAut o
Ġam munition
ĠBut ler
resp ons
Ġdem ographic
ov ic
Ġrap ed
ĠTit an
Ġl oses
Ġh ood
U I
ins ula
Ġloyal ty
ential s
Ġdesper ately
Ġ9 6
ro ots
Ġdiff er
Ġp ile
Ġwh ilst
Ġd angers
Ġredu ces
ĠM B
Ġsubstant ially
Ġple a
Ġex agger
Ġmet res
Ġclos ure
ĠBang l
t or
ĠR ush
Ġinev itably
ĠCre ate
ĠE le
Ġ8 7
ĠCub an
S emit
Ġw and
Ġformer ly
Ġmod ules
miss ions
h ner
ĠVis it
ĠTh ailand
ĠH BO
ĠM aj
Ġcar riers
ĠPal ace
Ġmed ication
uk i
Ġblood y
ĠD iamond
ab ad
itt ees
ĠG and
Ġpre jud
h is
Ġwithdraw al
Ġrein for
ĠA x
Ġag greg
Ġg rey
n ational
Ġanalys es
ĠSp urs
we alth
Ġexpress ing
Ġarr anged
Ġ9 3
writ ing
Ġb ikes
Ġal tered
Ġmeasure ments
ĠSur vey
ĠRich mond
ĠLink ed
ĠG reens
Ġign oring
C R
Ġqu ad
Ġ9 7
Ġch ase
rem lin
Ġsh y
ĠQ atar
ING TON
iz ont
Ġyour s
se mble
Ġaccount ability
Ġbelong s
rep resent
Ġfulf ill
ĠR ico
ĠB P
Ġstr ings
Ġlineback er
Ġphot ography
........ ........
Ġconf using
ft en
ĠT arget
9 00
Ġvari ations
ĠBarb ara
Ġp seud
ĠR AM
Ġtw in
Ġalgorith ms
Ġrespons ibilities
ĠSt ring
Ġlast ing
Ġrev ised
ĠC zech
n esty
put ed
ĠFr an
r us
ĠM ul
ĠHur ricane
Ġto ys
ĠF ame
Ġexhib ition
Ġmid st
Ġre ception
ĠM all
ie val
Ġout door
Ġsol ved
Ġju ice
St ate
S pe
ĠAn alysis
Ġgar age
Ġtw itter
ĠML B
ĠReg ional
Ġâ Ĩ
Ġbed room
Ġconsum e
Ġins ure
Ġdiscl ose
Ġmed al
Ġ Ñģ
ri el
Ġrel ies
âĢ¦ âĢĿ
ĠApp lic
!! !
Ġchem istry
ĠS O
ĠP ad
ag ging
ĠS F
ĠLear n
Ġbrief ing
ĠJ av
Ġsh apes
Ġoccur ring
A re
Ġlock er
ĠConf eder
uls ion
ro lling
l ation
let ter
Ġspect acular
Ġregul ate
k h
ĠÐ ²
Ġaccident ally
ĠCl ay
m ines
w ear
Ġde leted
ĠJul ian
Ġun le
Ġinhab it
ĠSh ah
ort ions
Ġperman ently
p rom
Ġsymbol s
oubted ly
Ġb inding
Ġ9 2
ĠK ate
Ġmaintain s
Ġnew est
ĠRes earchers
ĠT ib
Ġconsider ably
ĠD ays
ĠSoc cer
Ġdecl ining
A K
ĠHel p
ĠSun ni
Ġpit cher
Ġa ide
ĠF ish
Ġfan cy
ĠLe v
ĠPhill ips
Ġman ages
Ġsche mes
Ġfin als
ĠSt ra
ĠAdd itional
ĠBr on
Ġvol umes
w ick
ane ous
ĠLeg al
ĠG ot
Ġr age
Ġskept ical
ĠMarc us
Ġth umb
ĠK ill
Ġpred omin
m ile
Ġexcept ional
Ġoblig ations
on ge
Ġn odes
Ġrel ate
OR T
Ġdisp ens
ch air
ang o
Ġf iber
Ġf oul
ĠN ag
at on
ĠWe bs
ig a
le m
man uel
IT H
ĠC ab
Ġplay back
Ġlabel ed
Ġun limited
de gree
Ġsh ipped
ĠC ant
Ġfin es
ĠT ru
Ġmon ument
f ly
f am
M ost
Ġstrict ly
ph p
Ġfresh man
Ġfil med
Q aeda
Ġdefin ing
Ġf lesh
Ġmid night
mar ks
ĠMc D
Ġtun ed
ĠP il
Ġsp ite
) (
ĠL em
ĠChron icle
Ġh orses
Ġw ip
ĠRe ally
Ġden ying
Ġtack les
Ġpuzz le
ĠB iden
ĠCh amber
Ġret rie
ĠCle an
Ġcance lled
Ġpresident s
Ġw ounds
Ġprocess ed
Ġspir its
sp ace
aret te
ĠS A
ĠB ishop
Ġteen agers
Ġt ribute
ĠPlan et
bor ough
ĠStart ing
Ġgenuine ly
ãĢ Ĥ
Ġme g
Ġpres cription
Ġbillion aire
ĠR aw
ist ically
Ġgovern ance
ĠN ar
ĠV i
Ġautom ated
ĠSand y
L D
Ġrest ored
ĠI BM
Ġin ability
ung le
ĠBrown s
ĠPack ers
Ġvig il
Ġdemonst rates
ĠSur v
Ġtoler ance
Ġint ake
Ġun re
n ames
US A
Ġc argo
ul u
ow een
oc ide
ps y
Ġshut down
ĠT ar
Ġstre ams
ĠD aw
sc he
ĠRec ently
ĠTig ers
Ġorganiz ers
Ġout lined
Ġsan ct
Ġwr ap
O ff
p it
raw l
Ġd ive
Ġprem iere
Ġreason ably
Ġext ends
r one
Ã Ĺ
Ġun acceptable
ĠM ix
ĠV P
Ġd ancing
Ġlove ly
= âĢĿ
th irds
Ġmisc onduct
ab el
ĠScient ists
Ġmilit ant
lement ary
work ing
z i
run ner
ĠR ud
Ġart ic
Ġsp ends
ĠUlt imately
ĠAr c
Ġr ings
rane an
ĠPolit ics
Ġt ier
Ġm ature
ap or
clus ion
ir i
M r
ĠBrother s
ĠB annon
ĠL ang
ĠMin or
Ġab oard
Ġsc ram
dis play
og g
ĠIn valid
Ġqu o
N Y
Ġsell s
olute ly
ĠC BC
ic ers
ĠD awn
Ġsub mar
Ġbattle field
Ġ196 9
h ole
ĠP oly
Ġdiv isions
Ġsexual ity
ĠNew ton
Ġhero in
Ġover haul
ĠM IT
ai ro
Ġris en
S M
ab a
i pt
ĠCom merce
Ġspot light
ĠDr ag
Ġpar ade
Ġunder neath
ĠS ens
ai res
Ġ197 7
ĠImper ial
ri pp
ĠB ed
Ġp ound
ĠR O
ĠG am
ĠA V
ĠEd ge
Ġvict ories
Ġste pping
heim er
Ġm elt
Ġbo ats
Ġgu ilt
ĠAtt ack
iz ards
Ġspe eches
Ġpublic ations
id o
Ġtransl ate
Ġm ate
Ġpart isan
Ġexhib it
Ġfel ony
Ġpro c
Ġconsist ency
H is
ĠE rd
Ġname ly
ret ion
Ġment ions
Ġsn ap
Ġsuccess or
op ing
hold er
Ġcoast al
Ġl uc
ĠU PDATE
ĠG P
Ġfacilit ate
form ing
Ġfl ows
200 9
Ġim pe
Ġinc umb
ĠB ird
W orld
ĠK ath
Ġl ined
ĠM I
c ill
ĠL ate
Ġd ot
Ġart if
Ġle ap
Ġgener ic
ĠD ra
Ġcontract ors
head ed
Ġanonym ity
Ġinc oming
ou st
Ġad vers
Y eah
ĠFl ight
Ġcor rid
Ġarri ves
Ġhas h
Ġj ack
Ġtour ism
ed ge
AN T
Ġem power
cl osed
ĠM VP
Ġstro ke
Ġhear ings
Ġ ),
Ġt ube
Ġdoub ts
Ġp iv
Ġsign atures
acc ur
Ġfunction ing
ĠAust ria
Ġrender ing
ĠMach ine
Ġp ale
ag ged
Ġpre season
ĠBe er
al so
ĠN ancy
ĠUS D
ĠL LC
ĠE M
Ġelectron ics
Ġsurve ys
âĢĿ âĢĶ
Ġad verse
ĠCard inals
Ġvend ors
Ġb inary
? !
ron es
Ġaut ism
ĠHol mes
ĠClass ic
IG HT
P ress
ĠB order
ĠB att
ter ior
ĠOk ay
Ġlic enses
Ġsubject ed
ĠSn ap
ĠPet e
in ery
Ġred e
Ġad min
az ines
b ling
Ġ9 11
Ġconfront ed
ĠN athan
b ad
b led
Ġarrange ments
ĠC ou
ĠCast le
ĠContin ued
s is
ĠT ogether
ĠY e
Ġun ited
ĠK or
Ġ0 4
Ġnegoti ating
l ies
ĠGarc ia
Ġtrave lling
Ġback lash
ĠC ape
ĠH R
ĠA G
ĠF an
Ġenc rypt
le tt
Ġse ct
Ġo d
um ns
ĠCh and
Ġembr aced
ĠC hen
ĠJ obs
ĠCont ent
Ġfrank ly
Ġgrocer y
Ġdef ic
Ġind ef
Ġrecommend ation
ĠC SS
Ġv ib
Ġ197 1
Ġ197 4
Ġout let
ĠSh i
Ġsovere ignty
Ġint ens
Ġcl arity
pl ess
Ġpret end
ĠAn imal
Ġves sels
Ġhon our
Ġdiscl osed
Ġlack s
Ġn ort
Ġfire arm
ier ra
Ġcloud s
wr ite
Ġgen ius
Ġdon ate
Ġanaly zed
ĠH ig
ĠTO DAY
ĠPant hers
ĠSud an
un s
Ġ14 0
ĠS em
ĠOr thodox
ming ham
av id
ĠAl ice
Ġconfident ial
ick ets
s pr
uster ity
Ġpl ates
Ġprop ri
Ġ8 9
IF A
Ġutter ly
Ġ" [
ĠJes se
Ġastron aut
Ġg ard
Ġtact ical
Ġobject ives
ĠL ot
Ġtong ue
Ġsal aries
re nd
Ġste aling
orient ed
Ġair pl
Ġmal ware
Ġd ense
ĠThrough out
Ġprem ier
ĠProt est
aug hed
ĠBe ast
there um
ĠM itch
ul ator
Ġhe al
d el
Ġfr ames
Ġmus cles
O O
Ġu seless
Ġeru pt
m os
Ġgl ory
Ġlegisl ators
ĠM ans
ĠComput er
Ġfort un
Ġdetermin ing
ĠW ade
Ġsport ing
ĠF ew
Ġbureau crat
Ġco at
ĠS ources
ĠInd ex
2 000
Ġdr illing
Ġcasual ties
G ener
ĠM ode
ĠP ath
Ġl iability
Ġhydro gen
Ġnecess ity
Ġliber tarian
Ġtw elve
u ity
ÃĤÃĥÃĤÃĥÃĤÃĥÃĤÃĥ ÃĤÃĥÃĤÃĥÃĤÃĥÃĤÃĥ
Ġconvinc ing
Ġca res
ĠS pect
Ġprotect ive
ĠM E
ĠH orn
W A
Ġs lic
Ty pe
ĠInt rodu
Ġlegit im
Ġc ure
ri ages
Ġspons or
Ġspons ors
Ġroll s
ĠAss ange
ĠAgr icult
Ġc u
ut ing
ĠW ire
ĠP in
Ñ ĩ
M en
ĠQu inn
d isc
#### ####
Ġmarket place
Ġc ute
Ġac ute
Ġp p
T ION
os i
Ġdign ity
u cc
ĠSam uel
Ġhun ger
Ġsens itivity
Ġbl own
Ġcon cess
Ġref usal
Mus lim
uff icient
f ar
Ġstimul us
gg le
ĠAct ually
p ic
Ġcatch ing
R O
Ġret ro
ep s
ĠRegard less
Ġmist aken
Ġachie ving
ĠF ortunately
Ġglass es
Ä į
Ġcharacter ized
g reen
Ġl ately
Ġl aughed
Ġread ily
const itutional
Ġ0 9
Ġflood ing
Ġcomple ting
ur ring
Ġswitch ing
Ġadap ted
Ġcan cel
Ġw are
Ġdefend ants
ent ions
ĠTeh ran
Ġqu arters
Ġen abling
ĠB ott
ĠO pt
Ġh ind
ĠWell s
M ore
Ġsp at
Ġspe lls
Ġelect ro
ĠÐ ½
Ġpr ay
ash i
Ġbip artisan
IC K
Ġ9 1
Ġm all
ĠL G
ĠM is
Ġr ats
Ġbe aring
ĠGirl s
Ġtrib e
ĠSome one
ĠâĢ ĭ
ĠHop efully
ĠBoe ing
ĠGo ing
ĠFer r
Ġal iens
Ġf ond
Ġ 000
ch ar
ĠC row
om atic
Ġdis ability
Ġswe eping
ĠDe al
ĠB aghd
Ġfore sts
Ġ0 8
ĠO P
t alk
ĠRe lease
Ġf art
Ġglob ally
Ġcool ing
ĠP ink
Ġw ard
build ing
ĠSt ay
F irst
ĠCol in
ĠS old
ĠA F
c ost
Ġtheoret ical
Ġportray ed
Ġmet a
Ġmurd ers
cast le
Ġpers ist
Ġext ending
ĠL uther
ĠArab ic
ĠN ep
ĠBase ball
ser ver
Ġsomet ime
Ġsynd rome
ĠPro cess
Ġ9 4
Ġa ston
Ġc ab
ĠJo el
ul in
Ġprev ention
Ġdom inate
lick r
ĠT rav
Ġneur ons
R ead
Is lam
Bl ack
ex p
ĠFiref ox
Ġnav igate
Ġhard est
Ġart istic
ĠRod gers
Ġend e
Ġor al
Ġl ighter
ĠG rey
ĠUS S
cont rol
Ġbi ology
Ġnew er
ĠM es
ĠV M
Ġse am
Ġins ights
ĠH ait
Ġhold ers
atic an
at ers
ith ub
Ġjurisd iction
Ġnight mare
Ġr am
ĠJess ica
Ġbusiness man
Ġm igr
ĠW inn
or us
Ġevolution ary
Ġnot orious
k ens
ernand ez
out ed
Ġa qu
Ġexplo itation
Ġal umin
Ġ3 50
et e
ĠT C
Ġsett lements
ĠStr ong
Ġreview ing
ĠPict ures
Ġattack ers
Ġtable ts
Ġsur pass
00 1
vel t
l ay
Ä ĩ
out e
Ġinfl amm
Ġpredec essor
Ġshort age
un ct
Ġapolog ize
ĠRe form
ĠSh aw
Ġfinan cially
ĠK os
Ġe leg
Ġha ul
Ġmem or
ar cer
Ġst raw
Ġred ist
Ġequ ation
Ġc ache
Ġsubscrib ing
ak y
Ġve t
Ġ{ \
Ġendorse ment
Ġantib iot
ur rent
pe ction
ant i
ĠAngel a
Ġart work
Ġlist ened
Ġassemb led
Ġdr ill
ĠI G
Ġcred ited
Ġtre asure
Ġrefere n
Ġtr icks
ĠL an
Ġtroub led
Ġv owed
Ġtax i
Ġbarrel s
ĠSw ift
ĠK az
ĠH E
ĠNash ville
F r
ĠD im
ĠB ear
Ġarbit rary
ĠPict ure
Ġre iter
ĠC T
Ġcomm itting
Ġup side
h um
ĠL arge
Ġelev ated
Ġaffili ate
ASH INGTON
AS T
ĠH appy
y ang
Ġst ark
Ġpron ounced
as a
Ġren ov
ĠRo ose
uten ant
Ġp airs
Ġcous in
Ġg au
z illa
Ġmos que
b ank
Ġvill ain
Ġmob ility
os ures
Ġspec ify
ĠComp an
Ġhe m
ĠOccup y
Ġ ic
fr ame
ĠC ox
Ġphys ician
om o
Ġp istol
Ġdesc end
ĠHall oween
Ġinc on
Ġpro port
RE E
ĠN ine
Ġsepar ately
Ġchar ter
et a
ĠBrew ing
pl ant
Ġpos es
Ġpers istent
a ired
am y
Ġcred ible
ĠR u
Ġg i
Ġtour ist
Ġtourn aments
Ġrel ent
v ised
ĠNob el
Ġm ant
Ġdecl aring
amp ed
om i
bl og
res pect
ĠMart ine
Ġinv isible
ĠC ell
c ond
Ġexpect ation
off icial
Ġrel ied
ur l
Ġtrib es
Ġbes ide
Ġp ockets
ĠW ii
ĠMoh ammed
Ġviol ating
ĠBir mingham
Ġd rown
Ġrent al
ĠPortug al
ĠBre nd
Ġover see
Ġinter section
ĠK remlin
am o
t w
T wo
ĠFin n
Ġviol ate
Ġles bian
ĠCat al
ĠJ oint
Ġdep ri
Ġrevel ation
Ġdeb ris
Ġp sy
ĠGl obe
Ġbl end
Ġfort une
ĠL ic
ĠAle ppo
ne x
b at
Ġsubscrib ers
ĠF oster
es pecially
ĠEnter prise
n ut
ade qu
ĠAff ordable
c m
ĠCitiz ens
umbl r
Ġdu o
ĠDun can
Ġre ct
ĠRodrig uez
ĠTra il
aus ible
min ed
ĠG A
Ġdeter ior
Ġd iamond
Ġtext ure
ĠPD F
Ġn urse
Ġd read
I X
ĠOb serv
ĠHispan ic
Ġinter im
ĠL ore
ĠPet erson
mont on
pro du
Ġwas h
Ġnation ally
th ree
âĢĶâĢĶâĢĶâĢĶ âĢĶâĢĶâĢĶâĢĶ
Ġob esity
ĠId ent
Ġvolunt ary
ĠSpe cific
Ġatt ribute
Ġprov ing
inf o
Ġrevel ations
Ġident ities
Ġpat ience
âĢ ĭ
Ġkick ing
ĠPal mer
Ġdefin itive
ob i
Ġrun ner
un ning
Ġacc using
Ġmag azines
ĠNex us
Ġvar ied
Ġfavor able
Ġvary ing
ĠSh in
k ar
Ġlay ing
at ched
ĠLad en
ul ates
R T
Ġa ides
ĠChief s
Ġreluct ant
ĠAr med
Ġsum mar
ĠSe x
f in
ĠHug hes
Ġor b
ro gen
ĠL l
Ġprov in
ĠN HS
Ġins pire
ĠW ere
Ġsh ower
econom ic
Ġpre ferences
Ġur gent
Ã¼ r
Ġ0 7
Ġrecip es
Ġrisk y
ĠV atican
Ġst er
Ġbreak through
em ail
Ġimpl ies
Ġtoile t
Ġtrick y
agon ist
un ks
Ġman eu
ian ces
Ġbul lets
Ġexclud ed
p ublic
Ġne ural
Ġdynam ics
Ġuns uccess
Ġal beit
Ġinflu ences
Ġp ause
Ġb atch
Ġkilomet ers
A dd
ĠZ immer
ĠSac rament
ĠIsrael is
S m
ubl ished
Ġmass acre
Ġne o
atern al
Ġgal axy
rib ly
200 8
Ġa ster
Ġfact ories
ĠEngine ering
Ġprof itable
ĠR ing
Ġfam ously
Ġban ner
Ġsubst itute
Ġhy d
uc le
f ight
ĠYan kees
ĠD rew
Ġintention ally
ĠWhe el
U P
Ġphilosoph ical
Ġinc omes
ĠBr ig
ĠD ynam
ĠM ade
Ġattract ion
ĠI L
o os
ĠW E
ĠStud ent
Ġback ers
Ġdistingu ish
he nd
b one
Ġload ing
Ġsk etch
Ġpass ive
ĠZ ach
ĠR PG
Ġter rain
th ird
Ġre lying
ĠT aking
ĠG round
Ġb out
Ġassoci ations
Ġgrad uated
Ġanaly ze
Ġdiss ent
Ġca ut
Ġexpress ions
Ġcy cles
Ġk icks
Ġat e
Ġhand y
Ġm ush
Ġover time
it utes
Ġpre y
Ġcl ause
Ġmem orable
Ġstr anger
Ġund oubtedly
er ting
Ġdiscour se
Ġhe ated
Ġdefend ant
in ho
osp el
Ġmis under
ĠW ol
alth ough
K e
ĠC ris
Ġsoc ially
Ġaim ing
ĠFin land
ĠS ullivan
Y our
Ġsum mon
ĠNiger ia
Ġmeas uring
ir med
ĠS ach
Ġblog s
Ġwor ries
n c
Ġpreced ent
Ġsub mission
in is
Ġse al
G od
ĠImm igration
cer pt
Ġf isher
EL L
Ġp ond
ĠChe m
ĠJ ong
ĠA irl
Ġ0 5
omet own
Ġrece ivers
ĠCl in
Ġcorrel ation
Ġst icks
ĠMont ana
so ever
OM E
ĠPro per
ĠM ine
Ġrecre ational
Ġoutf it
Ġentreprene ur
ĠPresident ial
Ġp add
B ay
ful ness
Ġun aware
ĠF ac
Ġun lock
Ġimport s
Ġour s
Ġauthent ic
Ġdon or
col or
br aska
Ġsub t
Ġf oster
Ġtheat ers
ic he
F T
Ġpr ayers
Ġstar ring
Ġar ise
l ass
our ge
Ġbroad ly
an ne
ĠD ise
Ġl iv
ĠClar ke
ĠAgree ment
as ma
Ġflaw s
ĠQueens land
Ġfict ional
os ity
ĠA ven
Ġval ued
Ġstick ing
Ġdisappoint ment
Ġsk ip
Ġen roll
Ġhel met
ĠW a
Ġprov es
Ġiniti ated
ĠTr aining
ĠC riminal
Ġgrand father
ĠUn less
Ġsuppl ied
Ġinv alid
ĠIndian apolis
am ation
Ġ Å
Ġcrew s
Ġevent ual
K K
ĠAth let
ro v
ain ted
Ġassass ination
C omp
Ġshe ets
ĠP ract
ĠR af
roph ic
Ġ q
Ġmin im
Ġbroad c
Ġsear ched
ah an
ĠC it
ĠAh med
ĠO ften
m us
ac hers
ud ge
d b
Ġban ning
Ġreven ge
ĠV ide
Ġdomin ance
te lling
ro d
ĠW ait
ĠCh ip
ĠRoose velt
Ġint act
Ġinvent ory
ĠB aby
Ġteam mate
f ull
ĠZ en
k ill
Ġyoung est
ĠW or
terror ism
Ġfin ale
t em
Ġobst acles
Ġinterpret ed
Ġp uck
Ġcontribut or
Ġepid emic
Ġcontract or
Ġa pt
app ro
Ġswe pt
ĠHol ocaust
Ġcur s
am bers
Ġtact ic
Ġtr ump
port ant
z h
G u
Ġachieve ments
Ġ196 4
Ġdef ines
Ġf itting
ĠK an
um bers
IM E
c ulation
ĠAdv anced
ve t
Ġinf lic
ĠD A
Ġg aps
int age
W here
Ġris es
pro v
ĠC ool
ĠAl pha
Ġprovin ces
ĠK ay
Ġdr ain
ange red
" ;
ĠPh D
> <
ĠC arm
ĠPer formance
ĠT u
Ġmed i
Ġworry ing
ĠBroad way
Ġp up
ĠS ierra
Ġdim ensions
Ġdiv ine
Ġc yn
de velop
p ound
ĠBangl adesh
ĠJeff rey
Ġmulti player
ĠM ath
Ġanal og
ĠE RA
ĠHer itage
he astern
Ġneutral ity
Ġsatisf action
Ġn arc
Ġinv itation
ost al
ĠEd monton
ov ich
ĠTr ad
Ġvar iant
ĠD ere
Ġr ou
ĠAll ah
cul us
ed uc
ĠF IFA
us ions
ĠM ong
ĠCost a
Ġfac ial
ĠChall enge
Ġ196 5
ĠChance llor
ĠBoe hner
Ġfix es
Ġsub way
Ġnav al
Ġquant ity
Ġp ars
head s
ĠMS NBC
Ġse aled
le ased
Ã¡ n
Ġoff enders
l arg
Ġmod ify
ĠO z
Ġbuff er
Ġconven ience
ĠWe ap
Ġdist ribute
Ġgrand mother
all ow
Ġm aj
umb ai
B R
ĠB ald
Ġbicy cle
D ata
Ġm im
Ġnetwork ing
Ġwhat soever
V R
Ġsk i
b ot
e very
ĠM urd
ĠP owell
Ġcost ume
ĠSub ject
Ġse min
ĠCh ase
ĠTra ff
ĠCar ib
ĠLim ited
Ġmart ial
Ġparam eter
ĠBar n
ah o
Ġinter medi
Ġpred iction
ĠH TC
ced es
Ġstar ters
Ġmic ros
Ġscript s
ĠAs k
Ġnav igation
s im
Ġentertain ing
A FP
ĠComm ander
ĠPot ter
Ġan k
ĠWe ather
V A
Ġnational ist
Ġmal icious
Ġ> >>
ch ant
Ġassault ed
Ġev olve
ĠC ulture
are z
Ġdu pl
re ated
Ġremem bers
sp oken
Ġcrowd ed
ĠJ ared
Ġn er
ãĢ ģ
Ġthe or
ĠWebs ite
ok o
ĠIn iti
ĠM atter
us hing
Ġconfront ation
j u
ĠEd die
ĠStat istics
R ight
Ġbr ick
Ġball ots
ĠMot ors
Ġinc arcer
Ġconsult ing
ĠFO X
Ġpr isons
ĠMus k
ĠW alt
{ \
ĠC av
Ġt ire
Ġprec ision
Ġignor ance
Ġneighbour hood
sc ript
ĠPriv ate
Ġunc overed
ĠPrin cess
Ġorgan ised
Ġc ord
OR K
ĠM AR
ĠBrother hood
Ġj am
ãģ Ħ
Ġcomple ment
Ġtouch ing
ĠPriv acy
Ġcomm em
se en
Ġdisc ont
Ġoption al
Ġopp ression
Ġdesign ing
ĠVo ice
ast rous
II I
ĠR ivers
ĠAl b
Ġe uros
Ġpitch ing
red ict
Ġpresent ing
ĠWeek ly
ĠSacrament o
Ġ0 6
ĠSim ilar
on ies
s qu
as ures
Ġm ast
Ġreject ion
Ġn erve
Ġprote ins
ne apolis
esc ope
ĠEff ect
ĠB elt
Ġremind s
Ġover th
Ġn est
Ġcommit ments
im ated
Ġsu ited
ĠNorm an
in formation
Ġconcent rated
Ġhot els
Ġcol umns
ĠH erald
pt ic
Ġdispro portion
Ġsurre nder
ment ation
gener ation
bel iev
Ġquestion able
ur as
Ġth ri
sh ow
Ġab uses
Ġsa ves
Ġan throp
Ġble w
ĠBaghd ad
em ale
C omm
Ġshar ply
Ġhor izont
Ġland l
Ġnons ense
Ġpo le
Ġper ce
ĠAny way
Ġd iam
col m
Ġback wards
Ġcur rencies
Ġpack s
ĠK aren
Ġ19 45
Ġcl ash
ĠC F
Ġthro at
D ef
Ġrend ered
] )
g rav
p df
ĠCom ment
ĠAlex and
us cript
Ġmer it
Ġadminist rators
Ġembarrass ing
ĠNe braska
Ġ16 0
Ġboot s
h ots
Ġover ly
ĠSen ators
Ġflaw ed
Ġen v
Ġwr ist
ĠY ellow
orig inal
ipp ers
Ġpharm aceutical
as se
Ġregul ated
ĠPro secut
Ñģ ÑĤ
Ġle thal
Ġto oth
ĠM ull
co very
ĠErd ogan
Ġb ay
ĠCh ad
ĠE P
Ġrob bery
Ġcomprom ised
ĠLu is
Ġs ab
ĠM aur
Ġad oles
ĠAh mad
AM E
Ġbelong ing
ĠZ one
Ġh ated
ĠAirl ines
Ġfree ze
Ġbase ment
Ġn asty
anc ies
ĠM atch
Ġhol idays
ment ioned
ig m
Ġprem ise
rit ies
ĠA ub
Ġbeh ave
Ġham mer
ĠWhat s
Ġpress ures
M any
Ġev angelical
Ġstead ily
ĠW ing
Ġcont ing
Ġbr ush
less ness
est a
ĠP ic
ĠC abinet
ĠI R
ĠP ret
ĠW es
Ġr ab
C NN
Ġtradem ark
ic ides
Ġamb ul
Ġupgr ades
Ġmanufact ured
Ġcur ric
the m
ĠMag n
Ġcorrespond ent
Ġun cle
Ġsol ving
c all
W ill
Ġj acket
Ġb er
Ġa usterity
ĠMartine z
M M
do ing
ĠMarg aret
y ers
Ġout look
ĠSteven s
ĠL ower
Ġcred entials
ĠToy ota
Ġapp et
Ġflo at
Ġpro xy
Ġarch ive
Ġc attle
ig s
H ub
ĠD rop
Ġbrew ery
Ġcontain ers
ĠGO OD
Ġvac uum
Ġmake up
Ġqual ifying
ov o
atter ing
Ġextrem ist
im eter
ĠR acing
ed e
V al
ling ton
sy stem
Ġaggress ively
Ġelim inating
ch ief
k n
ĠCoun ter
ell ing
Ġlink ing
Ġwho ever
________________ ________________
Ġopt ed
as ive
ĠTe levision
Ġmac ro
ĠHung ary
Ġint imate
M art
Ġsecret ly
ĠTib et
Ġins ert
ĠIndust ry
Ġinj ust
ĠMov ie
Ġpublic ity
augh s
Ġconstrain ts
Ġc ups
Ġmed itation
ĠT ask
ĠB anks
P lease
Americ ans
ĠK ash
Ġbas eline
ĠA er
ĠÂ °
Ġsubur ban
y d
if iers
r aged
Ġle ase
ar u
Ġg re
Ġacc idents
Ġtu ition
ĠHT TP
Ã º
Ġlif ting
.âĢĻ âĢĿ
S te
Ġjust ification
o ven
iter ranean
Ġtrack ed
Ġk g
ĠSt u
Ġhack ed
se arch
ĠBe aut
ĠK enn
un ique
Ġun int
Ġhor izon
ibl ical
ĠL oc
min ster
Ġemot ionally
Ġst iff
Ġto kens
Ġmess aging
ĠWood s
Ġbo oth
Ġo ven
Ġpl ag
Ġcompl aining
ĠAb raham
Ġinfect ions
ĠR A
Ġjo ins
ke ll
ĠH ost
and o
anche z
Ġprev ents
Ġvirt ue
ĠT ouch
Ġrec onc
ĠEv il
Ġrecord ings
ĠR al
ĠPal m
s ocial
epend ent
Ġtroub ling
p ol
Ġsatell ites
Ġinject ion
ĠLe ave
ĠCreat ive
com pass
ĠG ore
Ġadvis ers
ost ic
Ġp ad
Ġanch or
Ġextrem ists
Ġent ers
ĠS K
ĠCom ments
Ġp el
Ġnice ly
ĠC urt
ĠInter ior
Ġmet ric
St ring
Ġch ron
ast ing
Ġunder go
Ġsle e
ĠB ody
Ġir rit
Ġdig it
Ġl iver
ĠE thereum
Ġr ides
Ġsince re
Ġpun ished
Ġprison er
um atic
Ġdest ructive
ĠShort ly
Ġbud gets
P r
Ġsurv iving
ap y
Ġcl ashes
Ġ- --
ĠD ian
ĠCom cast
Ġirre levant
Ġtroub les
ĠH ob
Ġam ateur
ĠVin cent
ĠD w
Ġpur ple
Ġforeign ers
ĠL ives
ĠIn g
Ġh ilar
ĠDem ocracy
Ġde lete
ud a
ĠOrig inally
Ä ±
Ġdism ant
Ġdownload ed
Ġcomm ittees
ĠBe gin
Ġl as
ĠYou th
Ġhead er
oot s
ust ain
Ġg reed
Ġby pass
uff y
Ġr ivers
fl u
Ġrandom ly
ĠPoint s
Ġhor rific
Ġin accur
G S
Ġst ones
av i
ĠJ ed
Ġtrans fers
ĠMin neapolis
ig ue
âĢĿ :
Ġcompan ion
!! !!
Ġres id
ĠC P
R ec
Ġcomp ounds
r ams
Ġfor k
ĠBr ain
Ġsovere ign
Ġcommission ed
Ġconclud es
ĠRe qu
ĠCar r
Ġneighb oring
Ġun constitutional
Ġco pper
Ġo un
iz ers
Ġhomosexual ity
Ġintern ationally
Ġexam ining
child ren
ĠT on
A cc
B re
Ġden ies
Ġencour ages
Ġmanip ulation
h u
se in
Ù İ
ĠW ang
Ġte aches
Ġnon etheless
pr ises
er als
Ġterr ifying
g om
Ġmathemat ical
ĠMil an
Ġfe as
ĠCom plete
zb ollah
Ġ( +
Ġplug in
oun cing
ĠCo in
ĠA verage
clus ive
ia z
Ġadj acent
he ll
ĠAn a
ul k
Ġmole cules
Ġimpl icit
Ġhand gun
ĠM ons
if iable
ie ve
Ġannoy ing
ĠS ett
Ġhe y
ĠSh a
ĠB orn
us hed
ĠTH IS
ĠS pl
l ocal
vent ions
B E
p her
Ġprop ose
st ick
ro le
ĠOther wise
Ġcryptocur rency
ens on
Ġhyp oc
ific ant
ĠSc reen
Ġnin th
ĠS au
ĠC ash
Ġdis astrous
Ġin adequ
Ġland mark
Ġcalcul ate
Ġclar ify
ĠCub s
Ġunemploy ed
if ully
Ġkn ees
ĠAnt ar
worth y
ĠB omb
Ġapplic able
yl an
Ġdim ension
Ġ12 5
Ġinvestig ative
Ġlaun ches
Ġcor ps
Ġdisc onnect
Ġtrad es
ĠLight ning
Ġhed ge
ograp her
at hetic
Ġrelig ions
Ġint ends
ok u
ĠCast ro
ĠMet al
k now
ĠPerson al
Ġcig arettes
Ġcat ches
\ \
Ġd war
Ġoff ence
Ġdisp utes
play ing
b ra
Ġpict ured
ĠA K
ĠQuest ion
ind ex
Ġind ie
ophob ia
Ġref und
un ge
min ent
ĠMed iterranean
Ġstud ios
Ġstri pped
ĠNaz is
Ġbre ed
P oint
Ġhaz ard
ĠCons umer
Ġtoug her
ip se
ĠMer cedes
Ġatt ach
Ġthread s
p os
Ġover head
Ġretain ed
ĠB ak
Ġreal ised
ĠN ad
Ġaccord ance
Ġb ans
Ġprosper ity
S en
ĠK um
Ġboss es
Ġrep et
ĠCan n
atern ity
Ġl azy
Ġdel ivers
ĠR ule
Ġexpl ored
Ġintegr ate
Ġsubur bs
it ches
ĠCry stal
Ġe rect
R ed
Ġa ug
ĠRep orts
ĠBoy s
Ġenact ed
Ġprom in
Ġshe ep
ĠM umbai
Ġintrig uing
Ġpro long
Ġmind set
is en
Ġcalcul ations
B rien
Ġpriv at
izz ard
Ġl ending
ag ain
Ġmor ality
b oth
Ġfar mer
âĢ ¢
E uro
ĠRe yn
v or
l iter
ĠMal colm
uff ed
iction ary
ĠK er
ĠCon cer
v ial
Ġeconom ically
ĠSim p
ĠWal mart
ĠN V
p ay
ĠNew castle
ond e
ab i
ĠN ut
Ġsocial ism
Ġfif ty
ĠD oc
ĠT ree
Ġsymb olic
ĠPre vious
Ġlegal ization
Ġsan ction
ĠO m
** *
Ġr ugby
Ġfurn iture
ĠS witch
ĠK in
ĠSqu ad
Ġinf inite
Ġmin ers
Ġspecial ized
per t
Ġpres erved
ĠCo ver
Ġlight ning
av ailable
omet er
to o
ĠApp ro
ain er
Ġref uses
ĠBr ight
Ġcomp act
Ġch unk
Â Ģ
Ġprof iles
Ġdrag ged
ĠK o
Ġfl ower
ĠH im
ĠVis ual
ĠB ren
am pton
ew s
S omet
os ph
Ġgrad uates
ĠBM W
Ġconf erences
Ġdep ict
Ġcent res
Ġdeliber ate
Ġinter pre
ĠOff icers
Ġh ike
c lick
ĠCom ic
Ġrevers ed
ĠS id
Ġsc al
H P
Ġassess ed
1 30
Ġsc are
ĠLoad ing
ĠF o
ĠFred er
ĠTele graph
c d
Ġgu ided
y our
at isf
ĠInt egr
ĠBas ically
ĠH ence
Ġsequ ences
Ġproceed s
Ġgl ance
Ġcampaign ing
ograph ical
In st
ver ted
ĠEs pecially
g reat
D r
Ġexpl oded
Ġcoll ision
Ġunw illing
ĠTom my
Ġaff irm
Ġnorm s
Ġthr illed
Ġsubst ances
Ġfav ored
Ġrecru ited
Ġha un
Ġm g
Ġpot ent
T Y
ĠL akers
ĠAn onymous
Ġcrit ique
imp se
at able
Ġincorpor ated
Ġturn out
leg al
Ġindict ment
ĠCle arly
sp ons
Ġimag ery
Ġcrit ically
Ġgl impse
ĠSim ply
n ia
ĠCarib bean
ĠSt ream
osh i
Ġcal ories
S O
Ġcou pled
undred s
Ġple asant
E Y
ĠH az
C he
Ġoffer ings
Ġsimpl er
Ġany time
l ength
imens ional
Ġdecent ral
ĠNY C
g on
et on
ul ously
os aur
Ġtow ers
Ġinc om
oll o
Ã ł
ĠH onda
i ological
Ġcont empt
ĠCan cer
ik ed
Ġpoet ry
Ġsl ice
Ġst ole
act ory
Ġporn ography
Ġsur plus
ĠTh ai
Ġâ Ī
Ġop io
Ġtal ents
ĠS anchez
Ġh ometown
Ġdis gr
ĠForm ula
ok ia
Ġshare holders
ĠDet ails
Ġcommun ist
Ġtri o
ĠHud son
Ġcens orship
Ġload s
lin ing
Ġn aming
Ġtr im
Ġdisc retion
Ġstrength s
ĠM ann
i ably
ys on
ĠS ri
Ġencoun ters
ĠGib son
Ġcomp iler
Ġsc roll
by e
s ight
k ers
em et
Ġdef enses
ĠD I
re cy
Ġder iv
Ġflow ing
ĠComp et
ĠAuthor ities
Ġreal ise
ĠVal ent
asc us
Ġrest rain
H C
Ġemphas ized
ĠB O
Ġhabit at
ĠSt alin
ĠH ousing
we b
ident ified
Ġv ag
Ġch airs
Ġfemin ism
Ġnot ified
Ġcance led
Ġcontrad ict
ĠB ent
ĠOut side
e ment
Ġtravel s
ĠUn ity
Ġcur b
Ġdict ators
M on
Ġcontin ually
sh aped
Ġpract icing
ĠTex ans
Ġm old
ĠList en
Ġflee ing
ĠY u
ĠL ion
ĠPr ison
ĠM ut
pri v
Ġsu ite
ĠHe zbollah
oc y
ĠMe g
ĠEurope ans
ĠC rew
ol ics
ĠOper ations
Ġimport ed
h h
Ġiss uing
Ġcop e
w ould
ĠS ter
ĠLeon ard
Ġsu cc
ĠPro bably
ĠMon ster
Ġg ly
Ġorder ing
Ġfather s
Ġl ips
ĠS B
Ġbe ast
ĠM ob
S ports
m ill
Ġpack aging
ĠLinked In
Ġaccount ed
Ġd awn
Ġra ids
m el
Ġro oted
The n
ĠNor we
ĠLat ino
Ġfinger print
G ood
Ġa irst
ce ans
ous ands
ĠO ri
Ġfe ver
Ġle ver
******** ********
Ġj ets
Ġvo iced
ask et
ĠD elta
Ġcollect ions
Ġgest ure
ĠCar roll
ĠDere k
Ġwas ted
Ġlack ed
ĠW AR
d eb
Ġt ender
est on
Ġcolumn ist
ĠG aming
Ġlit igation
ĠT ak
Ġfact ions
Ġplace ment
Ġcrack down
Ġ9 00
Ġamb ig
ĠTrav is
g ue
Ġel ites
D em
AS S
Ġconst itute
ĠEm ily
ĠArch itect
Ġcritic ised
Ġappreci ated
M I
Ġoverwhelming ly
Ġdr agon
ĠE t
ĠSimp son
ĠAd vis
Ġobsc ure
ĠK ids
S ince
Ġb ats
Ġref res
ĠBelg ian
ab lo
Ġsup reme
ĠJ ur
Ġconv ictions
Ġind ivid
Ġreb ounds
rik es
ÑĢ Ð°
ĠH S
Ġfre el
Ġforth coming
m em
Ġdes ires
Ġdep icted
es ville
otten ham
ĠTw enty
gh azi
Ġactiv ated
Ġrall ies
ĠP orter
ĠD j
Ġun law
ĠY ale
ĠK urt
us c
Ġscholars hip
rit ical
Ġkilomet res
Ġcont race
Ġefficient ly
le ague
ĠArm strong
Ġsh oe
ĠGreat er
Ġwhe at
ĠSat an
V M
b augh
Ġman uscript
Ġfin ances
ĠRec ent
] ;
ar se
Ġen velop
Ġneed ing
ik o
Ġguarant ees
Ġr abb
Ġdist ress
Ġte lev
Ã© e
Ġuncons cious
Ġproject ions
on ut
Ġru in
oul os
Ġbe ans
O ut
Ġprec ip
Ġpat ents
ĠV ersion
sec ution
ĠRes ults
ĠEmer gency
Ġins pection
Ġvacc ines
Ġman ually
Ġres il
Ġcar ing
Ġschol ar
Ġsec uring
m ax
um my
Ġpost ers
Ġinstall ing
h ad
est e
gh ai
Ġprogress ion
ogen ic
ĠCom ing
Ġdis hes
Ġwh oles
OS E
EN D
Ġshout ing
ant ing
ri ans
Ġsatisf y
ĠREL ATED
Ġpredict able
ĠH ERE
ft y
ĠRaven s
Ġint ensive
Ġprofess ors
Ġswe ep
Ġ196 6
ĠDam ascus
1 000
. ).
at al
Ġfru its
ĠL ocation
ĠB ec
ĠK ane
ĠLabor atory
ĠS ug
Ġdes cent
ĠM end
Ġconfir ms
Ġwe aker
Ġhas ht
Ġsp here
Ġj unk
Ġport rait
Ġl ing
ĠColomb ia
tr ue
raw ling
Ġg ambling
om ers
Ġpurs ued
Ġs id
ĠCh an
Ġthreat ens
Ġorg ans
Ġund ocumented
Ġ ï¿½
am mar
Ġbe ats
ny der
Ġhy pe
ĠLe aders
somet hing
Ġmeasure ment
Ġinstruct ed
h or
ĠS eth
ĠIndepend ence
Ġge omet
ic ating
M ark
Ġassign ment
Ġdig est
ĠÂ Ń
ĠK end
ues e
Ġdepos its
Ġpass port
mer cial
h n
Ġint e
ĠS ale
ĠMajor ity
ch t
Ġmin es
il ia
Ġc it
Ġtra ject
Ġremain der
Ġhel m
Ġsc attered
Ġcon gr
ĠHe avy
Ġfix ing
ĠFin als
ĠB apt
ĠTer min
ĠSum mit
ĠG or
Ġm ud
c amp
U G
Ġsc ales
Ġment ality
Russ ian
ĠLe x
ĠSt rip
m und
ĠS weet
ĠSc roll
Ġbatt ling
ĠPro duction
ĠX i
Ġpr one
ĠD ear
Ġliber ties
Ġstart ups
ac cess
Ġtrop ical
Ġbackground s
Ġm apping
ĠSpr ings
ĠCol lection
ĠV ot
Ġb ored
ĠGr an
Ġres et
charg ed
ens en
Ġconcent rations
Ġcons cience
Ġmix ing
ĠNich olas
Ġse gments
ĠK i
emet ery
Ù Ĩ
ur ious
Ġcry stal
ĠStep han
Ġshout ed
Ġgot ta
M obile
Ġdis gu
' )
at ics
ĠNews letter
Ġtou ches
ĠV I
Ġapart ments
ĠM ol
ĠCrit ics
ĠGand hi
Ġcontinu ously
Ġinf ilt
Ġwat ches
Ġdis puted
Ġir ony
Ġmount ing
Ġrock ets
Ġneg lig
Ġab ortions
Ġgr im
l isted
Ġmo ist
ĠKen ya
Ġsynt ax
Ġcommod ity
ĠRichard son
b ast
p aid
ĠInterest ingly
ĠCon clusion
ĠM oss
Ġd ining
Ù Ĭ
ĠWrit ing
ĠD ame
ĠW itness
ĠH A
r and
gom ery
Ġceleb rities
g irl
Ġassert ion
s ite
P art
ĠCol ts
Ġhe els
ĠL O
Ġmy st
Ġaccording ly
Ġaest hetic
Ġhand les
Ġd ough
ĠRepresent ative
Ġd ug
br and
ĠW als
ĠÃ ł
Ġsurvey ed
Ġpromot ional
Ġfavor ites
id ity
Ġcar n
Ġc abin
Ġdress ing
on al
op ular
Ġver bal
Ġactiv ation
Ġin k
Ġwood s
ĠNo ah
Ġsw ap
ĠUlt imate
ĠY am
Ġill usion
ig ion
ĠF ans
Ġappreci ation
Ġeas iest
Ġdep uties
Ġcome back
âĢ¦âĢ¦ âĢ¦âĢ¦
ĠG ing
Ġbl ade
Ġch im
Ġen vision
Ġindic ator
Ġunh appy
Ġan om
ĠDan ish
Ġh urd
Ġmarg ins
r ise
ĠD ust
Ġsystem atic
ar in
Ġadvent ures
own er
Ġpost season
ĠDar win
Ġc aucus
r ising
Ġ196 3
cl ub
G e
or p
ph is
sh it
uck ed
ĠG N
cur rent
Ġaer ial
ĠJun ior
Ġic ons
B ig
ĠBen ghazi
ĠJ ob
Ġw ra
Ġbr idges
Ġcompar isons
ĠF ace
Ġsu e
Ġcharacter istic
ateg ory
ach t
reg ard
Ġtransport ed
Ġsl aughter
Ġe cl
Ġactiv ism
Î ¿
Ġm ol
ĠS ie
Ġc ables
ĠCrime a
Ġpark ed
ĠEx cept
agg ering
ĠH ass
Ġdispl aced
Ġu pt
Tr ans
Ġsc i
Ġdis ruption
ĠX L
Ġsm iling
ĠStr ateg
ĠJ ama
ab lish
Ġgrass roots
Ġmed ieval
Ġsl ated
Ġcertain ty
Ġca f
Ġ( Â£
or ically
Ġch ick
Ġaffili ated
g ical
Ġd airy
Ġhe ating
Ġconce aled
i ott
Ġrhyth m
ĠR B
ĠO culus
ĠSt ories
Ġfl ames
Ġcinem a
Ġflags hip
N ote
Ġpull s
an as
ĠN ord
Ġup hold
ur ry
ĠRe act
Ġl inem
at ility
z el
Ġpolic ing
ĠS end
ĠA CC
Ġstaff ers
spr ing
he y
Ġcompet itor
ĠUC LA
ĠReds kins
.' "
ĠB ach
B ar
l av
Ġnot ification
m ount
ĠB eth
h art
Ġreprodu ctive
Ġbl unt
ĠAd rian
Ġw ield
Ġprompt ing
ĠT rip
Ġt ennis
ĠMin i
Ġl ied
ĠF alls
Ġst ap
atch ing
ĠSchool s
Ġtheat re
ĠCommon wealth
Ġstat ute
mid t
Ġd are
M ENT
Ġphys icians
ens ed
ĠH ack
ĠRand y
els h
ipe g
ĠB rett
ĠB ills
s ay
Ġh ipp
Ġrep ository
Ġdist urb
ĠM asters
ad ata
Ġremote ly
ĠSocial ist
A E
Ġsh ook
Ġsh ark
Ġnut rition
Ġacc laim
ĠK ap
I ES
Ġmulti pl
ĠE L
Ġfl ies
Ġble eding
Ġcustom s
ĠMatthew s
Ġacadem ics
lud ed
on gh
Ġvel ocity
Ġat op
ĠCh ampion
ĠM ills
Ġmusic ian
Ġcr ashes
AC E
Ġdistinct ive
Ġforg ot
Ġro d
ĠHend erson
ort ing
h at
Ġbull ying
ĠMos ul
Ġamb itions
Ġpit ched
Ġdig ging
f a
Ġcook ed
Ġinherent ly
Ġattend ees
ĠMon th
Ġto pped
ich t
m itting
Ġcontribut ors
ĠP aper
ĠGener ation
Ġsuprem ac
ĠAbd ul
yn asty
ris k
Ġcent ered
Ġstr angers
m ember
ĠIniti ative
ĠU l
Ġch rom
Ġst aring
ĠK il
Ġunp redict
Ġpat ches
Ġinspir ing
ĠVide os
ĠW ITH
12 5
Ġreact or
ĠPar ks
ĠUS C
Ġill um
Ġsh adows
R ef
ĠCy ber
ĠSt range
ud ed
Ġstorm s
Ġrail way
ĠK enny
ĠJosh ua
ĠS nyder
ur ally
Ġcand y
Ġadvis ory
Ġ( -
Ġsound track
Ġsmall est
O H
Ġbench mark
ĠA part
Ġst int
ĠDel aware
ĠLegisl ature
Ġfortun ate
Ġw ished
Ġcle aring
,' '
Ġdispos al
Ġst ub
Ġbehavior al
ĠT ottenham
ix els
Ġg orge
el ed
ĠN uclear
Ġanx ious
ot ive
Ġapplic ants
ĠF ocus
Ġview er
ĠW ings
ĠK id
ĠCase y
Ġfoot print
Ġimm unity
Ġo w
ĠS QL
p resident
Ġfound ations
} ,
s un
th reat
Ġcol ony
Ġadjust ment
akes pe
ĠAg ent
Ġimpact ed
ong yang
ĠN okia
Ġdes erved
Ġmathemat ics
erv ice
Ġwe ighed
Ġm i
ĠE sp
Ġsh aking
Ġto ggle
Ġem pir
Ġadjust ments
ĠT weet
ĠKas ich
ĠEm peror
Ġgen ocide
ĠV ent
Ġlad der
Ġcl ue
Ðµ Ð½
M C
Ġim minent
arm ing
Ġr anges
ĠF ear
Ġboy cott
ĠSteel ers
ĠT ab
ĠS add
s n
Ġe go
ope z
Ġoff enses
ĠVeter ans
Ġve ctor
Ġelect orate
w age
ĠP ierre
Ġwild ly
Ġport ions
Ġgas oline
ew ay
e i
ean or
Ġrein force
Ġc hess
Ġgl ac
Ġposition ed
Ġst akes
ĠEll is
j pg
ĠB io
ĠL anguage
ĠU nd
ĠPortug uese
ĠA br
ĠFor bes
op oulos
run ning
AC T
Ġincorpor ate
C ar
ĠR ules
ĠM aterial
a que
Ġun believ
Th ose
ĠR ut
ĠRal ph
Ġrecover ing
Ġconnect ivity
Ġt ide
Ġas leep
am as
Ġu m
ib les
Ð¾Ð ²
ĠGl as
Ġindivid ually
E ng
cont ent
b ach
Ġmet eor
Ġapp ar
Ġur anium
ĠS ite
Ġgi ants
Ġs od
ĠSt age
ĠA j
Ġc age
ĠK ush
ĠLear ning
Ġlegitim acy
Ġdemonst rators
Ġque en
Ġd ent
Ġp und
M ed
Ġa fore
ow itz
s an
Ġansw ering
ĠId aho
ĠS gt
Ġeat en
Ġrow s
ĠWest minster
O nce
Ġphys ic
Ġmatch up
ĠCur ry
Ġbon uses
Ġn ail
âĢĿ ).
Ġsufficient ly
Ġpit ches
Ġalumin um
ĠAmb assador
Ġque ue
Ġbox ing
Ġincumb ent
ĠThe ory
ould er
ĠC ele
asc ript
Ġmetab ol
Ġmar riages
ig o
ĠSing le
Ġcont ender
bro ok
Ġcro re
ĠH off
âĢĿ ?
Ġeduc ate
Ġcert ified
Ġsie ge
ĠShan ghai
ÃŃ a
Ġflav ors
ĠEx am
ason able
Ġbe es
ĠRun ning
d esc
Ġsp ont
ĠU P
ĠMont gomery
ĠVirt ual
Ġfaith ful
ĠHop kins
Ġt a
ĠArn old
ĠD olphins
ĠEv an
Ġdis l
ĠSch ne
G L
Ġpl ausible
Ġde ar
ult z
ĠA ur
Ġacc ent
Ã¶ r
ĠT umblr
ĠVal ue
Ġconsult ation
Ġclim bed
Ġdirect ing
ĠP engu
ĠLouis ville
Ġhier archy
S I
ĠR ot
Ġprior it
Ġund erest
Ġopt imal
ĠM our
ĠReg ion
ash a
ĠB ark
AS E
Ġdies el
Ġhistor ians
ĠIsa ac
Ġmanip ulate
Ġsim ulation
Ã© t
orth y
Ġfe ather
he art
M al
Ġsl ipped
ĠBeh ind
ĠÂ «
et ooth
p ical
Ġj azz
ĠAud io
Ġaver aging
Ġcook ies
Ġby tes
Ġcongr at
ĠSC P
Ġlight ly
Ġpersu ade
ĠNorth west
ere rs
ĠBas ic
ĠG az
Ġju ven
Ġauthor itarian
Ġb ru
Ġneg lect
Ġs oup
â Ī
Ġmin imize
ĠJen kins
akespe are
M D
Ġp iano
ĠE N
ĠAs ide
ĠQu arter
Ġ ë
ĠL av
ĠT E
Ġelement ary
Ġpar as
ĠMet ropolitan
Ġamend ments
ĠTun is
ĠC ort
ĠEag le
ãĥ ¼
Ġ12 8
ĠCourt esy
ĠEr n
pect ives
Ġshow case
ĠUs ers
Ġco ff
ĠAl ways
le en
Ġimprison ment
ĠP or
L ike
O k
Ġcig arette
ĠWel come
Ġdep osit
Ġab usive
Ġut ilities
ĠD ylan
gg ing
Ġexplan ations
Ġf reed
d ollar
Ġplant ed
ach i
Ġprotect s
ĠAut om
Ġab rupt
ĠR ust
Ġal erts
Ġshe lf
ĠP ew
Ġdiam eter
ĠACL U
ĠWinn ipeg
om ore
Ġrecogn ised
' '
Ġsp ike
ĠS outheast
ber ger
ĠAsh ley
Ġl ingu
Ġgener ates
ĠD in
Ġtreat s
Ġwe ed
ĠEn forcement
ĠGr ace
w ait
A ct
ĠStu art
Ġn ucle
Ġv icious
or um
Ġat omic
Ġhalf way
ĠSw an
prising ly
Ġcr ap
Ġg ates
p ers
Ġjail ed
is b
ĠL E
A h
t ax
g ow
Ġblow ing
ĠHuff ington
Ġresc ued
Ġr ipped
Ġsupp ress
min ing
Ġrun ners
ĠGab riel
Ġal igned
ĠReg ister
ĠS orry
Ġcollect ively
S ource
ĠR are
ĠJ UST
ĠCl int
ĠV a
ĠGene va
ĠNorwe gian
ĠPy ongyang
Ġmotorcy cle
Ġexplo ited
Ġch asing
U K
sh aring
h aw
Ġven ues
Ġfert il
ĠD at
Ġup s
ĠWild life
Ġsc am
AR E
ĠAgricult ure
Ġfif teen
Ġw itch
Ġapp le
Ġfound ers
eal ous
Ġaccess ed
st ation
Ġadv ancing
im er
Ġp ork
ĠDise ase
Ġp estic
Ġloc ate
Ġluc rative
ĠRe b
ell ed
Ġ ..
ĠIS BN
Ġd orm
Ġabsor b
Ġintegr al
ĠCath olics
ess age
ĠBar nes
ĠShe ll
Ġlad ies
ĠS ame
per m
W ar
Ġoff line
Ġhuge ly
Ġcere mon
Wh ite
Ġunp opular
Ġjer sey
Ġdeleg ation
iqu id
id i
Ġappe aled
Ġamb ition
Ġquant ities
Ġv ic
B ron
Ġpromot ions
Ġmor ph
Ġcurric ulum
Ġo we
Ġtrave lled
Ġprohib ition
ĠA FL
Ġres ent
ĠW rest
y outube
um ed
occ up
ie ce
Ġp iss
Ġop ener
ourn ament
Ġsynt hetic
Ġprotest ing
3 50
Euro pe
ĠJ in
e als
Ġlow ered
ĠEn joy
ir ies
ĠC airo
al one
ment al
que z
er ie
Ġautonom y
Ġzomb ie
Ġmet er
uter te
Ġprol ifer
Ġinhabit ants
ĠPere z
ĠFerr ari
Ġfact ion
Ġcru ise
Ġemb ark
P aul
ĠMem phis
Ġrif les
i Ã³n
Ġancest ors
Ġbl at
Ġblank et
Ġport able
ĠH od
Ġmilit ia
er m
ĠBa iley
Ġbreat he
ĠB our
ĠI Q
ĠSim ple
Ġu b
ad ays
ĠJ os
ĠConfeder ate
ĠH ook
ĠSch olar
im ity
\ -
ĠMun ich
ĠEm ir
ĠSh op
Ġconsist ing
il itation
Ġpay roll
Ġassoci ates
he ster
Ġhapp ily
Ġsimilar ities
Ġrecruit ment
Ġpo em
ĠPart icip
ĠCD C
ĠCompan ies
Ġpat ron
r ational
ĠRe x
o ir
ĠB in
ĠS r
ĠE sc
Ġinv ention
Ġsatisf ying
an ed
Ġcrus hed
t i
ins ki
Ġhom icide
ad h
ĠW elsh
Ġdetect ive
ĠInter view
ĠE ye
ĠC raw
Ġdec isive
Ġnegoti ated
ĠE aster
Ġhon ored
Ġimp osing
Ġthr ust
ĠE A
Ġd ude
ĠI gn
ĠBudd hist
ĠSpecific ally
p res
Ġmis er
ĠEll iott
F ree
M E
Ġover view
Ġper ipher
Ġconstitu ents
ĠH ab
Ġprem ature
Ġdelight ed
Ġvari ants
ĠP and
Ġfor ty
um per
Ġuns upp
ĠK iev
in it
Ġcl ips
ĠPr ide
ĠTri ple
om on
ĠF aith
Ġslow ed
n els
ĠSal v
Ġs i
Ġcar b
Ġsent encing
Ġlog s
Ġbre wing
Ġrest oration
s ix
ĠFal cons
Ġyield s
Ġincl ined
Ġbi ased
d est
ke eping
Ġart illery
ĠPear l
% ),
ns ic
ĠSy m
Ġar rog
Ġconsum ing
el ong
ik er
ĠQ ur
ant om
P ol
Ġqu ot
ĠGing rich
connect ed
Ġeff ic
ich ael
Ġenthusi astic
Ġt ended
Ġgenet ically
il ight
g ay
Ġdep ressed
ĠG raph
Ġsl ammed
ĠL ars
Ġmet rics
ĠSc ript
ĠThanks giving
ĠHus sein
ĠOr d
Ġgen ome
sp an
ĠP oke
s u
ĠCole man
er ness
Ġp ul
Ġpost p
E m
Ġupgr aded
Ġshow c
ĠHe brew
ĠM ak
Ġno ble
ĠHer oes
How ever
ĠE ug
Ġt ales
Ġillust rate
Ġadminist rator
Ġconsist ed
Ġinstrument al
ĠBur ke
Ġ10 5
F ile
reg ular
Ġrecip ients
Ø§ ÙĦ
b b
Ġclass ification
Ġinc ap
Ġexp ans
Ġwhistle bl
ĠV el
" ).
Ġsl ides
Ġincons istent
Ġrecogn ise
q a
' :
Ġnic he
Ġr iots
w ent
Ġcor rection
Ġ196 2
Ġdri ed
Ð ·
ĠC ob
og yn
Ġh ref
ĠCh a
tit le
ĠLike wise
Ġliv est
Ġex cerpt
Ġair ports
L a
ĠF u
ĠMar ie
ĠTH AT
Ġjud ged
ĠLeaf s
ĠS ales
ef e
Ġr ip
ĠC amb
el ines
Ġinvestig ator
Ġl ion
dep th
ĠW end
Ġblog ger
V I
Ġb ent
Ġassist ed
Ġseek ers
ĠTw in
Ġext inction
ĠRoberts on
ĠÎ ¼
C are
ĠEm ma
ĠLeg acy
Ġvol t
Ġmark ing
Ġr ider
Ġbre eding
ĠNot ice
ĠSh akespeare
ĠL um
E r
ĠTit ans
ĠPre vention
r ab
Ġc ad
Ġpredomin antly
Ġcoinc idence
Ġpr iced
is le
Ġbr on
ĊĠĊĠĊĠĊĠĊĠĊĠĊĠĊĠ ĊĠĊĠĊĠĊĠĊĠĊĠĊĠĊĠ
ĠSur face
UL L
ĠV illa
add afi
OR D
Ġshel ves
Ġquarterback s
Ġnurs es
ĠP ul
ĠD ow
Ġev olving
Ġdeb ts
ĠFl a
Ġo st
Ġutil ize
Ġappl aud
Ġsp ying
Ġbound ary
ĠD uterte
Ġfrag ile
ĠT ol
Ġy oga
Ġbl oc
ĠSil va
Ġun related
Ġw ives
Ġt ires
ĠC AN
Ġcontem pl
ĠN aval
ĠMc N
uff le
Ġcatast rophic
iat ric
Ġpri ests
ĠHold er
ĠAp ollo
ĠLuck ily
am on
Ġacadem y
ĠG ang
Ġc otton
ĠDep ression
Ġo ath
Ġprop osition
ĠB rent
it ous
G O
ĠBer g
ĠD ad
Ġhum ble
ĠKle in
Ġecho ed
ob a
Ġm a
Ġpract iced
ĠDra ke
ĠF ine
im g
ĠGl en
Ġfart her
Ġcol ored
Ġcirc ulation
Ġremark ably
v ance
ï¿½ ï¿½
ĠCertain ly
ĠGreg ory
Ġg ren
met ic
Ġwar ns
Ġchap ters
Ġend angered
Ġrel iability
Ġdat as
te chn
Ġinterven e
ĠJ ays
S er
Ġalleg es
Ġfil ters
Ġbook ed
Ġn ostal
ĠIndust rial
ĠInn ov
L ife
Ġextensive ly
Ġank le
Ġang les
ĠR abb
Ġgang s
ĠKurd s
Ġsh ine
S ub
Ġst aggering
Ġcl iff
Ġfore most
ep rint
ĠNov a
e ous
Ġcamp uses
Ġwe ars
road s
Ġsec urities
ll ah
Ġdown s
Ġdescript ions
Ġbail out
Ġint oler
Ġcomb o
ĠEconom ics
ov an
Ġsymp athy
ibl ings
Ġspr int
à ¥
Ġlic ence
Ġp oured
Ġhor r
ale z
ot ics
D ay
ĠW ag
ch at
id y
ĠN am
Ġatmosp heric
Ġm igrant
ĠC rypt
p ically
itz er
Ġemer gence
Ġadvis or
Ġmasc ul
Ġp unk
ĠL opez
Ġwh ale
ĠP os
amp ire
ĠT iger
ĠWals h
Ġincl usive
ĠThe resa
Ġmonop oly
Ġpositive ly
Ġrelax ed
ĠImp act
and als
Ġencrypt ed
ourn als
Ġdefic its
ir ation
Ġche f
Ġman a
Ġclin ics
ĠG oth
ĠSch umer
Ġfor wards
Ġweakness es
ĠP OL
ĠFl int
Ġfe ud
Ġrecip ient
d imensional
asc ular
Ġlight weight
B ack
ĠD iet
ĠAd vert
ĠSom alia
Ġpros pective
gg y
ĠPH P
ĠSt rike
ĠWord Press
Ġoptim ism
OC K
Ġrem inis
ĠTr ack
and y
ĠF resh
ĠNon etheless
Ġcon form
Ġg em
F l
Ġbo o
eng ine
Ġpract ition
p ose
ĠTrans port
Ġver b
ann ers
st rom
Ġmon itors
he arted
ĠC inem
Ġcul p
ĠH ear
Ġbelong ed
Ġc oding
Ġbas ics
are a
ine a
ĠC el
Ġre nown
Ġrespect s
Ġjew el
ĠT ories
Ġreal izing
Ġafore mentioned
Ġinher ited
n ar
Ġtight ly
ĠBash ar
r ays
U TC
cons cious
Ġcoord ination
a uth
Ġenfor ced
Ġener g
Ġsl im
Ġtro phy
Ġimm un
Don nell
ĠT W
ey ed
Ġcycl ists
Ġpartic le
ĠL ed
Ġnav ig
Ġinher it
Ġspe ar
il ers
ĠMcC l
Ġprob ation
op y
us k
ĠProp het
Ġtask ed
R P
ĠF uk
ĠDod gers
Ġr ans
ilit ary
Ġsepar at
ĠHe aven
lev ard
ing le
ID E
Ġadd ict
Ġtatt oo
Ġflo ors
Ġste ering
ent ry
a ic
Ġinter fere
Ġmonit ored
f inal
ator ies
Ġmerch and
Ġadd itions
Ġcooper ate
Ġorig inated
Ġreward ed
Ġs way
het ical
AT H
f illed
F eed
ĠPel osi
ĠBudd h
Ġg rief
ĠInd ividual
Ġimpro per
Ġins ufficient
Ġscar ce
Ġc ensus
ĠWin ston
Ġun con
Ġquick er
Ġdys function
Ġperform s
ĠL iter
200 7
Ġne arest
Ġslow ing
ĠC I
Ġup ward
ĠO mar
Ġobtain ing
Ġredu ctions
Ġreal ities
Ġcoord inated
Ġs acks
Ġl i
def ense
Ġtast es
ĠJ up
Ġcomb ining
Ġw oke
d ist
un al
Ġorgan isms
Ġth rive
Ġuncom mon
Ġpersonal ities
Ġinput s
Ġcandid acy
ĠP ub
Ġt ense
igg s
names e
ÂĢ Â
Ġpo ised
Ġpaint ings
Ġc ripp
Ġsl ogan
Ġenjoy s
Gener al
Ġno on
Ġse ize
Ġtest ify
st ated
Ġz oom
ball s
Ġwrit ings
Ġexp osing
Ġopt ical
Ġsens ible
ourge ois
Ġunsupp orted
Ġ| |
Ġsc iences
.' '
Ġord inance
Ġoverlook ed
Ġkind a
Ġsurf aces
ĠPolit ico
ĠMar in
Ġadm ire
Ġdish on
Ġt ags
Ġ ×
OU R
yn c
Ġparticip ant
S N
ĠAustral ians
dri ving
ĠT roy
Ġ196 1
Ġe ld
Ġag grav
Ġsm iled
cl ock
ĠD ale
ek ing
ĠSpr int
ĠAt hens
ĠAl z
is co
Ġhand ing
ĠL ux
Ġass erted
an cer
ĠÐ ¾
Ġinsist ing
ĠA IDS
Ġrece ipt
Ġcaut ious
ĠN as
Ġtour s
ile m
ĠN y
Ġdetain ees
Ġliqu or
p ict
os ion
Ġreflect ing
Ġwond ers
an throp
Ġawa iting
Ġst agn
Ġh obby
acer b
ĠW A
16 0
Ġupload ed
ĠS ask
Ġl oot
ec d
p ad
Ġtrad ers
ĠPubl ished
Ġc ivic
Ġan ten
ĠLl oyd
am ount
play ed
u ber
iv ia
ĠM az
im edia
Ġc ared
act iv
ĠL ogan
Ġillust rated
Ġe ternal
ane y
ĠHell o
Ġabund ance
c ock
Ġform ats
Ġemp athy
ĠGT X
May be
Ġgu ides
Ġdemonst rating
Ġb od
f o
Ġd ip
l it
ĠE asy
Ġred irect
ĠS ak
Ġbureau cr
Ġintu itive
Ġconv entions
Ġm es
Ġvast ly
Ġoutrage ous
Ġnever theless
Ġfl uct
P ac
Ġbl u
iet h
Ġmention ing
ĠSad ly
Ġgr ades
ĠNS W
Ġman ga
ĠC oc
ĠBro ck
B B
k ov
Ġcommer ce
ĠIns ider
Ġpast or
Ġfl own
Ġaston ishing
Ġbuy er
ad os
Ġred es
cour t
ĠTh rones
ĠE arl
b ucks
Ġdatab ases
Ġbo asts
ĠC e
h l
Ġbank ers
ĠPar ad
Ġrepe ating
ro e
Ġje opard
l anguage
Ġautom ation
M et
Ġshall ow
Ġu mb
ĠT i
Ġobs essed
is se
Ġpus hes
ĠUs ually
ĠAlf red
Ġeval uated
ĠNe g
Ġsn ake
Ġ: )
Ġinsect s
ĠSy n
N EW
ĠM UST
Ġwork out
Ġb ounce
ĠInd igenous
st airs
ĠJul ia
Ġhur ting
Ġsec recy
or o
fam ily
F I
ĠEvery body
ĠL amb
ĠÐ ¸
Ġ å
Ġimm ers
Ġbot hered
l on
ator ial
ĠSu ccess
ĠM ik
ĠD ash
ĠWH O
Ġnurs ing
Americ a
oy le
Ġunder grad
ĠCro at
Ġhilar ious
Ġout line
h ouses
Ġim aging
S H
Ġexha usted
Ġfin est
Ġpremium s
az or
ise xual
Ġvend or
Ġtri vial
pro cess
ĠHy per
Ġinadequ ate
sh adow
Ġcou ch
Ġ* /
g rown
Ġdiplom ats
Ġcomb inations
ĠReyn olds
ĠLind a
ĠPro du
ĠR ange
Ġst aged
Ġdark er
Ġb aking
Ġcompl iment
ĠU T
Ġsubject ive
Ġpick up
Î ½
ĠCirc le
Ġprox imity
Ġwho lly
Ġal pha
ig el
Ġtrans mit
Ġbarg aining
Ġconj unction
" ),
Ġun named
ĠArab s
ãģ «
Cl ass
ĠN ice
Ġsoul s
Ġgr ams
Ġassault s
ĠL ay
ĠT L
ĠN RA
Ġcl ues
Ġinaug uration
f ood
v oc
ard i
Ass ad
ĠLe ad
Ġoverwhel med
Ġ19 48
C ap
Ġdeal er
ĠAdvent ure
b illion
osa urs
ĠIM F
ĠR ab
ĠSol id
ĠKn ights
Ġin ning
b ird
IT E
Ġw olf
display style
Ġdist ances
Ġunderstand able
ĠSu z
Â ·
ĠG L
Ġen compass
Ġvibr ant
Ġaccompany ing
Ġne uros
Ġ< <
Ġlit eral
Ġg ases
ĠH app
ĠR ew
Ġdev il
ĠK ell
se xual
ĠSpace X
ĠEth iop
Ġd ice
ĠInd y
k it
Ã ¸
ĠGu ild
Ġa in
ĠDub ai
att ack
est ly
ĠApp eals
Ġso y
ĠJ agu
_ {
Ġcraft ed
r ill
Ġsuppl iers
Ġther mal
M c
Ġunder water
Ġst airs
Ġphenomen a
Ġapolog ized
ĠF a
ys ical
p c
cont in
D I
Ġtr ails
Ġhur ts
ĠFR OM
rell a
Ġlobby ists
\ /
Ġassum es
ĠX P
Ġshot gun
Ġtra it
Ġd oses
ophob ic
Ġcomp ile
s ic
Ġj aw
ĠViet namese
re view
ĠCon n
Ġmole cular
it ime
Ġserv ants
ĠT ap
Ġde portation
ĠElect ronic
sh ine
ĠEd in
ĠI van
Ġcon gest
ĠC able
Ã ª
il ogy
ĠSh o
Ġinjust ice
ĠL ag
ĠExper ience
Ġsun light
T or
ĠFif th
Ġsus cept
Ġen light
cy cl
{ "
D is
ci ation
rop he
ĠN FC
Ġimpl ied
Ġp ets
Ġdr astically
ĠFre eman
Ġmet ro
Ġvit amin
Ġstand point
ĠW izards
Ġpar a
c oun
Ġcapt uring
ĠG ET
Ġpromot es
ĠGu ant
Ġm asters
ĠM t
Ġex acerb
Ġhorizont al
Ġfiref ighters
Ġnot or
iz oph
ener gy
Ġgener ator
s uper
ĠAb du
g one
Ġspin ning
hed ral
ut ton
Ġbe am
Ġver ified
Ġrespond s
ĠSach s
intend ent
rape ut
ĠDam age
Ġpass words
Ġad ul
Ġsam pling
role um
Ġprim aries
Ġf lick
f air
ĠR idge
Ġpop ulated
et z
the ning
op hy
ĠHe ights
Ġs iblings
Ġc um
b as
Ġprob able
Ġmed ications
Ġmot ive
Ġnew com
Ġadv ise
b ps
Ġg ently
ĠGr ad
ĠCore y
ĠL anc
ant on
Ġadminist ered
step s
Ġconcent rate
bu ilt
Ġcat aly
Ġlo oph
ĠâĨ Ĵ
Ġj ar
Ġen rolled
Ġun equ
ĠC ensus
ĠP le
ĠEver ton
Ġb rib
Ġf itted
ĠD h
Ġactiv ate
ĠH ood
ĠPat rol
Ġimprison ed
Ġaffect ion
~~ ~~
ĠCharg ers
ĠE rik
Ġrev is
Ġax is
Ġerupt ed
Ġcomed ian
Ġd uck
ĠFal con
ĠTrans it
Ġincom plete
ĠSt ef
Re illy
Ġs atur
Ġlot tery
if le
Ġc ites
Ġcol ours
sequ ently
Ġc ater
Ġp ills
Ġproceed ed
ĠD ana
int egr
10 1
ĠTim othy
Ġpay load
Ġeleph ant
G l
Ġhighlight ing
Ġdef er
conf ig
Ġcan on
en es
c iously
Ġathe ist
ĠSe bast
Ġrebell ion
Ġcast le
Ġcontest ed
m and
Ġretail er
Ġstate wide
Ġind ul
v id
7 50
ĠP it
Ġsub urb
Ġgra pp
ump s
Ġb ang
ĠT M
ĠTill erson
Ġsp am
R em
uss ions
Ġsens ation
Ġhack er
ĠLib yan
Ġlog ging
Ġprotocol s
ĠAb ove
Ġadm itting
ì Ŀ
Î ¹
Ġwell s
ie ves
ĠK on
iet al
izoph ren
Ġobject ions
ĠJul ie
Ġinter ventions
Ġconf isc
ĠKash mir
Ø ±
Ġl amb
Ġplaint iffs
ĠAM Y
Ġlog ged
Ġobs ession
Ġrele g
Ġborrow ing
AN S
m ake
ĠIns urance
Ġdefin itions
Ġself ish
Ġdisapp ro
Ġens ures
ĠIn qu
Ġext ensions
ĠD ownt
ĠB og
ore st
uk a
w ald
ount y
rig er
ĠJ ill
Ġgorge ous
A f
Ġstab bed
Ġairpl ane
ĠC atherine
ener ation
ĠL ith
Ġwh ales
olit ical
Ġpl ural
Ġro pe
ut ral
p al
Ġback ward
uff s
Ġval ley
Ġhelicop ters
xt on
ĠWalk ing
Ġware house
g ie
Ġcry st
o qu
Ġpa ired
Ġan ecd
ĠProf essional
ins ky
Ġten ants
Ġcont ention
Ġha w
Ġen rich
o at
Ġpl ots
] ]
other apy
ĠB uch
Ġfair ness
Ġo ceans
Ġmain land
ĠGonz alez
Ġsad ly
Ġflood ed
Ġsum s
Ġtort ured
ĠMill enn
ĠT PP
Ġpsychiat ric
ĠNe igh
ĠC lear
Ġexplos ives
Ġhint s
n is
serv ice
oc used
author ized
d ess
Ġc el
asp berry
Ġnational ism
ĠAven gers
Ġwel coming
Ġg ru
ĠM iles
ãģ Ĺ
ĠP ain
Ġstere otypes
Ġdes irable
Ġo wed
de ep
Ġcompe lled
ĠT X
ĠT ournament
ĠW ake
erv ing
Ġrom ance
Ġterrit orial
ĠA A
Ġm s
sec ret
ON E
Ġfig uring
Ġunder cover
ĠOw en
Ġtraject ory
Ġbuck et
ĠC G
Ġgreet ed
Ġnick name
Ġto pp
ĠMar ines
ĠPl ant
Ġambul ance
ĠI CE
Ġco h
ind uced
ĠS aid
ĠBurn s
is i
oint ed
K ey
W est
ruct ed
ĠC ities
ĠIll ust
ĠNot re
ĠStand ing
Ġfeed s
Ġintern ally
Ġsen iors
Ġbur gl
Ġdistingu ished
ĠMor oc
ĠS oph
ĠMor rison
Ġparad ox
ĠH alo
Ġan them
d et
Ġcur iosity
osp here
ĠSch midt
el come
ĠWr itten
Ġar row
Ġsurf aced
ĠB ever
s ens
ĠAnn ual
Ġl enses
ĠG ross
ĠFrank en
Ġemphas ize
ĠSc ore
Ġsh irts
Ġcal culation
Ġpl um
Ġla wn
st ud
Ġjump s
arl ing
[ /
Ġsymp athetic
ela ide
Ġliber ation
Ch ina
ĠGlas gow
Ġl od
nd ra
ĠHar bor
Ġbat ting
ract ed
Ġqu eries
ĠM ig
ĠTurn bull
ĠOr acle
ĠWe instein
Ġpropri etary
Ġhar ness
Ġconf ined
Ġup rising
Ġass ure
Ġprov oc
ĠAndre a
Ġgau ge
if a
ĠAub urn
Ġsand wich
op ath
ĠChampionship s
Ġprot agonist
Ġprivile ged
ĠBapt ist
Ġcho oses
commun ications
Ġhome owners
Ġam ended
Ġanaly tics
ĠTreat y
ĠN ak
ĠE gg
Ġmaneu ver
ĠBlu etooth
âĢĿ ),
ot ine
ĠB uc
Ġpopul ist
ĠN ode
Ġcorrect ed
Ġconced ed
Ġinform al
ĠM aps
Ġpartners hips
ĠJup iter
Ġh ills
H ill
ĠRoll ing
Ġweek ends
ne ys
Ġvulner abilities
Ġall ocated
Ġprem ises
C AR
Ġgl uc
Ġemb ry
Ġstret ched
ĠUlt ra
Ġun ified
T T
Ġprosecut ed
Ġprocess ors
aze era
Ġpedest rian
Ġselect ing
ĠBre aking
Ġprop osing
ĠU g
Ġvar ieties
Ġmethod ology
ustain able
Ġide als
Ġincomp et
ĠSp icer
Ġmin ors
ĠProgress ive
iff e
aw i
Ġgl oves
ĠEx ample
x on
ĠR uth
Ġg it
ĠF ighter
ĠSher man
ind ust
ĠThe ater
Ġb ourgeois
g em
. (
stan bul
nder ing
Ġhom eland
Ġpen is
Ġfin ed
Ġreck less
Ġdelic ate
ĠQu ant
iss ues
ian i
Ġhur ricane
ĠRom ania
Ġconstit utes
Ġsk ate
ĠTop ics
Ġat roc
Ġcompr ised
pe ace
ib al
Ġcat alog
ä º
ĠPer l
ĠMult iple
ĠBrend an
ĠSh ane
ĠSim mons
Ġteach ings
Ġbe e
ĠSer b
ĠAlz heimer
ĠJ eb
t ake
Ġvar ies
sh irts
Ġcommand ers
Ġsoph omore
Ġcorrid or
Ġ ï
Ġpit chers
Ġconsider ations
Ġstory telling
ĠP G
OW N
es ar
re v
Ġsl ots
Ġafter ward
ĠWhats App
Ġstrateg ist
Ġcool er
Ġsuccess es
ĠPer fect
Ġwas hed
Ġpur ported
Ġperce ive
do ors
Ġcons oles
Ġlo vers
ĠGOOD MAN
Ġsl am
Ġcas ino
Ġcompet itions
Ġstruct ured
Ġworks hop
ar ak
em ption
Ġout reach
ĠC raft
Ġfemin ists
Ġsex y
Ġp ixel
Ġb og
Ġment or
Ġreact ed
Ġco vert
Ġexem pl
Ġth a
Ġav iation
polit ical
ĠX ia
ĠFil ip
Ñ ħ
Ġunlaw ful
Ġmos qu
Ġmax im
Ġmach inery
Ġcr ush
Ġshut tle
Ġarm ies
Ġst ew
ĠR hod
p ark
Ġ} ,
Ġrev ision
ĠBet a
at ivity
Ġproject ion
Ġs ore
ĠH arm
Ġcolor ful
ĠResp ons
Ġmin us
Ġconnect s
o an
ĠO C
ĠAct ive
Ġdebut ed
V C
Ġout law
c ision
Ġcompl ications
ĠSe oul
ĠS hip
ĠM oto
Ġelim ination
ĠSh ot
Ġdis abilities
Ġmor ally
ĠDes cription
Ġpool s
ĠPrem ium
14 0
yl on
Ġtrans mitted
ĠLa unch
Ġprompt ly
d ogs
ard on
Ġdiscover ing
Ġprest igious
ĠU pper
ĠIns pect
ĠMem ory
Ġrec on
ĠS aw
Ġp ap
Ġpres cribed
Ġignor ant
ĠL P
Ġsuff ers
Ġse as
Ġcontro llers
is ite
ĠFe el
Ġinsure rs
respons ible
Ġmag net
Ġl ur
Ġsystem ic
Ġacceler ate
Ġan nex
ĠLGBT Q
ph abet
Ġvis ibility
Ù ħ
Ġpr ag
Ġmis dem
ĠPH OT
Ġuniform s
ĠWr ite
Ġeleg ant
S et
ĠLet ter
Ġsing ular
ĠSat urn
us p
Ġt urt
S QL
ĠCon way
ĠGr ass
Ġtime ly
ĠSter ling
ĠCon c
Ġc ried
ic ans
Ġweigh ing
ou x
D avid
Ġnotice able
ĠR ating
ĠH ernandez
se at
it ational
AR Y
Ġparad igm
! ).
ĠAv ailable
ĠG ur
Ġyell ing
igg ins
Ġ} );
Ġdeb ated
Ġball oon
Ġinterrupt ed
c reat
ĠFried man
Ġbrows ers
Ġmat rix
Ġexc av
Ġ19 44
ry s
ĠMe yer
Ġhe ck
Ġr ust
che m
F R
Ġhum ili
hol m
> </
Ġt in
ĠQual ity
ĠH orse
ri um
Ġgri ev
Ġaccept s
af ort
Ġdem ocrat
Ġl ining
Ġbless ing
ĠB irth
M edia
Ġstun ned
be cca
Ġneighbour s
od er
Ġphr ases
Ġwar rior
Ġwrong doing
Ġexclus ion
Ġemb od
ĠAny thing
Ġalarm ing
Ġincon ven
Ġk its
e ur
ĠS kin
ĠH undreds
re ra
Ġsw orn
Ġa kin
ĠLe Bron
Ġe Bay
Q U
ĠFr ame
Ġimpro ves
ĠG y
Ġfool ish
c ope
ĠDec l
ĠFe atures
Ġadvoc ating
ĠRe ce
ĠEl ite
ĠAng els
Ġcont ests
ĠLeg ends
Ġcort ex
Ġub iqu
Ġmer ger
Ġunw anted
M s
Ġo ct
Ġhost age
l iv
Ġmeth ane
Ġrecru its
Ġhold er
p aper
ĠHait i
h it
ish a
Ġg ad
Ġun just
c ue
ĠM ets
ook ie
fl ight
Ġbl aming
ri ad
O ct
Ð ¹
ĠÃ ®
Ġunsuccess ful
Ġcomment ators
Ġmil estone
in yl
J S
ĠLe o
Ġbed s
Ġingred ient
Ġdiscuss es
ĠJ et
Ġrenown ed
Ġbr acket
Ġembarrass ed
aun ting
Ġperform ers
me ga
Ġver se
ĠC ad
red ited
ipp le
Ġb ore
Ġtoler ate
Every one
Ġl end
Ġbund le
he res
ĠInst all
Ġunpredict able
ĠEdin burgh
Ġnum er
Ġspecific s
ĠC ork
Ġmax imize
Ġpip es
Ġth y
ĠE R
Ġappropri ately
ĠON E
ĠR BI
Ġprejud ice
Ġrel ates
im en
Ġbarg ain
Ġded ication
ĠE ST
Ġresist ant
Ġband width
Ġrecogn izing
ĠCo ffee
Ġfin ishes
Ġsm ok
ar us
Ġsyn chron
f ax
Ġcl oth
Ġper secution
viol ent
Ġtw isted
ĠV ince
Ġdest inations
ĠConst ruction
ĠR ugby
m ajor
ĠM ale
r ina
m itt
IC O
Ġcondition ing
it as
q l
t z
ĠAdd ing
ãģ §
ĠCr ist
n ings
s um
Ġmis ogyn
Ġappet ite
ĠSN P
Ġrep ay
ract ion
Ġthought ful
Ġpot atoes
ĠCl are
Ġenjoy able
Ġmar athon
ag le
Ġentire ty
id av
ine ment
ĠDiff erent
Ġadop ting
Ġid iot
Ġcolon ies
Ġas c
year s
Ġchampionship s
ri ents
ĠR iley
g ard
Ġobst acle
Ġsens es
C OM
ag ne
ĠStar bucks
Ġcr ises
ĠBou levard
ĠWe ight
Ġric hest
Ġa u
ãģ ¦
place ment
Ġprohib it
ĠAn cient
ist ical
ĠN J
ĠPoke mon
he ed
Ġb acon
Ġl ament
al iation
Ġste alth
com fort
Ġgun man
Ġnomine es
O V
US E
ocaly pse
Ġgar lic
work ers
Ġartif acts
Ġtw ent
ĠS ah
ĠFl ag
Ġextrem ism
Ġan at
ang led
Ġcell ular
Ġright ly
att ed
Ġp ave
ĠSky pe
Ġround ed
Ġ10 80
ĠD S
Ġimp ly
Ġcritic ize
Ġbrut ality
ĠPrinc eton
Ġd y
Ġcap ita
ĠK ot
e pt
Ġenthusi asts
Ġexceed ed
Ġl over
h on
ĠInit ially
Ġinfer ior
ĠGil bert
ĠC aval
in v
Ġcon ceived
ĠK ob
Ġcle arer
ish ment
ĠM T
Ġrefere e
ĠMan uel
Ġfat igue
Ġv ivid
Ġ19 00
an ity
Ġh over
Ġatt ain
ar an
Ġfl ank
Ġ17 0
Ġdisplay ing
Ġacknowled ges
Ġinaug ural
Ġmar ched
o ids
Ġbar red
Ġcul min
ĠOpp osition
load ed
ĠScient ific
Ġins ulin
Ġthe sis
Ġdesp air
Ġt il
ĠG rowth
ĠN an
ĠEv olution
200 6
Ġoff ences
Ġdis respect
Ġcy l
Ġl ag
ĠVictor ian
Ġunst able
Ġillust ration
ĠDay ton
ric anes
Ġdown ward
ĠWhe never
den ly
Ġdetail ing
Ġvoc als
ci pl
Ġvac ant
Ġre per
ĠI stanbul
IN T
ĠD ell
Ġex otic
al ion
gu ided
ick er
Ġmot ives
ĠA be
ched el
ĠPhil os
Ġfur ious
Ġgr ind
ĠPan ama
Ġinaccur ate
ĠRich ards
ĠT B
Ġpreval ence
ĠAust rian
Acc ording
b ial
Ġbroadcast ing
Ġmet adata
ĠPop ular
Ġcr ust
ĠPers ian
ion age
ĠMoh amed
Ġprogram mes
ud er
Ġoccup y
Ġst alk
ĠG ir
Ġdis asters
ĠM R
ol ith
ĠP ars
Ġun b
Ġfuel ed
ĠPre viously
Ġsol ic
Ġkn ocking
Ġgrad uation
ĠCris is
Ġman kind
ĠMan afort
Ġhasht ag
Ġout field
g mail
ĠB ee
ĠS tern
Ġmir acle
at ism
Ġtyp ing
B erry
ĠC ards
Al though
Ġrecogn izes
G ame
ĠCitiz en
ĠCons idering
ĠB ass
c ig
h all
ĠV ision
Ġprivile ges
Ġnot ifications
el o
Ġsing les
ĠTh ousands
ĠKn icks
Ġreb oot
ĠSadd am
am iliar
ĠPC s
Ġprolong ed
Ġpreval ent
Ġpl asma
Ġmer its
ĠBren nan
Ġun m
ĠM ight
ĠR ac
ĠMan ufact
Ġaccommod ation
D id
Ġfr acking
ĠH ogan
Ġcorner back
Ġbl essed
ĠKum ar
Ġinst itute
in el
Ġde er
Ġ11 5
ĠGe off
Ġphilosop her
ĠChe v
ust ral
ĠMa o
ĠH erman
Ġc ite
ĠPr adesh
Ġbig ot
it ives
ĠBl izzard
c ot
ĠG E
! âĢĻ
f un
ĠSaf e
ĠHon or
Ġcap ac
ãģ Ł
ĠDis covery
ĠSask at
ic able
hy l
ing ham
ĠR ift
ĠExt ra
Ġcon qu
Ġvol can
ent e
Ġrest art
ãģ ¨
l at
Ġloc ks
Ġball istic
Ġp ixels
Ġalt itude
Ġseason al
E U
Ġprogram mers
ĠSU V
Ð ¿
Ġsymp ath
Ġmer cy
ters on
ĠAbdu llah
com mon
he tt
Ġpal m
Ġinflu x
ĠEv ents
ĠO L
Ġw ary
Ġsne ak
Ġdil ig
Ġprost itution
im ag
av an
ĠD ocument
ren ched
Ġhead set
Ġrestrict ion
Ġexped ition
ld a
ĠM Y
Ġsett lers
Ġwip ed
Ġd od
ĠMurd och
Ġer ad
T ext
Ġgr an
Ġph osph
ĠEc u
Ġshe lls
Ġexem ption
Ġv est
Ġst ems
Ġcert ification
ĠL ance
vas ive
um i
ixt y
ĠPre p
ĠMult i
d in
Ġdefe ating
ĠConserv ation
Ġstr ains
Ġsm arter
Ġcoc onut
Ġstory line
Ġpun ct
ĠMy ster
Ġcoun cill
Ġacqu iring
Ġaggreg ate
ĠAd elaide
Ġâ Ķ
ar is
isp here
ĠC AP
Ġd ilem
ĠR S
achel or
ĠHaw ks
Ġar che
d id
Ġter rific
ĠCharl ott
ĠRel igious
Ġcrack ed
ĠT ier
Ġwar rants
Ġthr one
ĠT rent
ĠCraw ford
Ġintention al
ch anging
ans on
Ġst yl
Ġupd ating
ac s
ĠAm anda
ĠFight ing
at ri
ress es
Ġsyn c
Ġ10 4
ev al
ĠKush ner
ĠKenn eth
Ġbe ard
i u
ĠH ag
ĠEmb assy
Ġfreedom s
Ġpers pectives
Ġaut op
Ġlisten ers
Ġcomb ines
ĠB oss
ĠPret ty
12 3
Ġskept icism
ĠGit Hub
ĠNY PD
ĠInvest ment
ov ak
ĠP ra
Ġtr aces
Ġforb idden
ĠMir ror
man y
ĠB ert
ĠM oving
Ġident ifies
Ġthere after
et ed
ĠVol ume
Ġpr inter
Ġtun nels
ic ularly
Ġrecomm ends
Ġgr in
Ġf ist
ĠMerc ury
ĠDev il
Ġunf amiliar
i pper
m ass
Ġhost ility
az er
Ġintrodu ces
Ġmult ip
lic t
Ġpred ators
ess ors
ad ian
Ġru ined
ĠInvest igation
cour se
ĠDO J
Ġmin eral
G R
c ross
ĠWeb b
ĠBr istol
Ġvol atile
Ġdet rim
ex cept
ĠN ate
Ġhous ed
Ġdet on
Ġsimpl icity
Ġche ating
Ġcirc ular
Ġab st
Ġt apped
w ave
Ġfilm maker
Ġbenef ited
ĠCom edy
Ġsh ade
ĠPri x
Ġ à¤
er k
Ġsanct uary
Ġpaper work
Ġwatch dog
Ġsoc io
P T
af ia
Ġchar itable
Ġtr action
hel p
atin um
ĠF REE
ĠR apt
Ġrequest ing
Ġstatist ically
Ġv ine
ie u
p i
with out
ĠB un
ĠMons anto
S y
Ġheav ier
Ġg le
ĠF eed
ĠMap le
W atch
ĠChar acter
ĠW u
Ġreg ain
Ġoff ended
Ġabsor bed
ãģ ª
Ġcriticism s
ok a
Ġter ribly
cast ing
Ġj ungle
Ġsh aping
U RE
Ġun real
Ġbom ber
Ġhealth ier
Ġcoord inate
Ġgoal keeper
ĠAl ready
Ġuns afe
ĠF ernand
ĠM AN
ĠK iss
ĠB ug
Ġhy ster
ign ment
200 5
ink le
g rowing
ĠR oute
isb ane
Ġindu ced
ĠPartners hip
Ġme ga
ys s
ĠC ord
C ons
ĠHay es
Ġso ap
Ġs rc
so ver
ĠN L
in qu
Ġj ournals
Ġadvoc ated
spe aking
ĠYes terday
Ġlower ing
bl ue
amm ad
ic ates
Ġbro ker
ĠAd obe
t v
Ġbureaucr acy
ĠPan el
ĠJ azz
Ġlog in
in arily
Ġund is
âĢĿ ;
Ġaff idav
Ġrec ons
A ng
ĠZimmer man
fund ing
Ġfree zing
Ġborrow ed
% ).
as is
ĠInvestig ators
Ġillust rates
Ġfl ame
ĠL ud
ĠV ia
or ie
Ġfright ening
H R
ĠIS IL
Ġsl og
Ġtro op
ĠD B
Ġtravel ers
Ġrespons ive
elect ed
ed u
Ġo live
th ouse
ĠHel en
ĠJackson ville
Ġannounce ments
Ġdef ect
ĠP E
ĠC ros
ĠB ened
Ġst ip
Ġanaly zing
Ġhand c
ĠN ike
ĠAn sw
ĠQuest ions
) -
Ġden ounced
l ance
Ġsquee ze
Ġunder going
Ġwa ist
ire ction
Ġsuper visor
Ġend ured
ograph ics
ĠR F
Ġrig orous
Ġposition ing
ĠAn k
ĠB le
Ġport al
Ġclean er
bus iness
Ġ20 30
ĠDar ren
Ġb ast
Ġrec laim
rat ives
Ġlength s
Ġwh it
ĠH ours
Ġsuper b
ĠE lder
Ġ24 0
Ġc ows
om ical
ish ops
Ġterr ified
Ġsch izophren
ĠF lickr
Ġunch anged
Ġf ren
ĠG ul
c in
ĠI F
ĠCelt ics
Ġorche st
Ġreferen ced
re a
Ġobject ion
Ġaccess ories
ĠScient ology
Ġantibiot ics
Ġrebuild ing
Ġsh red
Ġton nes
Ġsub po
Ġs perm
Ġinfring ement
ĠViol ence
ĠPlay ing
Ġf usion
ãĤ ĭ
gu ards
ĠExpl orer
in th
ĠN est
Ġp ine
Ġtake over
Ġmark er
Ġbeaut ifully
ĠFro st
Ġbal ancing
Ġdece ased
v ity
ĠRe becca
Ġcommunic ating
ĠZ ucker
Ġpe cul
ster dam
pr im
mod ern
im ental
ng th
it an
bal ance
Ġmerchand ise
Ġcar pet
Ġsubmar ine
Ġbron ze
AA AA
oles ter
Ġsc aling
amer a
ĠVi enna
ĠS ize
f at
Ġinv iting
keep ers
âĢ ²
Ġreg imes
b ard
Th ank
H ello
Ġappar atus
Ġswit ches
ĠS leep
Ġcourt room
Ġl aughter
ĠIntern al
av ior
ĠChe ney
Ġcooper ative
Ġproud ly
anc ers
ĠTre vor
Ġins ider
Ġindic ators
ĠV ote
Ġend uring
Ġexclud e
ĠSum mary
Ġl aps
Ġgovern ors
cent er
ĠSch ultz
in atory
Ġst unt
Ġdevelop s
Ġpsych ologist
ĠAr s
Ġv intage
Ġanticip ate
ĠPl aza
Ġn avy
ĠA RE
Ġdiplom acy
ins pired
Ġty r
ĠM ist
ĠD L
Ġint ric
ad vert
Ġback yard
or f
Ġmodel ing
ĠC er
I AL
ĠF M
ur st
Ġt ant
Ġdis regard
squ are
Ġinterrog ation
W ind
spons ored
pt ive
Ġref ined
Ġimper ative
ĠPlan ning
rest rial
Ġnort heast
Ġ19 41
Ġth under
ar ium
ĠJed i
av in
Ob ject
Ġconcess ions
ĠSe vent
Ġnational s
Ġph ases
Ġref riger
ĠAl ien
Ġdevast ated
C or
Ġp and
ĠPl atform
Ġle mon
Ġhard core
r t
Ġde af
act ed
Ab out
Ġunus ually
Ġemail ed
ĠP oor
Ġexp on
Ġinterf aces
Ġengine ered
ĠVal ve
b uster
ram id
Ġpl at
P H
G C
C ity
Ġauthent ication
Ġwar mer
Ġspecial ists
Ġback drop
ĠRe play
i ov
ĠMon ica
Ġa rose
ĠCan on
w s
Ġf ost
Ġfav ors
we ather
ĠD ot
bl ood
l ived
Ġagree ing
gg ie
ill on
Ġcell phone
Ġgall ons
ĠPh ase
s ided
Ġconcept ion
Ġcrypt o
D own
ĠB TC
on so
Ġs idelines
Ġl av
rim ination
ĠFor ward
Ġrival ry
Ġend ure
Ġ19 47
Ġundert aken
ĠÂ §
Ġcha otic
am el
Ġwar riors
ĠK em
Ġinnov ations
Ġvis as
let te
ĠTh an
ĠZ imb
Ġsn apped
ĠM int
pl ates
Ġdetect ives
rah im
For ce
atter y
Ġfor fe
Ġmir rors
Ġtour ing
ĠTr ain
Ġdiet ary
est ine
oss ibly
Ġpig s
OU T
Ġvisit or
he e
Ġep it
Ġret aliation
en berg
ĠO ption
Ġch ill
Ġd iving
ĠBr anch
Ġfact o
ĠAr row
Ġpredict ing
ĠLe ices
ĠHig her
Ġenter prises
f ed
Ġpos ing
Ġbet ting
Ġh orn
Ġdepend ence
ĠEx pect
Ġbrand ed
Ġattract ing
Ġposs essed
Ġastronaut s
ern ame
Ġcritic izing
ĠL B
ond o
Ġun a
Ġvir uses
Ġcontam ination
ĠL il
ĠCurt is
Ġcontract ed
Ġreiter ated
gg er
Ġtheir s
Ġprop he
ĠFood s
Ġobser ver
Ġdump ed
Ġf og
Ġprogram mer
Ġs ights
Ġb end
10 5
ĠO dd
Ġmet als
Ġdeleg ate
Ġst ellar
Ġconfir ming
Ġele ven
Ġsubsid iary
Ġhapp ier
m g
Ġrig id
Ġrest ing
J an
Ġcompens ate
ĠAl ger
ĠPen insula
Ġpri zes
Ġpe an
Ġchar ities
ĠN OW
ĠRock ets
Ġvis ually
us ers
Ġec ological
ĠBald win
Ġl b
Ġunbeliev able
C lick
Ġun rel
ot on
ĠMon te
Ġb ilateral
Ġcore s
Ġdepend ency
Ġnod ded
iff erent
Ġnegative ly
Ġrad ically
ĠFl oyd
Ġat oms
Ġmicro phone
Ġalleg ation
Ġtack ling
ĠCent ers
Ġr im
Ġclear ance
ĠCl aire
Ġque er
Ġw ipe
ab we
Ġstretch ing
Ġur gency
ĠBudd ha
Ġren amed
ĠDav ies
ff iti
Ġaut umn
ĠS R
ĠS onic
Ġvolt age
Ġbl ows
Ġlau nd
ĠK oh
Ġbroadc aster
in ters
ĠJack ie
Ġv om
Ġassess ments
A tt
Ġ( .
ĠHe ath
ĠSchne ider
Ġpath way
Ġvolunt arily
Ġrep airs
Ġd un
all ah
Å ¾
Ġwas hing
Cal if
Ġd ull
Ġdeter mines
I B
Ġre ef
ate l
Ġs oda
ĠK ub
! '
Ar t
ĠLyn n
Ġr anged
ĠBr isbane
Ġobserv ing
ĠS it
Ġburn s
sh ould
ĠAc ross
st atus
ir us
Ġfre ak
Ġrev ival
ĠGen esis
D D
Ġstret ches
ĠRe ality
Ġro de
Ġce ment
OL L
AN K
ay an
ĠMour inho
ĠSouth west
com plete
mo il
Ġdict ator
ans ing
verse ly
Ġst al
ĠEx xon
I Z
ĠT as
c ro
Ġto e
oster one
Ġvan illa
ĠH ugh
le ys
ĠE instein
Ġar senal
ĠBru ins
Ġall ocation
Ġcr unch
M in
ĠRel igion
Ġcont end
ick ers
Ġlone ly
ĠTe ams
OR Y
ĠSp art
Ġb isexual
Ġdistract ion
Ġcontam inated
Ġre he
G H
ĠM ead
,âĢĻ âĢĻ
Ġl ou
duct ed
Ġselect ive
IS S
Ġempir ical
ĠP v
ple asant
Ġinst ability
Ġje ans
Ġshort s
Ġey eb
ĠRef uge
â Ļ
Ġret ros
ump ing
Ġarch ives
c od
ĠSt yle
ĠEn large
Ġnot ices
ĠAbb as
Ġenroll ment
ĠCharlott esville
fol k
ĠJS ON
Ġpen al
ĠBah rain
et c
IS A
any on
Ġaw aken
Ġacc use
Ġexplos ions
Ġa ven
pl aced
ĠCl iff
Ġtr aced
Ġdem ise
Ġside walk
ĠIr ving
Ġdo omed
ĠA W
Ġdownload s
Ġfest ivals
ĠM oy
ĠPir ates
Ġcapt ures
ĠIntrodu ction
ĠJud iciary
ĠO g
Ġdepend encies
Ġd well
Ġ10 2
ĠOr b
Ġout dated
Ġdub ious
Ġrob otic
Ġatt achment
ĠAnd ers
Ġshel ters
Ġrese mble
w ere
ĠKat ie
ĠR ising
Ġsurpr ises
ort ium
Ġspir al
Ġshut ting
Ġcontent ious
ĠEmir ates
ĠG em
Ġkidn apped
Ġple as
ĠMe ga
Ġshr ink
Ġye ast
Ġrelent less
Ġown ing
ĠAP Is
Sh are
ĠEconom y
ĠW ine
rec ord
ent ric
Ġsever ity
ĠD raw
Ġru ins
Ġscreens hot
Ġacceler ated
Ġradio active
in ational
Ġstar red
ĠP am
ĠStat us
Ġlaugh s
ani el
Ġwithd rew
Ġinspect or
ĠR um
A nt
ĠG w
Ġpour ing
be h
Ġup held
Ġcateg or
c ry
Ġhun ter
ĠExper ts
ĠB il
Ġt am
p arent
P E
ĠCh anges
18 0
Ġcompet ent
Ġrepl icate
Ġs om
g ra
p atch
land er
l ings
Ġdisadvant age
Ġimp air
Ġp ulse
Ġmer ge
Ġtw ins
ĠBeng als
port ing
ĠB ast
ac a
ĠBl ade
Ġcompat ibility
Ġgood ness
ĠD LC
Ġpar an
Ġrad ius
Ġhorm one
Ġdom ains
ĠColon el
Ġf ra
ĠSt ur
25 6
) ?
Ġ195 9
Ġacceler ation
Ġpo inter
Ġchar m
Ġpreserv ation
ant ry
Ġreward ing
Ġcook ie
Ġprim itive
health y
T ex
ĠT ickets
Ġreact ors
ĠV ers
Ġ4 50
ĠCh in
ĠHass an
Ġche ek
Ġj ealous
in ian
Ġopio id
ĠAR M
c os
Ġher b
iv able
Ġtransl ates
od s
ĠRay mond
Ġr h
ĠDownt own
em a
ĠTechn ical
s ch
isc her
Ġhypot hes
Ġthe rapeut
Ġappoint ments
Ġex terior
ĠC AR
abl ished
Ġill icit
Ġmetaph or
ĠTer rit
Ġanticip ation
if ted
ãģ ¯
Ġpal ace
AG E
,âĢĻ âĢĿ
w ife
ĠW er
Ġs ack
w ic
ĠBlack Berry
ĠAdvert ising
Ġtoss ed
ĠBuzz Feed
Ġn urt
ĠSe xual
Ġmod ifications
Ġbull shit
ĠD ance
Ġcos mic
Ġrem ed
ĠDep ending
ĠRe venue
Ġpot ato
Ġsustain ability
Ġall ied
ĠTro phy
ĠAm nesty
Ġreminis cent
Ġh ollow
Ġsell er
ĠN iss
Ġext rad
Ġmamm als
u u
Ġmerch ants
ĠComb at
ĠSh awn
Ġv andal
ĠTre nd
Ġiron ic
ev ent
d oc
Ġch uck
le aning
Â »
ĠNe o
Ġsal ad
Ġl bs
over ty
ax ies
Ġjuven ile
Ġseiz ure
Ġins erted
ĠC W
Ġmyth s
ĠEcu ador
N E
ĠA zer
Ġv apor
ĠB T
ĠAd mir
Ġtrain er
ess a
Ġr apper
ĠRest aur
ĠS V
Russ ia
N orth
Ġfeas ible
ĠW orth
ro ot
Ġjud ging
Ġwithd rawn
Ġt ally
f it
ĠW enger
Ġposs essions
ĠNational s
B ox
ĠT ah
ĠB rief
S uper
Ġdiscover ies
Ġout spoken
ucc i
op ed
ĠD iaz
S outh
W he
ĠJ ak
ĠBeat les
ill es
ĠObserv atory
Ġm asks
Ġineff ective
ĠCom plex
ĠCON T
ĠC ultural
Ġathe ists
ien cies
sec ure
Ġembr acing
Ġpreserv ing
Ġle aning
Ġal lev
ĠLi u
Ġsex ist
s rc
ĠL inks
Ġfr amed
Ġneuro log
ĠCho ice
Ġpo pped
Ġw ires
oy s
b ag
Ġbomb ings
ĠTh read
Ġur ine
ĠLeban ese
ĠR ise
Ġconcept ual
ĠP ierce
Ġjust ices
ĠRec omm
Ġevac uated
bor o
ĠDes ert
Ġle aking
Ġcongress man
In ter
old en
ÑĤ Ð¾
Ġcan cell
Ġ19 42
aw ays
int o
Ġcont ributes
ident ally
ĠDo ctors
ĠG iant
Ġbr ig
ĠKind le
Ġpart ition
Ġup wards
Ġdis se
ĠâĢ ķ
Ġpret ending
Ð ±
Ġinf ants
Ġfore nsic
Ġv ault
ĠF S
Ġredu nd
Ġnegoti ation
ush i
in vest
larg est
Ġ19 39
Ġp ier
Ġcr ashing
Ġuns ure
Ġha iled
Ġcost umes
f alls
Ġmy riad
Ġpen cil
Ġviol ates
m ult
ĠMid west
ĠBr itt
oun ge
ĠCamer a
ĠZimb abwe
com put
Ġprosec ute
ĠB oot
Ġalleg ing
Ġper tain
ĠHe ather
Ġr uth
pro ject
f act
Ġdirect ive
ĠZ omb
Ġsuper st
W W
Ġch amp
ĠCard inal
Ġv inyl
Ġdoub les
abul ary
Ġred dit
ĠP ine
ĠW on
ĠCh arter
Ġr ack
f ired
Ġcur se
ĠM oses
Ġshoot s
Ġdisappear ance
ĠH B
" ]
Ġimm ort
ĠS ans
Ġlun ar
ĠWy oming
Ġneed le
Ġ18 00
ĠWag ner
ĠH uck
ee le
Ġso ber
Ġveget able
l ate
Ġforecast s
ĠF ri
t ag
g ents
ĠM ate
ĠWat ers
Ġcost ing
ĠBor is
Ġna ive
Ġcomp ares
ĠR ol
ĠCamb od
Ġo lig
Ġhop eless
Ġtur moil
00 3
ĠAm sterdam
Ġtrig gers
p arents
ĠRep orter
Ġsmooth ly
Ġoff spring
Can ada
Ġdecl ines
Ġnar ratives
ett i
Ġbit coins
ĠMy ers
Ġind o
Ġsu do
ĠÐ º
Ġhun ters
Ġun armed
Ġres olutions
ĠZ oo
Ġper ceptions
Ġmechan ic
Ġstim ulation
Ġg aze
ĠAng ular
Ġsp ouse
Ġiter ation
Ġdimin ished
Ġvalid ity
Christ ian
ear ly
Ġsex ism
Ġrans om
S upp
Ġfore front
at ured
Ġash amed
ĠMel issa
he ard
c led
c ity
ĠV ern
ĠV as
ĠIss ue
Ġcop ied
ĠConst ant
Pac ific
Ġe man
Ġacknowled ging
Ġinter val
ĠDian e
ĠDev ils
ĠWhere as
Ġt outed
Ġ Ã©
Ġpod ium
Ġfalse ly
ĠWheel er
L ink
s il
c ulture
Ġp ensions
m atch
AC A
Ġdig its
Ġdecentral ized
Ġairst rikes
ou ble
Ġnarrow ly
Ġgluc ose
Ġembarrass ment
Ġor ph
ĠT at
Ġdo i
Ġexp ired
ustom ed
Ġfrequ encies
Ġstreng thening
ĠBeng al
Ġexch anged
Qu ery
Ġre jo
an ol
is ure
Ġ/ *
Î µ
Ġground ed
he id
Ġsle pt
J apan
Ġperfect ion
Ġrad i
Ġnorth west
ul atory
Ġhypot hetical
Go ogle
ĠC oy
Ġdiscont in
ĠRep ly
Ġmilit ias
Ġgovern ed
W ASHINGTON
ĠEl se
ĠBer ry
Ġaccess ing
ick y
Semit ism
Ġregul ator
Ġdefe ats
Ġmel ting
ĠEp ic
D ec
Ġcelebr ations
A ug
ĠLaure n
D uring
part isan
Ġair lines
Ġrecept or
ĠCoun sel
Ġemploy s
ĠSug ar
ĠMy th
10 4
Ġ2 20
c ified
Ġfert ility
Ġ10 3
ĠJohn s
Ġsuccess ion
ĠRh ode
it em
ve red
whe el
it ating
ĠC anyon
Ġadoles c
^ ^
Ġm arsh
ĠO UT
Ġcomp uls
ĠCr us
Ġw anna
ob ic
Ġst acked
Ġtop s
ĠF ell
c f
ĠRhod es
ĠStr ategy
Ġrel iance
ĠB ot
ĠIS Ps
ĠBar rett
ĠC E
Ä Ł
Ġmark ers
Ġtrans plant
Ġdead l
Ġde ported
ĠV it
Ġpo orest
Ġleft ist
ĠMarket ing
os er
Ġreal ization
b ands
B o
k owski
ĠD uty
ĠTe en
board ing
ĠBur ton
Ġe cc
ĠYOU R
Ġspat ial
count ry
Ġbol ster
Ġretrie ve
Ġint ro
Ġcollabor ative
Ġvalid ation
e g
Ġtax ation
Ġh alls
Ġrele vance
Ġdisg usting
ĠMount ains
ĠN W
Ġdepth s
l ied
c am
ol ia
G erman
ĠCre ated
ĠKurd istan
ĠMot ion
t imes
Ġdis charge
Ġgif ted
em y
Ġsuper vision
ĠLeg ion
ĠP rest
Ġvers atile
ra vel
Ġun cover
h ops
Ġtang ible
Ġperpet rators
Ġmiser able
st atic
Ġoccur rence
B it
am ic
ĠR ole
ĠC ert
Ġw it
Ġdivor ced
r ade
m ails
er ror
or ian
Ġb row
ount ain
Ġintr ins
\ "
Ġsp ine
Ġg y
ĠB ag
iv o
ĠMoh ammad
Ġextract ed
y on
Ġcreep y
Ġd os
Ġmiss es
ĠDevelop er
els en
Ġadequ ately
e on
art en
Ġsusp end
right s
Ġelev ator
re z
ĠLeices ter
Ġmeaning less
Ġstamp s
Ġp ent
ĠG ent
ĠEug ene
ĠMed ium
ĠChrist ine
Ġresearch ing
ĠCan ucks
ĠArt ist
ĠEll en
Ġun ite
omed ay
Ġstake holders
ĠW ald
Ġclean ed
ĠCustom s
ĠT ow
Ġblast ed
Ġaccum ulated
uff er
Ġrefres hing
ĠH aven
ĠA FC
Ġmod ification
ĠPer iod
,' "
ĠP u
Ġdiplom at
Ġwholes ale
Ġsurround ings
ĠAst ron
Ġb idding
ĠP ip
ĠGall up
Ġbom bers
Ġindirect ly
Ġprint s
ĠS ke
Ġheight ened
is ch
Ġlo oming
ĠAt las
ĠP ors
Ġanal ogy
ĠSp o
w ire
im on
qu arter
Ġnight club
cre ate
ĠBel fast
f alse
g io
Ġind oor
ĠTechn ologies
Ġinfant ry
it ures
ĠF ail
ĠP TS
Ġobs ess
Ġreinfor ced
ON D
Ġst d
ĠL enn
ĠP ale
Ġindef initely
Ġgrant ing
ĠJud a
ĠH av
ari at
N P
ĠJ azeera
Ġaster oid
Ġgl orious
b ott
Ġbi ography
ĠF ury
Ġthe ology
ĠR andom
ba um
ĠE cho
um bs
Ġbr ass
Ġcruel ty
Ġg ays
ĠT IME
ĠRe ason
qu et
ĠL iz
Ġstuff ed
Ġbelie vers
ĠCom pl
Ġoper a
id able
Ġeval uating
Ġcorrespond ence
âĢ¦ ]
Ġutil ized
Ġoverth row
Ġunique ly
Ġchar ism
em ade
Ġwith hold
ĠSh ia
ĠS hen
Ġwe ights
Ġillness es
Ġdom ination
Ġsound ing
Ġrelie ved
Ġpast e
ĠP owers
Ġhonest y
Ġe ject
ĠM illion
Ġtel escope
Ġspe cially
Ġsc andals
ĠT ool
ĠFort une
Rep ublic
ĠKit chen
11 5
Ġgo alt
ĠInf o
Ġnut rients
ĠT ag
AT A
Ġplace bo
ĠN olan
s i
ven ant
ĠE ston
Ġfut ures
is ans
ĠRe y
Ġs or
Ġhook ed
Ġramp ant
Ġlivest ock
ĠHist orical
Ġdistract ed
ring ton
Ġdr ums
Ġte asp
Ġunder went
U nder
ĠSud denly
ĠProtest ant
Ġs ang
ĠSh ut
Ġsh am
Ġdec ay
Ġreconst ruction
ass is
Ġj oked
ĠSl ow
ĠResp onse
ĠD ocker
ĠN are
H ouse
Ġanarch ist
ĠA ce
Ġcur tain
ĠN om
ĠDet ective
Ġelig ibility
Ġyell ed
Th anks
Ġsh iny
c ould
Ġt apes
AC H
Ġpro claim
Ġun pleasant
ĠW ow
Ġcatast rophe
ĠSebast ian
Ġfundra iser
Ġrep s
Ġnom inations
Ġhe ights
ĠMar ijuana
Ġsuper market
Ġconstitu ency
our ing
ĠRC MP
ile aks
ĠD anger
v ideo
Ġdisp ers
. ;
h m
Ġk in
ĠRe ich
Ġout raged
ĠRock et
ĠGar rett
Ġs ung
ĠBack ground
Ġsuscept ible
ĠProv ince
read ing
Ġfilm makers
st ad
ĠPer u
Ġpredict s
Ġstat istic
ĠMe chan
Ġturn over
Ġresemb les
Ġgl ow
ĠCongress man
reg or
Ġdest abil
Ġoverl ap
Ġextract ion
200 4
Ġir rational
200 1
l ia
Ġlike wise
Ġhero ic
ĠG ri
Ġclos et
Ġb un
Ġgl oss
ĠE is
ĠP LA
ĠSav age
ĠOrig in
Ġcho pped
Ġsell ers
P age
f aced
ĠR aspberry
Ġe ch
ĠG ut
ĊĠĊĠĊĠĊĠ ĊĠĊĠĊĠĊĠĊĠĊĠĊĠĊ
y en
Ġfraud ulent
a ft
Ġcan vas
Ġcl o
Ġsign aling
en ment
ĠO val
ĠL EG
Ġrec urring
ĠIs n
g ae
ĠR SS
st ru
Ġrecy cling
Ġmit igate
Ġweaken ed
Ġ195 8
ĠÂ Ĺ
ex pl
ĠCor rect
Ġho ax
ob ject
Ġdest ined
Ġinqu iries
ĠFle et
a unch
Ð ³
ĠO T
Ġ195 6
met ry
AN G
s or
Ġsurviv or
Ġh ats
ĠD ucks
g age
ĠV ic
ĠG olf
Ġdial og
Ġ10 6
ĠK re
Ġbe aches
Ġkid ney
oust ic
Ġbur ial
ĠK ur
lling ton
Ġb unk
ĠPir ate
ot le
Ġâ ī
ĠPro blem
Ä «
omet ric
ĠMan it
Ġcan s
Ġcease fire
ĠConst itutional
em er
ÑĢ Ðµ
ĠL az
Ġsect arian
Ġfore see
Ġjudge ment
ĠSp ark
T om
ĠRock y
ol iberal
Ġf etch
im an
Ġto dd
t arians
Ġforg ive
Ġfrag ments
Ġid ol
ĠRes istance
ĠE manuel
ĠRe pe
Ġn as
Ġprop onents
S W
h ig
Ġsc oop
ĠHans en
ĠH oney
ĠApplic ation
ĠCelt ic
ĠBay ern
Ġrum or
ĠH ond
Ġsuper natural
Ġdi agram
r ine
Ġbu ys
Ġsab ot
f ill
pir acy
ĠW ave
the med
ĠNep al
B el
Ġcompos er
ĠCo ord
it us
Ġreg ression
ĠGu inea
Ġf aint
Val ue
Ġsuprem acy
s afe
Ġex ile
ris y
ĠOs borne
Ġovert urned
Ġoper atives
Ġac ids
ĠV ita
v able
ĠCal vin
Ġlung s
Ġst ing
ĠTest ament
Ġconver ting
Ġs outheast
Ġlif elong
Ġende av
Ġmad ness
ĠReg ist
old own
ĠHe in
ĠIS O
h un
ĠD uck
Ġphotograp hed
ĠâĢľ âĢ¦
Ġsur geon
Ġ Ø§ÙĦ
Ġhel pless
Ġfranch ises
Ġinter ceptions
ĠCol bert
d oes
Ġab normal
Ġgrab bing
ĠE lementary
ĠÃ ¢
ant a
Ġhead phones
ĠLen in
Ġw olves
Ġbad ge
ĠWar rior
id ate
N O
iv ism
Ġhon ors
ĠCons ult
Ġpund its
ump ed
ĠE z
Ġworth while
ĠDis play
ĠIn come
per ing
t ar
Ġre print
l ich
ĠVict ory
Ġsl ap
ĠNew man
Ġshr inking
cop y
Ġl ith
Ġch ambers
Ġtr ilogy
ĠS ara
st y
Ġcomment ator
ĠJo an
ĠChurch ill
ud s
Ġcouncil s
ĠAl leg
Ġkidn apping
ĠNic ole
Up date
ic idal
ĠIndust ries
qual ified
B Y
Ġro gue
th y
olester ol
Ġpun ched
Ġmilit ar
Ġheter osexual
ĠBut ter
H ar
ĠLe h
Ġcr acks
Ġst oring
ĠG C
ed ience
Ġdraft ing
Ġcont enders
Ġintermedi ate
lud es
ich i
bour g
Ġfirm ware
Ġsupp ression
Ġmar vel
ĠCar p
pl aces
Ġdiscipl inary
ĠL SU
Ġm aid
ind a
Ï Ħ
19 90
Ġc ant
Ġspec ulate
Ġreb ound
Ġmess y
Ġt enth
Ġfair y
Ġ19 17
ific ent
Ġauthor ization
Ġland sc
oc hem
ush ima
Ġalign ment
Ġdis able
ĠWh ole
Ġsc outing
ĠD y
erv ative
ĠStephan ie
Ġdis like
ave z
12 8
Ġmult inational
ĠHar old
Cl oud
Ġreconc iliation
c irc
Ġparent al
Ġ\ (
ass ed
c ano
Ġ} ;
Ġch lor
Ġabund ant
affe ine
Ġblu eprint
Ġon set
ĠW ILL
Ġre op
f ocused
ĠNort heast
Ġcock tail
Ġb ounds
ĠJoy ce
Ġa ka
ors i
d ue
Ġdesign ation
ĠVen us
Ġpr ince
ic us
H er
Ġz oo
Ġdisagree ment
cho ice
Ġd ock
Ġmin erals
Ġex h
Ġinstruct or
ĠI o
ul ators
be y
ĠL ac
Ġconting ent
Ġspl ash
AR K
Ġprepar ations
od ore
ĠV ander
ĠKore ans
Ġf rog
A pr
ĠAmeric as
ĠH our
Ġimag in
ang ular
Ġpop e
Ġst umbled
ĠT SA
Ġj ugg
æ ľ
ĠHam mond
og ene
Ġsuper star
ĠLab s
t ier
art z
ul ed
Ġcl usters
Ġorganiz er
Ġremark ed
im o
ir teen
Ġcl one
ra red
Ġhint ed
Ġres h
Ġd ess
ĠAr g
Ġunp aid
Ġaspir ations
ĠSant os
n umber
ĠT yson
ĠM aid
Ġcountry side
Ġm esh
Ġpl ague
ĠSalv ador
Ġded uct
ĠC OU
id ad
Ġhard ship
ĠLic ense
Ġrehab ilitation
Ġprotest ed
Ġcertific ates
pl er
Ġsm ashed
ĠHung arian
Donald Trump
Ġunt o
c ule
Ġcl own
ĠThank fully
Ġchance llor
Ġto mb
ablish ment
ĠYork er
ol ation
Ġsc out
ĠGard ner
Ġsm oked
Ġv oy
ve ment
Ġmem br
ĠM ental
Ġver ification
ĠCh art
Ġ11 2
rict ed
Ġpo orer
ef ined
ott est
ĠF X
ĠF inding
ĠInspect or
ĠMah m
Ġedit ions
ĠSt ark
f iction
h ou
ĠN R
Ġprohib its
ĠHug o
ĠExam ples
ĠSyri ans
PD F
Ġco herent
ĠSy nd
ĠPat terson
osp ace
R el
i ya
Ġ10 8
ĠSerb ia
Ġl akes
Ġcross es
ĠN PC
Ġpedest rians
Ġpol ite
ĠIs is
Ġest e
ĠG erald
Ġsol itary
P ort
ĠP av
Ġpsy chedel
person al
be fore
Ġmicro bi
Ġdictators hip
Ġ& &
ĠTon ight
Ġo mn
Ġg room
ĠT ucker
ĠZh ang
Ġco erc
ĠB om
Ġbell y
ĠHas kell
Ġan th
Ġaccomplish ments
Ġ ion
ĠCom mercial
Ġapp les
Ġb ark
Ġback pack
Ġ19 43
G reen
Ġoff ender
ĠCustom er
oci ated
qu in
Ġap ost
gr and
ĠW yn
Ġ195 4
ĠS ikh
Ġpecul iar
Ġgal axies
Ġret ention
Ġcler k
ĠJ ab
Ġrep ression
Ġric her
Ġlaw maker
he avy
Ġsouth west
ĠSh ir
Ġrepl ies
Ġunders c
Ġreject ing
if ax
ĠSuper ior
ĠP ull
ĠLes lie
ett es
Ġinstall ment
Ġunanim ously
ĠAss ass
d ies
Ġumb rella
Ġant it
Ġsett ling
ger ald
ĠSer iously
Ġprop oses
de ath
Ġcoll ar
Ġsh attered
ĠWrit er
al ong
ĠW S
ĠJuda ism
z an
ri o
Ġ195 3
Ġo ri
ĠBened ict
10 3
Ġrev olt
sm all
Ġfr inge
Ġaccident al
st ill
ĠM add
ĠJ P
b ons
Ġintimid ation
Ġscan ning
an mar
ĠEv idence
Ġc ros
Ġm int
Ġo z
Ġmanip ulated
Ġdr astic
T L
Ġstri ve
ak is
Ġstap le
Ġdownload ing
ĠPed ro
Ġplay ground
Ġdismiss al
Ġpar ole
h ash
Ġ7 50
bel ief
Ġd ur
ĠSm ash
F rank
ed a
Ġtub es
Ġspecific ations
ĠA id
ĠSt am
w ild
Ġrational e
Ġun authorized
Ġunl ocked
stand ard
Somet imes
m or
Ġs omeday
ĠRes idents
pher d
Ġd ots
Ġaffidav it
Ġse gregation
Ġcraft ing
ĠSh arp
Ġexc uses
ĠAv iv
Ġmortg ages
ĠFact ory
Ġshoot ers
ĠN iet
eff icient
Ġsub missions
Ġcar ved
ĠAndrew s
Ġf ade
( $
Ġw inger
ex per
Ġdisag reed
ĠDo ing
kins on
b ai
Ġpersu aded
Ġ195 7
Ġadjust ing
Ġaccus ation
Ġthank ful
Ġcirc ulated
200 3
Ġfall out
Ġcrus hing
F ox
a verage
Ġover c
ĠCong o
Ġbrows ing
Be fore
Ġinteract ing
Ġacc ustomed
ĠF emin
m ag
Ġener get
Ġp uls
ĠAnk ara
ĠNare ndra
ĠCh ang
ĠCl aim
Ġcommod ities
ĠCu omo
Ġdoub ling
Ġpro claimed
Ġund en
ĠR ash
Ġsh arks
Ġdraw ings
ID IA
us ra
Ġopp oses
yr us
Ġzomb ies
ĠJac obs
Ġw ax
p rop
ĠMar riage
Ġost ens
Ġcomp ilation
Ġb iblical
N ever
Ġ10 7
Ġfant as
Ġ11 1
ĠElect oral
ott i
Ġrem edy
ĠWH AT
Ġresist ed
Ġtelev ised
^ {
Ġlapt ops
ĠCor nell
Ġfreel ance
Ġch orus
l ier
Ġplag ued
ĠE y
Ġeffic acy
ix ed
Ġdifferent ial
Ġdr ills
Ġharm ony
Ġdin osaurs
IN D
ĠFl ore
real DonaldTrump
ĠMy anmar
ãĤ Ĵ
ĠOp ening
ĠPhys ical
Ġge ographic
Ġmer ged
Ġhe x
Le ague
Ġdilem ma
ĠM W
Ġske let
Ġstaff er
ĠKir by
Ġthri ving
ĠJ as
ĠGener ally
Ġtele com
Ġinnoc ence
Ġcommun al
ĠF argo
Ġlear ns
ĠCharl eston
ĠPh arm
Ġpoison ing
ĠAr ist
ĠMinor ity
Ġp ac
Ġp anc
im portant
ĠPun j
Ġimp art
Ġneg lected
coh olic
Ġad vertisements
G en
Ġto x
ĠG addafi
Ġmight y
Ġst air
Ġsu ing
Ġtherapeut ic
ĠF en
ĠSor os
Ġn g
ĠGu jar
ĠBott om
in as
ĠMin utes
Ġl id
Ġprogress ives
Ġsystem atically
Ġarchitect ural
Ġdecor ated
Ġbrew eries
Ù Ī
ĠMed al
umn i
ĠFreder ick
ĠTh ing
Ġweigh s
enz ie
ou g
Ġemer ges
Ġprem ie
Ġswift ly
J ack
icult ural
Ġcollect or
Ġroll er
ĠPod esta
Ġadvert ised
f uel
ĠBrad ford
Ġmon arch
l ain
Ġreprodu ce
Ġs aga
ĠD uc
Ġexpend iture
ĠC oul
Ġmon key
10 2
f ashion
Ġsuppl ier
ĠL akes
ĠW ong
d eter
Ġang el
ĠLiber tarian
Ġsur gical
ĠSurv iv
ĠAdd ress
r ice
ĠF E
ĠA WS
Ġne oc
Ġsk ies
Ġtor rent
ĠLe eds
Ġscreens hots
Ġdest iny
ĠJan et
ast ics
ass ing
Ġmisdem eanor
Ġthank ed
M arch
Ġanim ations
ĠCy cling
ĠDur ant
ph ony
ĠM ang
ĠAl v
spe cial
Ġmaj ors
Ġdown side
Ġcl utch
or ously
ĠDem s
ĠKu wait
ro b
ob ody
lant ic
Ġt iles
Ġcontin uation
pro duction
Ġref resh
ĠAp ache
ĠB A
Ġd amp
Ġs add
Ġrest ruct
Pol ice
ĠAn s
ĠL ots
ab ee
ĠCont ract
ab ase
Ġpat rons
Ġreserv ations
Ġer r
ON G
Ġver ge
4 50
f est
ĠAng lo
Ġind icted
Ġmut ation
Ġcomment ing
ĠLie utenant
ci um
Ġlast s
ĠW ash
ĠU E
Ġnit rogen
Ġeven ly
Ġlog istics
ĠÐ ´
A g
Ġann ot
ĠM K
Ġimpe achment
Ġsp ider
rel igious
N AS
Ġmyth ology
Ġindu ce
ĠNiss an
Ġgovernment al
M ac
Ġubiqu itous
ĠL uk
ĠSch war
ĠArt icles
ĠPors che
enh agen
Ġtweet ing
Ġsc ans
Ġexist ential
ĠC ous
Ġs ized
Ġcyn ical
P re
Ġf ried
Ġschedul es
Ġrem ake
Ġw aking
ĠEuro pa
Ġgl uten
ĠT ip
ĠR id
ern ick
Ġpolicy makers
ij i
ĠBuddh ism
ĠN igel
Ġcontinu ity
Ob ama
IN K
Ġmed d
Ġtr aps
Ġco hes
Ġgest ures
ĠFitz gerald
Ġevac uation
ĠS ed
ĠInt o
Ġne p
au f
) [
Ġam ple
Ġstation ed
Ġ19 55
ĠLaw s
ĠDo om
Ġenfor cing
ass er
cript ions
edd y
ĠAl bum
P O
ĠD NS
D F
Ġchar ming
ĠNic olas
ĠNob le
Ġeleph ants
Ġt apping
.âĢĿ )
Ġbrand ing
Ġf al
ĠNe uro
og o
um en
IC H
Ġconcer ts
ord e
Ġro oft
Ġgar nered
ĠJ ail
Ġproc ure
ĠTw ilight
Ġbr ace
educ ated
ĠL un
ĠU FO
Ġwas ting
Ġreprodu ction
b ishop
Ġkill ers
Ġy a
Ġform idable
ĠJoh ann
ĠIb rahim
st ro
ĠEl i
Ġplum met
W H
ĠN er
ell i
ĠArch ives
ĠEth ics
io let
ĠMar athon
Ġadvert isers
ĠAur ora
Ġsal mon
Ġmed als
ĠJohn ston
ari us
ĠD ogs
Ġign ores
as io
Ġblog gers
Ġdiv isive
Ġsw ear
Ġg ospel
Ġfasc ist
ĺ ħ
Ġmarch ing
m ia
Ġst alled
Ġbu cks
Ġwild erness
lin er
Ġir regular
ĠElect ions
Sp ace
Ġar ises
ĠCh avez
Ġpir acy
Ġh ug
Ġrev ive
Ġanten na
Å Ł
tr ade
Ġcl oses
ĠRes cue
Ġserv ant
ist ence
rank ing
Ġunanim ous
b c
ĠDrag ons
ĠMac ron
ĠArmen ian
f acebook
ĠI PA
Ġgrad ual
Ġacclaim ed
ĠBay lor
Ġst igma
Ġc ough
Ġexagger ated
Ġ19 49
ĠSouth ampton
al ine
ld on
gener al
Ġt sun
udd y
Ġincap able
Ġg el
Ġsent iments
f ounded
G reat
Ġdem ons
Ġdesc ended
Ġsur real
ev il
il ib
ĠFr ances
Ġver te
gr aded
Ġgard ens
IL E
ĠFred die
ĠD HS
Ġby te
ĠStrateg ic
et r
" );
Ġb ree
m t
ĠS uff
Ġdisrupt ive
Ġand roid
ĠCho ose
ĠSh ares
Ġox id
Ġcann on
Ġref rain
ĠR iot
Ġrun time
ĠCh icken
ĠMarx ist
ĠLind sey
n n
ĠM H
Ġmerch ant
t arget
ody nam
Ġcrack ing
Ġloud ly
ĠC ain
ĠF emale
Ġin advert
ĠSpot ify
Ġsoc ietal
Ġrul ers
ĠL anka
ood y
ĠRap ids
ĠBen ef
Ġstub born
Å Ĥ
ĠP arents
f ires
ĠM TV
ĠC ed
ĠSt o
ru gged
Ġshort ages
he rence
ill as
Ġaggrav ated
ĠGo al
Ġcongest ion
product ive
Ġmass ively
Ġsqu at
Ġprolifer ation
Ġsens ory
Ġfire works
Ġtruth s
com b
Ġbod ily
ĠAbs olutely
m is
Ġdi ets
Ġca fe
enc ia
Ġspons orship
Ġiniti ate
Ġwho pping
Ġrail road
Ġrecept ors
Ġarchitect s
Ġp ads
ĠM alt
r h
Ġel bow
hen ko
Ġrenew al
z ip
Ġsimpl est
ĠMotor ola
ãĥ ³
ĠN aturally
Ġl akh
ĠBra ves
Ġ( #
Ġcomfort ably
Ġf ier
Ġant agon
Ġspect acle
v on
Ġculp rit
in j
Ġun identified
Ġinc arn
ĠK C
ĠFull er
Ġ10 9
wh y
ĠSol omon
ĠD re
Ġst all
ĠJoe y
Ġdeep est
Ġimp ending
l n
Ġcl an
ĠZ ika
ĠZe lda
in ion
Ġl enders
Ġwork load
Ġcomp ression
Ġinj unction
Ġsu cks
ric ks
pict ured
S an
Ġa rom
Ġir responsible
ĠBul gar
are l
ass es
Ġpath ways
Ġphil anthrop
Ġs ir
Ġl iable
ĠSh annon
Ġund o
ut ory
Ġ[ âĢ¦]
ch in
ĠRevolution ary
ĠH ang
ĠMig uel
Ġsad ness
Ġret iring
Ġreg istry
ĠL ok
ãģ Į
ĠShe ikh
it ant
Ġseiz ures
Ġb aked
Ġhe mp
Ġen cl
Ġbre asts
Ġtransform ing
ĠK ris
ĠMad uro
Ġjurisd ictions
Ġm ansion
se ys
t ical
ĠC ream
ĠProsecut ors
UC K
ĠAl ban
Ġp act
Ġrent ed
ĠInnov ation
y et
F e
Ġr ude
t urn
Ġcirc ulating
Ġcompan ions
ub a
Ġdepict ing
Ġbr akes
Ġaffili ation
Ġaver ages
Ġgrat itude
Ġhigh s
ĠChap man
Ġ13 5
erv ation
Ã ¯
ĠHann ah
c p
Ġdisc rep
ĠP izza
ĠPay Pal
E s
Ġdr ift
Ġsuccess ive
Ġphotograp hers
ĠH ash
Ġper imeter
ĠAud i
ĠP ure
com pet
ĠR ate
Ġstri ps
Ġm ans
og ram
Ġgrab s
Ġbigot ry
wart z
On ly
ron ics
ĠPrim ary
ĠW ide
11 1
T op
Ġcounsel ing
Ġhall uc
r ue
Ġmedic ines
ĠBl ocked
H and
Ġaw ake
m oon
at ical
Ġinject ed
ĠFly ers
ĠCon nor
Ġpseud o
Ġveget arian
Ġo v
ĠW id
ott a
Ġmemo ir
ĠC rim
Ġfor c
Ġinter ception
Ġconce al
n om
Ġm um
Semit ic
ĠPeters burg
she et
oy a
Ġpredec essors
d ain
Ġmem e
ĠLu cy
un ion
Ġgood bye
ĠPsych ology
ĠP ixel
Hill ary
Ġpup ils
Ġd itch
Ġenvelop e
Se pt
Ġalleg iance
Ġse ated
Ġrem n
ĠG ru
Ġgra ffiti
ĠPerson ally
ĠBar on
Ġal ley
ĠNAS CAR
ĠV on
Ġvill agers
Ġge op
Ġharass ed
Ġp oker
10 9
ĠB U
Ġper former
Ġauthent icity
re lease
ĠB asket
ĠQ U
Ġspeed ing
oh yd
Ġundergrad uate
ĠSh ore
Ġbur ger
Ġsub ord
ĠNV IDIA
Ġfor ged
ĠLam ar
ĠP P
Ġmut ations
Ġplay able
Ġall erg
Ġv ow
IC S
ot he
Ġhal ted
Europe an
Ġrob bed
ĠSupp orters
sole te
T B
Ġatroc ities
ĠP yr
M ap
Ġproport ions
Ġdepart ed
Ġconf essed
Ġgener als
Ġsp ur
vention al
Ġincorrect ly
Ġhypoc risy
Ġwhere by
Ġgr ains
ĠRe in
ĠBar r
ĠTor res
et ics
Ġper t
Ġske leton
ew orthy
Ġv ou
Ġpiv otal
h awks
ĠH os
n as
Ġrest oring
Ġgoal ie
Ġsw all
ĠL L
ĠN u
Ġun official
. *
Ġexcept ionally
ĠGreen e
Ġinflamm ation
Ġinc ub
Ġstr ongh
Ġwor s
ĠH ers
Ġcamp ing
ri z
Ġdisc ern
Ġs ins
Ġsl ate
Ġnep hew
ĠKey stone
ĠIG N
ĠFranc o
Ġsit uated
Ġs ou
ĠValent ine
ĠV oy
ĠDri ver
Ġlau ndering
ĠUn known
int rodu
ĠAC A
Ġbra ke
me aning
ĠOper a
ĠF lying
ĠL if
Ġtend encies
P ER
ĠDe V
ĠD EA
ĠPatri ot
Ġam en
Ġprofound ly
ĠC ategory
Ġexplo its
ĠG RE
Y S
Ġlim bs
ap i
ãģ Ļ
ĠHe b
Ġmis ery
ĠS ally
Ġexpend itures
Ġsafe guard
it ations
an an
Ġincarcer ation
Ġdev ote
G P
Ġequ als
ĠFr aser
Ġ19 46
g ithub
pr us
ĠMo zilla
ĠA gg
ĠB end
Ġcommer cially
Ġge ek
Ġ2 30
ĠCrit ical
n ull
Ġmot ors
ĠTr inity
Ġvill ains
Ġbud dy
Ġess ays
ih il
Ġopp ressed
any e
Ġlif es
OL D
17 0
Ġassess ing
ĠF unction
Ġther m
oot er
ĠProper ty
ĠPR O
ĠM ub
Ġinv aded
ĠC V
Ġtest osterone
ÃĤÃĥÃĤÃĥÃĤÃĥÃĤÃĥÃĤÃĥÃĤÃĥÃĤÃĥÃĤÃĥ ÃĤÃĥÃĤÃĥÃĤÃĥÃĤÃĥÃĤÃĥÃĤÃĥÃĤÃĥÃĤÃĥ
Ġrem oves
act ly
Ġworld view
ĠBrig ade
at ra
p resent
Ġsynt hes
ĠGr ade
ĠK ol
Ġsl iding
ĠSett ings
ĠN um
ace y
Ġexecut ing
its u
Ġch unks
ĠS ays
Ġpo pping
St op
Ġcoun ters
Ġat om
Ġche at
cop ic
Ġboard ing
Ġent r
Ġrespect ful
Ġspec ulated
Ġresp ir
ĠG amer
Ġsl ope
ĠT ut
Ġx en
Ġfil ib
Ġse af
u ously
Ġflood s
ĠIron ically
ĠVar ious
Ġre play
ot er
ĠRem ove
Ġst ain
ĠF ul
ĠBegin ning
C raft
Ġb aff
m ove
ket ch
od us
Ġexpl ores
ĠA ber
Ġsur rog
ĠRoc hester
Ġnew born
Ġneighbour ing
Ġm as
ĠIndones ian
J une
ĠG ust
ĠMon roe
p ensive
ex isting
Ġhit ter
ĠV C
s kin
d ependent
ĠC aucus
Ne ill
ĠW ool
ĠC ec
ĠAr ms
ĠEx c
ov y
Ġwas t
ĠD as
Ġ25 6
a q
Ġphilosop hers
Ã¡ s
is man
ĠW itch
Ġprovoc ative
Ġprol ific
ad ic
Ġc ove
Ġsm iles
ong o
ĠD iana
ar ious
bo at
Ġdevelopment al
St ep
ĠG ender
ep ernick
ĠSt rat
ĠS ig
ĠR oh
Ġcor related
Ġplanet ary
r ite
ĠL I
ĠVol ks
ĠN I
utter stock
// //
be ck
ĠHoff man
Ġpro w
tt a
Ġrul er
Ġun aff
Ġl ure
het ics
ĠSol o
o il
ĠSt ats
threat ening
Ġcl ay
ĠD IS
Ġpre fers
ĠW C
idel ity
Ġtoug hest
ĠDecl aration
Ġdis comfort
xx xx
Ġn ud
ms on
ir ling
Ñ İ
ĠP ont
ĠPhilipp ine
Ġsh ining
hib ition
ĠCar bon
ĠGree ks
att a
Ġon ion
Ġpharm ac
ub s
im ation
Ġrain fall
ĠRoy als
ĠDef ensive
C r
Ġinc idence
l ang
ĠGro ve
Ġtri angle
ĠComp ared
ĠPengu ins
ĠF F
Ġ( (
Ġcelebr ates
Ġf ox
ĠB ib
os lav
Ġtum or
Ġins ign
Ġapp end
s son
ĠD T
Ġexpl ode
ĠSS D
Ġspecific ation
Ġr av
ĠAv iation
Ġsm ash
Ġt abs
ĠS ounds
ĠSee ing
Ġdict ate
Ġlim itation
ĠT ank
ĠP om
art icle
ĠCop enhagen
sp ot
Ã± o
E vent
Ġdecre ases
d ens
Ġfo am
en za
ĠDes k
com merce
Ġrun way
ĠGod s
Ġper il
r itional
en ch
Ġbub bles
Ġbl oom
Ġcampaign ed
Ġpil gr
comm ittee
Col or
ĠS ue
ĠN D
ĠArch ive
Ġtra umatic
Ġ19 33
ĠSol utions
EN S
Ġpl ac
Ġle v
OU ND
ik ers
ĠS ou
Ġrot ating
Ġbo il
Ġtot als
C ount
Ġchick ens
go ogle
osh op
op ia
ĠCann abis
Ġconflic ting
Ġpet ty
ĠBlock chain
Ġbl ues
cr ime
Ġco ached
Ġpreced ing
Ġout we
Ġs unk
Ġqu ir
ver ts
ĠOs ama
Ġconfig ure
Ġt issues
ĠWill ie
ĠK ra
uper t
M ax
Ġmail ing
Ġspec s
Ġguess ing
Ġappl ause
Ġtheoret ically
Ġexp ire
cent ric
P at
Ġc emetery
ĠF usion
ĠUnder ground
Â Ĺ
10 6
Ġcyber security
Ġpack ing
ĠTraff ic
ĠT rou
Ġur ges
Ġremember ing
k ick
ĠG ian
ĠFuk ushima
Ġwh ip
Ġex pelled
Ġdiscrim inatory
A v
ĠJav ascript
Ġl ocking
b order
ĠTh reat
Ġnarc iss
Ġscore r
ĠF ry
um mer
Ġe lic
Ġinter vals
Ġd op
Ġtrans cend
Ġyear ly
n ick
ĠAzer bai
gl obal
Ġspecial ty
Ġtr unk
Ð¾Ð »
Ġl amp
M ad
Ġde port
t aking
ia o
Ðµ ÑĤ
Ġpl ight
P ar
Ġcommun ism
ĠGu ate
ur g
Ġinfect ious
ĠHard y
Ġ12 3
ĠWe ber
ĠFernand o
ĠR an
Ã Ł
Ġ195 2
Ġdec omp
ĠProt ect
es que
Ġpair ing
ĠE VER
Ġimper fect
Ġgig antic
ĠF alse
10 7
ĠAN Y
O ther
ĠField s
Ġlaw ful
s ince
ĠStand ards
ĠPod cast
Ġcler gy
M ichael
Ġa we
at ible
ĠI B
Ġoil s
Ġc ues
Å «
ĠZion ist
ruct ions
Ġk ings
ĠSure ly
Ġfr iction
Ġschizophren ia
ĠRead y
Ġtempor al
Ġbr ink
Ġperson a
is y
ĠOb server
ĠPubl ishing
Ġins iders
Ġprep ares
l ove
ĠC ory
ĠRiver a
Ġdisproportion ately
ĠK od
Ġnic otine
T ur
but ton
ĠOpp ortun
c ats
ig ger
st ant
Ġs ulf
oc ating
Ġtr act
l ide
Ġimp aired
Fig ure
ĠÂ ĸ
M att
ĠL ords
ĠZucker berg
Ġh ates
man ned
Ġdefense man
ĠIv anka
auc as
ĠS we
OS S
Ġnow adays
Ġsle w
200 2
Ġgr ammar
Ġadmin ister
Ġal erted
ĠCh i
Ġrest s
Ġpuzz les
t im
Ð½ Ð¸
20 18
rac use
Ġz ip
ĠUn cle
Ġste er
our cing
Ġ á
Ġritual s
Ġam azed
ĠL TE
Ġunder mining
U ser
he ne
Ġpolit ic
ĠQu ite
Ġimp uls
M o
ĠH ull
Ġcoll usion
F OR
ĠB ike
Ġprin cess
g ering
H H
ĠTom orrow
ĠS ark
ĠRabb i
ĠMon itor
Q ue
ĠT ools
Ġpro se
Ġrent s
Pl us
Ġsuper f
Ġinex pensive
Ġconf ess
ĠDani els
Ġrestrict ive
Ï ģ
Ġsubsid y
te enth
ĠCy prus
ĠW AS
Ġemploy ing
M ake
ĠPer th
Ġdecre asing
Ġunivers ally
cap ital
Ġrab bit
Ð» Ð¸
iov ascular
Ġair ing
ĠBill board
fr ac
w on
Ġconfig ured
and ing
Ġexperiment ing
ĠSt eele
the ir
w i
Ġm aternal
ber ries
ĠR ide
Ġfam ed
Ġp ains
ph oto
ĠKa epernick
Ġsmugg ling
ET A
Ġp arl
ĠCreat ing
Ġch illing
B uild
Ġinsur gents
Ġs inking
ĠSur ve
aked own
ĠF ellow
W ork
all ic
Ġcondemn ation
ĠCon sequently
ĠRain bow
ĠWend y
Ġh ottest
ĠGujar at
ĠFinn ish
Ġcris p
.âĢĻ âĢĻ
ALL Y
Ġunre asonable
p ires
Ġnot ions
ĠTh irty
ĠC ody
Ġpractition ers
r aining
ĠT witch
ĠS inger
ĠAC T
R eal
J ew
ĠU AE
ĠSant orum
Ã± a
Ġmanifest o
leg round
an amo
ĠFront ier
Ġjihad ists
Ġpol ished
ĠQu ote
Ġinv asive
Ġaccum ulation
Ġp enny
ĠD ew
Ġpost ure
ĠH il
Ġpass er
Ġcommem or
Ġinsult ing
Ġext inct
at hing
vid ia
ĠRaf ael
ĠMart y
ĠE arn
ĠP osition
Ġgl am
Ġrestrain t
Ġpe as
Ġd ynasty
St ory
ĠJ al
Ġlect ures
Ø§ Ø
Ġgl owing
. /
ĠP ool
en ame
ĠMess age
em on
ĠCamp us
ĠE ld
Ġconc ussion
sh ort
ĠBoy d
Ġmic row
ĠAb stract
ĠVP N
ĠG IF
com pl
ic z
Ġdistur bed
Ġcher ry
Ġvacc ination
Ġch olesterol
Ġhands ome
Ġdrag ging
r Ã©
Ġfort unes
! ),
Ġpart nered
ĠWeap on
s end
m ith
ĠPop ulation
Ġ iv
Ġhist ories
ous se
Ġmillenn ials
ĠTy pically
Ġd Ã©
Bl ue
S ervice
ĠWi Fi
Ġmunicipal ities
ĠID F
ĠPenn y
Ġpatri ot
rent ice
Ġfront ier
j ournal
ran ch
Ġstr at
Ġconsult ed
- $
Ġlabel ing
c uts
ĠSw ord
Ġuns ett
ĠChem ical
Ġrum ored
Ġh amm
Ġplug ins
ĠF ah
w agen
ĠM au
ĠRead er
Ġmand ated
Every thing
Ġstat ues
Ġconstruct ive
Ġrat ios
P ass
ĠP ist
Ġsub set
Ġprinc ip
coun ter
Ġb apt
T able
Ġf erry
ĠNorm al
ĠF i
ĠParticip ants
Ġsupp lements
Ġr app
Ġover ride
Ġcommercial s
iol a
Ġgun fire
Ġgl ue
ĠB ath
c amera
ĠAst ros
Ġpump ing
Ġfin anced
ĠEff ects
ĠDI Y
Ġworks hops
Ġinstall ations
Ġexhib ited
Ġsal v
her ty
C all
d uty
Ġjud iciary
Ġecl ipse
Ġdwar f
r ag
Ġdefin ite
Ġgen res
ĠGr am
W R
Pl ay
ĠSh aron
ĠT ot
j ava
Ġkn ives
id as
Ġf ills
ĠSy racuse
Ġecosystem s
Ġbur nt
Ġregul ating
Ġge ography
Ġfront s
cl oud
Ġboost ing
Ġd ictionary
Ġvoc abulary
Ġinstinct s
ĠBur g
Ġm ocked
Ġdescend ants
Ġs arc
l aughs
Ġf aded
ĠAthlet ic
" ?
Ġgeomet ry
ĠEd gar
reg ulated
ĠUn block
Ġinv oked
ign ant
Ġbl ur
el p
Ġheavy weight
ov sky
och ond
i ago
ĠR OM
Ġinterpret ations
Ġmod ular
ĠAll ied
13 5
ĠA AA
ĠG ig
Ġrecons ider
ĠRober to
ĠT we
Ġbl ink
ĠSch wartz
ĠS IM
def ault
Ġsand wic
ĠMic key
ĠSc out
st ed
Ġblock ade
Ġaw ait
Ġas semble
ĠKn ox
Ġfulf illing
che wan
Ġphenomen al
che t
f inals
Ġrac ially
am oto
ĠHun ting
Ġstart ling
and ro
V er
h ma
re b
ĠBur ger
at z
Ġch ased
th ose
ext reme
ag netic
Ġesp ionage
ĠD ol
Ġse mes
Ġad am
Ġpar cel
Ġuns pe
Ġspl itting
red dit
Ġ17 5
l ists
ĠVot ers
ĠRut gers
ing es
ĠA AP
Ġdiscour age
Ġs ocket
ĠR isk
ĠHolland e
ĠR ade
i ating
Ġhom emade
>> >>
Ġcompet ed
Ġ12 7
ment ia
Ġmet ropolitan
K ing
v ine
Ġhe ars
Ġout doors
ar ations
m ut
ĠHann ity
ct ica
Ġne oliberal
Ġschedul ing
ĠAm ber
Ġyouth s
Ob viously
Ġo sc
Ġd urable
Ġsim ulations
Ġblat ant
az ingly
10 8
ĠMcG regor
Ġoptim ized
Ġt earing
Ġouts iders
Ġpr aying
ĠOtt oman
Ġlong standing
e ast
Ù ĩ
Ġw ishing
just ed
itt e
Ġmush rooms
Ġeth ic
Ñ Ī
Ġin mate
ĠBul let
AN C
r ades
if ts
ĠA us
sh are
ĠStock holm
ig ated
inc re
F orm
ĠUs ed
Ġexplo iting
Ġhorm ones
ĠMeet ing
E nd
Ġmon uments
-------- ----
Ġnotor iously
Ġorganiz ational
Ġcontrace ption
Ġmetab olic
ĠÐ½ Ð°
ĠSh arks
Ġreal izes
ĠCl a
Ġleg ends
Ġsynt hesis
ĠMcL aren
ĠP ill
ĠAltern ative
ĠPat ric
r il
Ġpestic ides
ĠG ren
ne eded
ĠAv oid
m oney
Ġtermin ation
Ġsl ash
Ġra ided
Ġm und
Ġ) :
Ġs acked
ĠNew ark
ĠR anch
Ġjewel ry
ĠCor rection
B rit
Ġhe ap
ĠInit ial
Ġright eous
Ġhes itate
y g
ĠS I
Ġch assis
ĠB S
Ð¾Ð ¼
ĠR ES
orn ings
ĠHam mer
Ġcontrad iction
Ġunexpected ly
ĠB oulder
act ivity
ĠBook er
man agement
... ]
11 2
ĠManit oba
Ġchall enger
us a
ĠGuant anamo
medi ately
Ġthro tt
Ġf eder
bro ken
D O
ĠL omb
Ġkind ness
Ġdeploy ing
ew itness
r ar
Ġoun ce
ĠNe al
Ġtom atoes
oo oo
ĠAct or
og rams
Ġcon ve
en f
ĠL is
M T
Ġhand ler
Ġ19 14
nt on
ĠTest ing
represent ed
EM A
ĠAna heim
im i
ĠS z
Ġt ac
Ġethnic ity
Ġn ap
Ġpass ages
ĠAdvis ory
Ġ19 36
ĠPOL IT
F eb
ĠPer kins
reat ment
Ġstrengthen ed
d an
ĠProduct ions
ĠP ie
ad an
Ġplant ing
Ġs igh
Ġdistribut ing
ĠA ch
Ġpen insula
att led
Er ror
ĠV ul
ĠBon us
st own
Ġobst ruction
Ġdisp atched
Ġ19 38
Ġexcell ence
m its
Ġch ord
Ġabrupt ly
ĠD OM
Ġt ipped
Ġhome work
ĠS ina
Ġret ali
Ġhold ings
w omen
Ġinflamm atory
ĠLore n
Ġf ixture
N F
ĠLast ly
udd le
Ġcr ank
Ġund ec
Ġb ully
Ġrevers al
Islam ic
f u
crib e
Ġrock y
Ġindic ations
ĠTH C
Ġsummon ed
Ġob ese
f ell
Ġarc ade
Ġopen ness
chn ology
Ġvisual s
Ġsk et
ĠG ol
ĠGold berg
ĠHer bert
ut sche
Ġframe works
Ġgu iding
: [
Ġe ve
ĠOr t
ĠKnow ing
Ġtrail ing
ĠPyr r
priv ate
Ġfat ally
hy d
rank ed
not es
Ġlab s
b ee
s cience
en ary
t xt
Ġout going
Ġ15 00
Ġclar ified
Ġgrand children
EN CE
j son
È Ļ
Ġdemol ition
Ġre write
Ġsort ed
ĠHol iday
F ire
Ġunle ashed
Ġproceed ing
Ġl ent
ĠJ ump
Ġens l
Ġresist ing
M er
ĠK err
ĠDon ovan
Ġhigh ways
go ers
ĠHor izon
Ġâ Ļ
ĠRes olution
fil m
Ġsh ale
ĠO B
Ġem ission
Ġpro let
Ġoversee ing
Ġimpl ication
ĠEx cell
o zy
ĠTalk ing
ĠNap ole
ĠRes ident
ĠMub arak
Ġdef ects
Ġcollect ors
ĠBr ing
Ġfulf illed
T ech
ĠW o
Ġcart oons
ld om
We b
ĠH ank
ĠWATCH ED
Ġbacter ial
ĠH aley
Ġs lick
Ġread ings
ĠCher ry
rows er
Ġfemin ine
Ġcentral ized
Ġyield ed
ĠPhys ics
ĠChand ler
ĠR ena
ĠConf ig
ess im
ĠWol ver
ĠUg anda
it ious
l ated
ĠAl cohol
Ġam p
he a
ĠKaz akh
ĠL iquid
Ġfl ipped
Ġg n
ur ai
Ġ19 0
J uly
ĠSport ing
ĠStef an
Ġdecl ares
Ġsy rup
Ġceremon ies
Ġ19 18
ĠMoroc co
umb les
H E
Ġd wind
Ġoblig ed
Ġsurre nd
Ġh iking
ĠM ON
Ġconc urrent
hard t
Ġper vasive
ic ially
us ually
ĠG W
Ġ11 4
W ashington
uck land
ĠSc and
Ġcoh ort
ĠB ub
Ġnot ify
Ġmoist ure
ĠKnow ledge
ĠRo oney
Ġst ared
m age
ur istic
16 8
++ ++
Ġbus h
Ġsp un
ĠC lement
D ER
ĠSec urities
Ġmim ic
Ġmis guided
ID EO
ĠTunis ia
Ġp ins
aw k
Ġrese ar
Ġprev ailing
Ġtext ures
ĠLeaders hip
c orn
ĠC ind
Des pite
am bo
Ġprogress ed
ĠF ut
Ġsp rawling
Ġwith stand
Ġse ating
x ter
Ġspont aneous
E v
Ġa isle
Ġun ins
ĠSch ol
ĠDavid son
oss ip
m ot
Ġpione er
ĠBar cl
reg ulation
ĠDw ight
TH E
Ġslog ans
Ġtest ament
aid a
Ġbi om
Ġmotiv ations
ĠHuck abee
Ġimag inary
Ġbe verage
Ġpack et
Ġev id
Ġmod s
ĠAdmir al
Ġsil icon
È Ľ
ar ray
3 60
OR N
aj a
Ġoptim ization
Ġpe aks
e ight
sm ith
Con nor
Ã ¦
Ġvib e
Ġgrand parents
ak o
ent on
cept ive
ĠAz ure
Ġcancell ation
e a
ĠWorld s
Ġescal ation
Ġdiss atisf
Ġparent ing
ĠR ough
ish i
Ġmar itime
Ġtsun ami
Ġce ased
Ġc av
Ġvis ions
z ero
Ġvan ished
rec ogn
ĠExt reme
gress ive
bur se
k t
cl air
Ġenerget ic
Ġassist ing
Ġk idding
Ġwor m
Ġg a
ac iÃ³n
Ġpenet ration
ĠUnder standing
ĠWe aver
Ġbl onde
ĠAm azing
Ġstat utory
ĠSche dule
Ġsin ister
ag ent
Ġimp over
ĠJagu ars
N I
ut z
Ġw izard
Ġun for
Ġjud gments
Ġunder mined
ear th
ĠV II
ĠSaskat chewan
Ġle isure
ĠK anye
Ġreject s
; ;
Ġc affeine
Ġwheel chair
st en
ĠFil ms
ĠG U
st re
Ġarbit ration
Ġvers a
ĠBlack s
ĠD ru
ĠFam ilies
ĠRom a
Ġw aving
Ġgun shot
T F
Ġlaund ry
ĠSt orage
ĠAfric ans
Ġrum ours
Ġlos ers
link ed
ĠAg es
oc ese
ĠX en
Ġsat ir
Ġimpress ions
L ine
ĠV iv
Ġsn ipp
ord ered
Ġto re
Ġincons ist
pat rick
Ġbroadcast s
ĠMax well
ĠMar qu
un c
Ġcon quer
ĠSh ap
Ġn ause
est ablished
Ġor thodox
Ġstr anded
ĠB od
Ġinsist ence
av ier
cl ose
Ġbal ances
Ġswing ing
ĠP arent
ĠKath leen
mans hip
Ġover r
Ġfil ings
ĠSpring field
Ok ay
Ġun available
vis ors
M R
ra its
ĠI X
ĠMar tha
ĠK abul
Ġpossess es
x imately
get own
B uy
Ġtrig gering
Ġsacrific es
ess ment
ĠÎ ±
Ġprop s
ĠK nown
Ġgate way
Ġarm ored
ĠR d
ĠMah ar
Ġproced ural
Ġpir ate
ĠWik ileaks
iv ities
Ġrehe ars
ĠW ords
ĠAct ivity
ut able
Ġdrunk en
Ġlive lihood
ĠC red
ĠO H
Ġmat urity
ĠCorpor ate
Ġdom est
ĠK un
ĠY ORK
ib a
ĠT A
Ġstandard ized
Ġguess ed
app a
Ġde ception
Ġexc luding
ĠAr ray
Ġsid eline
al ie
at ts
c ritical
ne xt
ĠP BS
C BC
Ġobject ed
ĠSc alia
y ll
Ġgener ators
C BS
Ġcub ic
Apr il
G G
Ġrespect able
uck ing
ĠV oting
Ġstress ful
ib o
Ġretain ing
j ad
Ġdisc arded
M ike
ĠL ar
ĠEm my
Re g
ĠAr ri
ĠF AA
ĠRos a
uss y
Ġg ast
N ational
Ġutil izing
d rive
ĠC hes
ĠBulgar ia
acc ount
Ġche ering
ble ms
Ġpump ed
Ġcirc uits
ov able
ĠCha os
in av
ĠIran ians
ĠMc F
U B
ĠLiber ation
Ġcomp ute
ĠEx it
Ġrestrict ing
h ift
Ġastron omers
ĠSecond ly
o in
ĠRe e
6 50
ĠW ins
Ġlik ing
Ġwand ering
f orth
Ġdownt urn
' ;
Ġc raz
Ġtermin ated
ĠN em
Ġ" ...
Ġconf ession
et ing
Ġelev ation
Ġthink ers
99 9
Ġass im
r ase
ĠY ug
ir rel
Ġres umed
Ġtransfer ring
K it
ĠC ave
Ġaut obi
ĠB olt
Ġfear ful
Ġd ental
ĠÃ® n
in formed
are th
Ġrespir atory
il ot
reat h
Ġmagn ificent
m aid
Ġmon st
ĠPh antom
Â Ĥ
Ġhe fty
app le
Ġdr ank
Ġ195 1
ier i
Ġbur dens
fashion ed
Ġ/ >
t ri
Ġt an
Ġcos m
ĠSh am
AR S
Ġcl icks
Ġob solete
ys ics
Ġrou ter
ĠP ush
Ġadm issions
Ġtur f
ĠEd en
Ġjihad ist
ĠH outh
Ġcondem ning
ve z
Ġl ays
AF TA
ç ļ
Ġtro lls
l oss
ĠCle mson
Ġban ana
Ġtele communications
Ġdem ographics
Ġtheat rical
Ġtempt ed
Ġpun ches
ĠD ob
Ġinto x
Ġstim ulate
onge vity
Ġdiff ers
Ġcor ro
ĠJenn ings
g ic
Ġmut ually
c ool
Ġreserv ation
Ġb olt
ĠRom ans
Ġfun nel
ĠFl ip
ĠG S
ocaly ptic
ĠG n
ĠAntar ctica
ĠL ap
Ġad here
Ġpresum ed
ĠG rav
Ġwarm th
ĠF ol
N R
Ġori ented
ĠL one
Ġl ord
ĠV IP
it imate
ĠProt ocol
ĠA ston
p osition
ĠCroat ia
Ġ" "
Ġsmok ers
ĠM Hz
Ġoverd ose
Ġrev ol
Ġdisgr ace
p ent
Ġsky rock
Ġearthqu akes
arr ison
Ġconsult ants
ĠPract ice
ilib rium
ĠWitness es
ĠA uckland
Ġspec ulative
Ġosc ill
Ġa ided
dig it
Ġpromin ence
Ġre written
ĠLe go
ows hip
ĠGu er
Ġexerc ising
ay ette
ĠR anger
ĠCon cept
Ġer osion
Ġhur ry
Ġguitar ist
ĠE ar
lu ent
feed ing
el in
ĠCare er
rap hic
Ġl en
Ġpip elines
Ġâ Ĺ
Ġjoint ly
g ot
Ġth ieves
ĠA way
Ġprec inct
Ġunfair ly
ĠTam il
ĠF est
ĠLe vin
Ġsem if
ĠT ate
ang ling
Ġmelt down
Ġrec ap
inn amon
l aughter
ĠD ion
ĠAlex is
ĠB ie
Ġac oustic
Ġrel iably
Ġend urance
fig ure
Ġentit lement
Ġnostal gia
ĠF I
Ġext r
Ġexp ands
Ġostens ibly
Ġe up
ip es
b t
Ġmel ted
R Y
ĠTrad itional
Ġsc outs
Ġrig ged
Ġres ett
ĠS ax
ĠRob ot
Ġgrad uating
Ġprov oked
Ġdisrupt ed
à ´
Ġdatas et
Ġc apped
Ġfold ed
l is
Ġovert urn
ĠShe ff
Ġprop het
ĠP ix
ĠCar n
Ġharm less
ĠOri oles
not hing
state ment
C ode
w ig
Ġout ward
ĠBund es
Ġfasc ism
ur ations
Ġrot ate
Ġal phabet
ĠV augh
Ġt sp
Ġmon keys
o i
Ġbureaucrat ic
Ġundert ake
Tex as
Ġbar bar
Ġlegal ized
Ġbull pen
Ġe in
Ġdep icts
Ġcan cers
Ġcur ves
Ġt ones
ĠB alk
Ġdeb ating
p ine
Ġant iqu
Ġcollabor ate
Ġab using
R ob
Ġviol ently
ĠCele br
Ġd as
ĠM uk
ex e
H ave
Ġling ering
let ion
Ġa ce
Ġinsult s
Ġt ying
uc ing
Ġb ids
Ġsh aft
Ġar rows
ĠEss entially
ĠL ah
Ġsc aled
Ġwid ow
Ġgentle man
ĠO le
Ġmarket ed
Ġsal vation
F K
l ar
Ġsho ppers
ĠI MA
Ġbet s
Ġsepar ating
Ġy en
c hens
Ġth igh
ĠS ketch
Ġs ands
. âĢĶ
Ġfil tering
Ġun used
our ced
ĠPTS D
ĠWeap ons
ĠCh ocolate
Ġbit ch
P ublic
Ġpol es
Ġcum ulative
ĠCh rys
Ġsoc ks
Ġpar ody
r ans
ĠIP CC
pos itive
Ġing en
Ġundert aking
ĠV ari
) âĢĶ
= '
25 5
Ġconf inement
Ġre im
[...]
