{"<|endoftext|>":0,"!":1,"\"":2,"#":3,"$":4,"%":5,"&":6,"'":7,"(":8,")":9,"*":10,"+":11,",":12,"-":13,".":14,"/":15,"0":16,"1":17,"2":18,"3":19,"4":20,"5":21,"6":22,"7":23,"8":24,"9":25,":":26,";":27,"<":28,"=":29,">":30,"?":31,"@":32,"A":33,"B":34,"C":35,"D":36,"E":37,"F":38,"G":39,"H":40,"I":41,"J":42,"K":43,"L":44,"M":45,"N":46,"O":47,"P":48,"Q":49,"R":50,"S":51,"T":52,"U":53,"V":54,"W":55,"X":56,"Y":57,"Z":58,"[":59,"\\":60,"]":61,"^":62,"_":63,"`":64,"a":65,"b":66,"c":67,"d":68,"e":69,"f":70,"g":71,"h":72,"i":73,"j":74,"k":75,"l":76,"m":77,"n":78,"o":79,"p":80,"q":81,"r":82,"s":83,"t":84,"u":85,"v":86,"w":87,"x":88,"y":89,"z":90,"{":91,"|":92,"}":93,"~":94,"¡":95,"¢":96,"£":97,"¤":98,"¥":99,"¦":100,"§":101,"¨":102,"©":103,"ª":104,"«":105,"¬":106,"®":107,"¯":108,"°":109,"±":110,"²":111,"³":112,"´":113,"µ":114,"¶":115,"·":116,"¸":117,"¹":118,"º":119,"»":120,"¼":121,"½":122,"¾":123,"¿":124,"À":125,"Á":126,"Â":127,"Ã":128,"Ä":129,"Å":130,"Æ":131,"Ç":132,"È":133,"É":134,"Ê":135,"Ë":136,"Ì":137,"Í":138,"Î":139,"Ï":140,"Ð":141,"Ñ":142,"Ò":143,"Ó":144,"Ô":145,"Õ":146,"Ö":147,"×":148,"Ø":149,"Ù":150,"Ú":151,"Û":152,"Ü":153,"Ý":154,"Þ":155,"ß":156,"à":157,"á":158,"â":159,"ã":160,"ä":161,"å":162,"æ":163,"ç":164,"è":165,"é":166,"ê":167,"ë":168,"ì":169,"í":170,"î":171,"ï":172,"ð":173,"ñ":174,"ò":175,"ó":176,"ô":177,"õ":178,"ö":179,"÷":180,"ø":181,"ù":182,"ú":183,"û":184,"ü":185,"ý":186,"þ":187,"ÿ":188,"Ā":189,"ā":190,"Ă":191,"ă":192,"Ą":193,"ą":194,"Ć":195,"ć":196,"Ĉ":197,"ĉ":198,"Ċ":199,"ċ":200,"Č":201,"č":202,"Ď":203,"ď":204,"Đ":205,"đ":206,"Ē":207,"ē":208,"Ĕ":209,"ĕ":210,"Ė":211,"ė":212,"Ę":213,"ę":214,"Ě":215,"ě":216,"Ĝ":217,"ĝ":218,"Ğ":219,"ğ":220,"Ġ":221,"ġ":222,"Ģ":223,"ģ":224,"Ĥ":225,"ĥ":226,"Ħ":227,"ħ":228,"Ĩ":229,"ĩ":230,"Ī":231,"ī":232,"Ĭ":233,"ĭ":234,"Į":235,"į":236,"İ":237,"ı":238,"Ĳ":239,"ĳ":240,"Ĵ":241,"ĵ":242,"Ķ":243,"ķ":244,"ĸ":245,"Ĺ":246,"ĺ":247,"Ļ":248,"ļ":249,"Ľ":250,"ľ":251,"Ŀ":252,"ŀ":253,"Ł":254,"ł":255,"Ń":256,"Ġt":257,"Ġa":258,"he":259,"in":260,"re":261,"Ġthe":262,"on":263,"er":264,"Ġs":265,"Ġw":266,"at":267,"Ġo":268,"en":269,"Ġc":270,"it":271,"is":272,"an":273,"or":274,"Ġb":275,"es":276,"ed":277,"Ġf":278,"ing":279,"Ġp":280,"ou":281,"Ġan":282,"al":283,"Ġto":284,"ar":285,"Ġm":286,"Ġin":287,"Ġof":288,"ĊĠ":289,"Ġh":290,"Ġd":291,"ĊĠĊ":292,"âĢ":293,"as":294,"ic":295,"Ġand":296,"Ġth":297,"le":298,"om":299,"ion":300,"ll":301,"ent":302,"Ġn":303,"ĠT":304,"Ġl":305,"Ġre":306,"st":307,"ve":308,"Ġe":309,"ly":310,"ro":311,"Ġbe":312,"Ġg":313,"id":314,"ĠI":315,"ut":316,"ac":317,"ot":318,"ĠS":319,"ĠA":320,"Ġthat":321,"Ġon":322,"ay":323,"Ġis":324,"et":325,"im":326,"am":327,"ad":328,"ow":329,"se":330,"ig":331,"Ġfor":332,"âĢĻ":333,"ĠC":334,"ver":335,"ur":336,"ct":337,"ld":338,"Ġu":339,"Ġst":340,"Ġy":341,"ĠM":342,"Ġit":343,"Ġhe":344,"ir":345,"ation":346,"ith":347,"ĠB":348,"Ġwh":349,"ce":350,"ter":351,"ĠThe":352,"ol":353,"Ġwe":354,"ĠâĢ":355,"il":356,"Ġwith":357,"Ġas":358,"ĠP":359,"ch":360,"ill":361,"nd":362,"ĠW":363,"Ġwas":364,"Ġyou":365,"ers":366,"ke":367,"ĠH":368,"Ġcon":369,"Ġde":370,"Ġr":371,"if":372,"her":373,"ĠD":374,"ate":375,"Ġat":376,"ag":377,"ĠR":378,"Ġha":379,"Ġse":380,"ĠF":381,"Ġ1":382,"ore":383,"Ġpro":384,"ul":385,"pp":386,"ment":387,"ri":388,"Ġare":389,"est":390,"us":391,"ist":392,"Ġcom":393,"Ġ2":394,"and":395,"op":396,"ain":397,"Ġ(":398,"ĠN":399,"igh":400,"rom":401,"ort":402,"od":403,"Ġne":404,"un":405,"um":406,"Ġex":407,"ĠâĢľ":408,"ĠG":409,"res":410,"ab":411,"âĢĿ":412,"Ġnot":413,"Ġv":414,"ĠL":415,"ess":416,"Ġhave":417,"ity":418,"ould":419,"em":420,"Ġor":421,"th":422,"Ġby":423,"os":424,"ant":425,"ive":426,"Ġfrom":427,"Ġal":428,"el":429,"ĠE":430,"'s":431,"oc":432,"Ġsu":433,"art":434,"Ġsh":435,"Ġthis":436,"nt":437,"ĠO":438,"qu":439,"ight":440,"pe":441,"ust":442,"Ġ\"":443,"Ġle":444,"ies":445,"ĠJ":446,"end":447,"Ġch":448,"Ġsa":449,"out":450,"Ġab":451,"all":452,"ie":453,"ack":454,"00":455,"red":456,"Ġhas":457,"ally":458,"Ġpl":459,"Ġgo":460,"ard":461,"iv":462,"Ġhis":463,"ome":464,"ap":465,"gh":466,"ost":467,"ear":468,"Ġtr":469,"our":470,"ast":471,"Ġj":472,"ak":473,"ud":474,"ĠU":475,"Ġdo":476,"Ġthey":477,"Ġbut":478,"Ġwor":479,"rou":480,"Ġcan":481,"ge":482,"Ġwill":483,"Ġwhe":484,"Ġsaid":485,"Ġk":486,"ich":487,"Ġall":488,"ok":489,"Ġwho":490,"ide":491,"Ġint":492,"ame":493,"ans":494,"ther":495,"ial":496,"Ġout":497,"Ġtheir":498,"ff":499,"ĠTh":500,"ong":501,"ect":502,"pl":503,"ice":504,"ĠIn":505,"pt":506,"ure":507,"Ġmore":508,"one":509,"age":510,"ions":511,"act":512,"ike":513,"Ġme":514,"Ġup":515,"ous":516,"ine":517,"ĠK":518,"Ġad":519,"Ġabout":520,"ated":521,"ra":522,"ber":523,"Ġone":524,"Ġwere":525,"Ġso":526,"Ġus":527,"ime":528,"og":529,"ep":530,"ĠSt":531,"Ġhad":532,"Ġ20":533,"ia":534,"are":535,"ub":536,"cc":537,"Ġwould":538,"Ġcl":539,"Ġim":540,"Ġwhich":541,"ind":542,"ake":543,"ue":544,"Ġcont":545,"iz":546,"very":547,"Ġag":548,"Ġte":549,"Ġoff":550,"Ġcomp":551,"Ġun":552,"Ġbeen":553,"Ġen":554,"so":555,"per":556,"au":557,"ign":558,"ary":559,"ace":560,"ip":561,"Ġyear":562,"ew":563,"Ġlike":564,"ere":565,"ven":566,"ook":567,"Ġinc":568,"ays":569,"Ġman":570,"Ġpe":571,"ĠIt":572,"ry":573,"ose":574,"Ġres":575,"Ġper":576,"ite":577,"able":578,"ass":579,"ĊĠĊĠ":580,"ord":581,"Ġsp":582,"ire":583,"Ġother":584,"mer":585,"ĠY":586,"Ġ201":587,"Ġsome":588,"ile":589,"ib":590,"ence":591,"ople":592,"ks":593,"ations":594,"Ġover":595,"Ġthere":596,"ical":597,"Ġdis":598,"ress":599,"ult":600,"int":601,"ĠCh":602,"Ġnew":603,"own":604,"Ġthan":605,"Ġalso":606,"Ġar":607,"Ġbec":608,"Ġthem":609,"ance":610,"ru":611,"ough":612,"ount":613,"Ġapp":614,"port":615,"Ġyour":616,"ail":617,"Ġpart":618,"Ġwhen":619,"Ġwhat":620,"ĠV":621,"ree":622,"ond":623,"orm":624,"Ġpeople":625,"Ġsc":626,"fter":627,"Ġ3":628,"Ġqu":629,"ase":630,"av":631,"Ġany":632,"Ġjust":633,"Ġits":634,"ach":635,"Ġtime":636,"Ġkn":637,"Ġher":638,"Ġmy":639,"ens":640,"Ġrec":641,"lic":642,"Ġif":643,"ĠHe":644,"Ġget":645,"reat":646,"Ġ-":647,".âĢĿ":648,"ian":649,"Ġinto":650,"Ġwork":651,"ound":652,"Ġtw":653,"irst":654,"vel":655,"Ġno":656,"ction":657,"du":658,"ings":659,"ory":660,"ick":661,"Ġour":662,"ition":663,"ident":664,"ors":665,"ob":666,"Ġpre":667,"ove":668,"ang":669,"Ġplay":670,"ink":671,"wn":672,"ause":673,"amp":674,"ade":675,"hing":676,"itt":677,"ates":678,"ark":679,"Ġro":680,"Ġshe":681,"Ġpol":682,"vers":683,"Ġ19":684,"Ġco":685,"Ġafter":686,",âĢĿ":687,"ne":688,"Ġcould":689,"Ġfirst":690,"Ġhow":691,"ious":692,"Ġacc":693,"nder":694,"Ġhim":695,"'t":696,"ild":697,"aw":698,"ons":699,"Ġpo":700,"Ġonly":701,"Ġfe":702,"Ġatt":703,"ĠWe":704,"ict":705,"hed":706,"ĠBut":707,"Ġpr":708,"Ġtwo":709,"ov":710,"ish":711,"Ġcomm":712,"Ġspe":713,"form":714,"Ġact":715,"we":716,"erv":717,"Ġbl":718,"ft":719,"Ġbet":720,"Ġdec":721,"ĠWh":722,".\"":723,"Ġ4":724,"ning":725,"Ġback":726,"ĠThis":727,"ĠâĢĵ":728,"te":729,"ces":730,"Ġmost":731,"ĠAnd":732,"ood":733,"ck":734,"ĊĠĊĠĊĠĊ":735,"Ġam":736,"oy":737,"Ġdid":738,"iff":739,"rough":740,"round":741,"ater":742,"Ġagain":743,"ĠâĢĶ":744,"ual":745,"day":746,"ise":747,"Ġwant":748,"Ġdes":749,"Ġunder":750,"..":751,"Ġ$":752,"sel":753,"ull":754,"Ġcons":755,"Ġbecause":756,"rit":757,"Ġnow":758,"lud":759,"ents":760,"Ġyears":761,"man":762,"Ġ5":763,"ublic":764,"Ġneed":765,"tern":766,"ec":767,"Ġeven":768,"iss":769,"Ġinv":770,"Ġknow":771,"ĠUn":772,"Ġsee":773,"ments":774,"Ġadd":775,"ĠAs":776,",\"":777,"ced":778,"old":779,"Ġind":780,"Ġsec":781,"Ġ[":782,"fore":783,"The":784,"Ġevery":785,"uch":786,"urn":787,"Ġmake":788,"Ġsupp":789,"pect":790,"Ġem":791,"ock":792,"Ġthese":793,"ĠTr":794,"oll":795,"Ġwhere":796,"ject":797,"xt":798,"ational":799,"vern":800,"Ġbu":801,"Ġlook":802,"oss":803,"Ġdon":804,"Ġev":805,"ump":806,"Ġway":807,"ating":808,"Ġright":809,"Ġbeing":810,"Ġrem":811,"ily":812,"ng":813,"Ġmay":814,"Ġthen":815,"lect":816,"row":817,"Ġmany":818,"iew":819,"Ġdiff":820,"Ġdef":821,"Ġrel":822,"ont":823,"ason":824,"Ġcall":825,"Ġthink":826,"ied":827,"Ġinclud":828,"ased":829,"les":830,"aking":831,"meric":832,"Ġreg":833,"Ġimp":834,").":835,"Ġthrough":836,"rib":837,"ath":838,"ited":839,"Ġshould":840,"Ġsy":841,"Ġsay":842,"Ġfl":843,"Ġpres":844,"Ġlast":845,"uring":846,"Ġvery":847,"Ġthose":848,"ower":849,"other":850,"Ġmuch":851,"ific":852,"ities":853,"Ġstate":854,"Ġbr":855,"ative":856,"Ġshow":857,"hen":858,"ty":859,"ĠRe":860,"arg":861,"ell":862,"Ġwell":863,"oth":864,"Ġ200":865,"Ġph":866,"ĠNew":867,"Ġcount":868,"Ġdoes":869,"als":870,"und":871,"ting":872,"Ġend":873,"Ġown":874,"Ġdown":875,"ics":876,"arly":877,"Ġbel":878,"Ġuse":879,"ĠAmeric":880,"Ġass":881,"ange":882,"Ġlong":883,"ters":884,"ince":885,"Ġbefore":886,"--":887,"omet":888,"gr":889,"ward":890,"Ġmon":891,"Ġgovern":892,"ible":893,"Ġstart":894,"Ġreport":895,"Ġke":896,"up":897,"ues":898,"ts":899,"Ġfin":900,"Ġteam":901,"Ġ6":902,"ble":903,"Ġmade":904,"ife":905,"olog":906,"),":907,"ener":908,"Ġsuch":909,"ĠAl":910,"ren":911,"oun":912,"ix":913,"erson":914,"com":915,"Ġsm":916,"Ġgoing":917,"ility":918,"ism":919,"Ġworld":920,"ful":921,"ek":922,"Ġhel":923,"ĠYou":924,"ually":925,"ists":926,"Ġstud":927,"Ġgood":928,"Ġac":929,"tain":930,"Ġsub":931,"Ġeff":932,"Ġsur":933,"Ġagainst":934,"Ġset":935,"Ġgame":936,"ys":937,"its":938,"ork":939,"Ġgu":940,"Ġpoint":941,"Ġent":942,"ars":943,"âĢĶ":944,"gan":945,"stem":946,"000":947,"ier":948,"Ġprov":949,"Ġstill":950,"ĠIf":951,"roup":952,"Ġwhile":953,"Ġhelp":954,"illion":955,"Ġlead":956,"Ġmin":957,"ween":958,"ax":959,"ank":960,"Ġob":961,"alk":962,"ms":963,"imes":964,"Ġsays":965,"cy":966,"Ġgr":967,"Ġprodu":968,"Ġinst":969,"Ġinter":970,"Ġstr":971,"io":972,"cess":973,"Ġsim":974,"Ġconf":975,"self":976,"Ġcol":977,"Ġtake":978,"Ġsame":979,"ures":980,"Ġthough":981,"arch":982,"Ġbetween":983,"Ġcr":984,"Ġdiffere":985,"ĠAr":986,"ollow":987,"Ġoffic":988,"ĠFor":989,"uss":990,"ool":991,"Ġdisc":992,"ever":993,"hes":994,"land":995,"ah":996,"ution":997,"Ġop":998,"Ġed":999,"air":1000,"Ġhigh":1001,"read":1002,"ĠDe":1003,"Ġnum":1004,"Ġsign":1005,"Ġlaw":1006,"way":1007,"gg":1008,"Ġgovernment":1009,"ner":1010,"Ġ10":1011,"led":1012,"hip":1013,"ros":1014,"ĠThey":1015,"ames":1016,"atch":1017,"ĠAn":1018,"Ġ7":1019,"any":1020,"ĠLe":1021,"cent":1022,"Ġter":1023,"Ġsomet":1024,"ĠCom":1025,"Ġref":1026,"velop":1027,"Ġtrans":1028,"Ġins":1029,"Ġrun":1030,"Ġser":1031,"ĠSh":1032,"ĠIs":1033,"Ġfound":1034,"Ġhere":1035,"Ġaround":1036,"ives":1037,"Ġthree":1038,"Ġmem":1039,"Ġmed":1040,"ather":1041,"ave":1042,"Ġreal":1043,"ouse":1044,"Ġused":1045,"Ġexp":1046,"ved":1047,"ĠTrump":1048,"az":1049,"cept":1050,"oot":1051,"Ġsystem":1052,"ĠSe":1053,"Ġreally":1054,"ving":1055,"Ġmod":1056,"Ġsupport":1057,"ci":1058,"Ġgroup":1059,"cer":1060,"Ġcour":1061,"con":1062,"ĠThat":1063,"ets":1064,"ale":1065,"ĠCl":1066,"ins":1067,"Ġpublic":1068,"Ġret":1069,"Ġhand":1070,"Ġspec":1071,"ph":1072,"ying":1073,"Ġgreat":1074,"pr":1075,"ense":1076,"Ġsl":1077,"Ġext":1078,"ĠThere":1079,"Ġcar":1080,"Ġ8":1081,"Ġcur":1082,"Ġfam":1083,"irect":1084,"alth":1085,"ton":1086,".[":1087,"Ġhapp":1088,"Ġwom":1089,"Ġfact":1090,"Ġfr":1091,"Ġexper":1092,"Ġ0":1093,"Ġcap":1094,"Ġboth":1095,"Ġfind":1096,"Ġday":1097,"Ġread":1098,"ular":1099,"ines":1100,"Ġrep":1101,"oh":1102,"Ġdet":1103,"Ġ'":1104,"uth":1105,"ices":1106,"ered":1107,"Ġduring":1108,"Ġcre":1109,"Ġbig":1110,"min":1111,"Ġmonth":1112,"Ġserv":1113,"ision":1114,"Ġdevelop":1115,"akes":1116,"Ġ9":1117,"Ġperson":1118,"ivers":1119,"ĠSo":1120,"Ġfollow":1121,"Ġiss":1122,"Ġtold":1123,"Ġsince":1124,"ically":1125,"ared":1126,"ages":1127,"Ġweek":1128,"att":1129,"med":1130,"Ġwar":1131,"Ġfew":1132,"ĠOn":1133,"Ġcent":1134,"orth":1135,"ording":1136,"Ġleg":1137,"Ġpolit":1138,"ĠAd":1139,"aj":1140,"ef":1141,"get":1142,"ves":1143,"ash":1144,"Ġexpl":1145,"Ġlot":1146,"Ġbelie":1147,"Ġgener":1148,"ĠFr":1149,"Ġtoo":1150,"Ġopp":1151,"ric":1152,"der":1153,"rent":1154,"ata":1155,"anc":1156,"iet":1157,"Ġcontin":1158,"Ġrequ":1159,"Ġprot":1160,"Ġfil":1161,"ex":1162,"bers":1163,"ĠPro":1164,"ĠAt":1165,"Ġput":1166,"ention":1167,"ness":1168,"Ġcle":1169,"Ġresp":1170,"ized":1171,"Ġanother":1172,"Ġinf":1173,"Ġsomething":1174,"chool":1175,"ĠâĢĺ":1176,"ĠHow":1177,"Ġdifferent":1178,"Ġcor":1179,"Ġloc":1180,"ute":1181,"Ġinvest":1182,"Ġsoc":1183,"Ġ.":1184,"uc":1185,"Ġpower":1186,"Ġcommun":1187,"Ġart":1188,"Ġpass":1189,"Ġplan":1190,"Ġlife":1191,"the":1192,"Ġhead":1193,"ience":1194,"Ġthings":1195,"ik":1196,"ody":1197,"Ġrele":1198,"Ġfar":1199,"ned":1200,"thing":1201,"Ġmet":1202,"arl":1203,"Ġposs":1204,"Ġvot":1205,"Ġche":1206,"ross":1207,"erest":1208,"Ġcamp":1209,"Ġbo":1210,"arge":1211,"Ġmight":1212,"ants":1213,"Ġask":1214,"view":1215,"Ġdep":1216,"ize":1217,"Ġeach":1218,"ient":1219,"iness":1220,"ret":1221,"ĠRep":1222,"Ġnever":1223,"Ġchild":1224,"Ġnext":1225,"ield":1226,"Ġsecond":1227,"Ġquest":1228,"ĠUS":1229,"Ġadv":1230,"Ġmark":1231,"Ġbus":1232,"Ġdem":1233,"Ġcome":1234,"Ġgot":1235,"Ġbest":1236,"Ġopen":1237,"Ġallow":1238,"ĠBl":1239,"ital":1240,"ee":1241,"ittle":1242,"son":1243,"Ġseem":1244,"20":1245,"Ġpost":1246,"Ġfeel":1247,"ple":1248,"Ġpercent":1249,"Ġpri":1250,"cl":1251,"gram":1252,"ug":1253,"Ġhome":1254,"ten":1255,"Ġdirect":1256,"rat":1257,"Ġdist":1258,"Ġwr":1259,"ired":1260,"Ġincre":1261,"Ġcontro":1262,"orn":1263,"osed":1264,"Ġresult":1265,"Ġhard":1266,"Ġimport":1267,"Ġcare":1268,"Ġcomple":1269,"ately":1270,"less":1271,"Ġplace":1272,"Ġwithout":1273,"Ġav":1274,"Ġmillion":1275,"Ġincluding":1276,"chn":1277,"Ġinform":1278,"Ġhum":1279,"conom":1280,"ĠInd":1281,"ĠShe":1282,"Ġide":1283,"Ġproble":1284,"ama":1285,"Ġtop":1286,"Ġbuild":1287,"Ġnumber":1288,"gy":1289,"ĠZ":1290,"aim":1291,"Ġcountry":1292,"oney":1293,"Ġgl":1294,"Ġstand":1295,"ably":1296,"ral":1297,"Ġel":1298,"co":1299,"riend":1300,"ished":1301,"Ġfour":1302,"We":1303,"Ġlet":1304,"Ġbetter":1305,"Ġpartic":1306,"ways":1307,"Ġrecent":1308,"Ġtri":1309,"Ġmov":1310,"Ġinterest":1311,"ration":1312,"Ġless":1313,"Ġturn":1314,"Ġlittle":1315,"Ġseason":1316,"Ġappro":1317,"ĠQ":1318,"Ġbeh":1319,"Ġbro":1320,"line":1321,"Ġcalled":1322,"Ġmil":1323,"ract":1324,"Ġcase":1325,"ised":1326,"ĠWhen":1327,"ĠBe":1328,"Ġdr":1329,"app":1330,"ĠPh":1331,"Ġattack":1332,"Ġrest":1333,"Ġpop":1334,"ency":1335,"Ġann":1336,"Ġleft":1337,"Ġmove":1338,"ling":1339,"Ġkeep":1340,"ode":1341,"Ġfun":1342,"Ġdidn":1343,"Ġfull":1344,"ina":1345,"leg":1346,"ering":1347,"Ġmain":1348,"ajor":1349,"inal":1350,"ted":1351,"Ġprev":1352,"Ġtest":1353,"Ġeffect":1354,"uro":1355,"Ġusing":1356,"Ġprogram":1357,"me":1358,"ature":1359,"Ġval":1360,"Ġpay":1361,"ĠWhat":1362,"ĠAmerican":1363,"__":1364,"be":1365,"Ġpolice":1366,"Ġform":1367,"Ġeconom":1368,"Ġpos":1369,"Ġnews":1370,"Ġdata":1371,"Ġwin":1372,"Ġlevel":1373,"ĠOb":1374,"ains":1375,"Ġchar":1376,"iving":1377,"ined":1378,"ready":1379,"Ġsmall":1380,"uck":1381,"Ġlist":1382,"Ġschool":1383,"to":1384,"ology":1385,"10":1386,"ided":1387,"'re":1388,"ger":1389,"ploy":1390,"Ġeas":1391,"Ġprocess":1392,"It":1393,"Ġwomen":1394,"ird":1395,"nce":1396,"Ġchange":1397,"reen":1398,"ĠGo":1399,"Ġhist":1400,"Ġcurrent":1401,"Ġprom":1402,"ĠUnited":1403,"ians":1404,"Ġrece":1405,"Ġdri":1406,"ĠCan":1407,"Ġcompany":1408,"Ġpresident":1409,"Ġ=":1410,"used":1411,"ohn":1412,"Ġty":1413,"Ġalready":1414,"Ġ--":1415,"iver":1416,"ruct":1417,"ĠChr":1418,"rap":1419,"Ġbre":1420,"Ġwhy":1421,"ĠAll":1422,"Ġunt":1423,"Ġmat":1424,"Ġalways":1425,"Ġsol":1426,"Ġexpect":1427,"Ġmoney":1428,"Ġlater":1429,"Ġclass":1430,"Ġtechn":1431,"Ġbusiness":1432,"Ġbook":1433,"Ġofficial":1434,"stand":1435,"Ġthing":1436,"wit":1437,"Ġproject":1438,"Ġjob":1439,"ĠSp":1440,"ases":1441,"iversity":1442,"Ġclaim":1443,"Ġorgan":1444,"aign":1445,"Ġ18":1446,"Ġ12":1447,"Ġtalk":1448,"Ġinformation":1449,"ards":1450,"aff":1451,"Ġdesign":1452,"Ġprof":1453,"Ġable":1454,"Ġchang":1455,"ead":1456,"...":1457,"Ġmajor":1458,"Ġstory":1459,"iven":1460,"Ġhealth":1461,"lection":1462,"Ġrese":1463,"ertain":1464,"Ġpast":1465,"Ġvis":1466,"urs":1467,"Ġfree":1468,"ption":1469,"outh":1470,"here":1471,"Ġaway":1472,"Ġoper":1473,"ior":1474,"Ġmust":1475,"Ġcity":1476,"ĠMr":1477,"ĠPl":1478,"ural":1479,"ample":1480,"ĠSc":1481,"ĠOne":1482,"Ġhappen":1483,"Ġimportant":1484,"Ġsk":1485,"uthor":1486,"ĠTo":1487,"ĠMar":1488,"urity":1489,"acy":1490,"ĠJohn":1491,"Ġkill":1492,"ury":1493,"Ġold":1494,"ured":1495,"ĠPres":1496,"Ġvar":1497,"Ġdoesn":1498,"ending":1499,"Ġest":1500,"Ġleast":1501,"Ġpat":1502,"Ġgrow":1503,"ission":1504,"Ġ15":1505,"ained":1506,"ĠCon":1507,"Ġedit":1508,"Ġcost":1509,"els":1510,"Ġtell":1511,"Ġmen":1512,"ides":1513,"ider":1514,"ĠBr":1515,"Ġconst":1516,"ott":1517,"tt":1518,"Ġhop":1519,"Ġdays":1520,"ney":1521,"ox":1522,"Ġcame":1523,"Ġstre":1524,"Ġcampaign":1525,"Ġenough":1526,"Ġaff":1527,"Ġview":1528,"Ġkind":1529,"ĠOr":1530,"Ġmaking":1531,"ccess":1532,"ern":1533,"side":1534,"sc":1535,"Ġmar":1536,"Ġlarge":1537,"oad":1538,"Ġfamily":1539,"Ġrecord":1540,"Ġfriend":1541,"ĠComm":1542,"ĠRepublic":1543,"Ġelect":1544,"ush":1545,"Ġtax":1546,"ley":1547,"eral":1548,"Ġpolic":1549,"Ġsit":1550,"âĢ¦":1551,"ality":1552,"ror":1553,"ising":1554,"ator":1555,"pped":1556,"Ġuntil":1557,"Th":1558,"ified":1559,"ional":1560,"Ġvide":1561,"ived":1562,"ĠNo":1563,"Ġpolitical":1564,"ĠMc":1565,"Ġdeal":1566,"arent":1567,"ries":1568,"alf":1569,"augh":1570,"Ġworking":1571,"Ġline":1572,"----":1573,"Ġtook":1574,"ued":1575,"Ġdeb":1576,"Ġve":1577,"aps":1578,"Ġfore":1579,"ĠMay":1580,"bs":1581,"aining":1582,"ĠDem":1583,"ony":1584,"Ġair":1585,"ister":1586,"Ġes":1587,"ane":1588,"Ġdel":1589,"Ġbecome":1590,"Ġactually":1591,"Ġintern":1592,"ocrat":1593,"iol":1594,"Ġmean":1595,"ĠRuss":1596,"by":1597,"ember":1598,"Ġ11":1599,"work":1600,"ĠSy":1601,"Ġfund":1602,"ware":1603,"Ġoften":1604,"ĠEuro":1605,"Ġformer":1606,"Ġgive":1607,"Ġever":1608,"Ġwon":1609,"Ġaccording":1610,"most":1611,"oint":1612,"eng":1613,"ĠPresident":1614,"year":1615,"ann":1616,"Ġgames":1617,"iqu":1618,"Ġreturn":1619,"aring":1620,"Ġhuman":1621,"Ġword":1622,"Ġ,":1623,"Ġbas":1624,"ison":1625,"ization":1626,"Ġorder":1627,"Ġname":1628,"Ġtimes":1629,"gin":1630,"wh":1631,"ĠWith":1632,"ĠAm":1633,"iber":1634,"Ġdev":1635,"Ġ199":1636,"ron":1637,"ither":1638,"Ġbit":1639,"Ġsever":1640,"uture":1641,"icle":1642,"Ġperform":1643,"ĠCol":1644,"ER":1645,"Ġcharac":1646,"raft":1647,"Ġmarket":1648,"Ġsing":1649,"Ġfac":1650,"Ġdoing":1651,"idd":1652,"Ġnight":1653,"Ġra":1654,"Ġappear":1655,"for":1656,"Ġlear":1657,"Ġplayers":1658,"aken":1659,"ched":1660,"Ġla":1661,"iam":1662,"Ġtoday":1663,"Ġhaving":1664,"Ġseen":1665,"Ġearly":1666,"Ġevent":1667,"Ġmedia":1668,"50":1669,"rop":1670,"Ġsocial":1671,"Ġpot":1672,"//":1673,"ĠTe":1674,"sh":1675,"Ġchildren":1676,"Ġwhether":1677,"Ġcrit":1678,"ium":1679,"Ġcontrol":1680,"idence":1681,"Ġseveral":1682,"mber":1683,"Ġmeet":1684,"Ġsure":1685,"Ġpress":1686,"Ġwent":1687,"Ġfive":1688,"iously":1689,"ene":1690,"artment":1691,"Ġprop":1692,"ĠAfter":1693,"Ġyoung":1694,"Ġmilit":1695,"ĠObama":1696,"ories":1697,"Ġequ":1698,"Ġquestion":1699,"let":1700,"Ġlikely":1701,"Ġocc":1702,"ĠYork":1703,"une":1704,"Ġmembers":1705,"ands":1706,"Ġeng":1707,"Ġcertain":1708,"br":1709,"ĠEurope":1710,"Ġwater":1711,"ots":1712,"Ġexample":1713,"enn":1714,"Ġdone":1715,"Ġvers":1716,"Ġarg":1717,"Ġside":1718,"ĠStates":1719,"Ġinvol":1720,"Ġshort":1721,"Ġsuccess":1722,"ended":1723,"Ġ#":1724,"Ġant":1725,"ĠNot":1726,"Ġalong":1727,"vert":1728,"ential":1729,"Ġhour":1730,"11":1731,"ball":1732,"ially":1733,"Ġmonths":1734,"ats":1735,"empt":1736,"ĠEx":1737,"ĠIm":1738,"Ġdesc":1739,"lf":1740,"ubl":1741,"ĠCo":1742,"Ġwithin":1743,"Ġcourse":1744,"ague":1745,"Ġfight":1746,"Ġsex":1747,"uff":1748,"ĠState":1749,"Ġonce":1750,"ster":1751,"Ġamong":1752,"Ġi":1753,"ulation":1754,"imate":1755,"Ġactiv":1756,"urch":1757,"rew":1758,"Ġfuture":1759,"nect":1760,"iting":1761,"Ġinvestig":1762,"Ġ]":1763,"Ġunderstand":1764,"Ġpossible":1765,"ortun":1766,"Ġconcer":1767,"Ġcho":1768,"ones":1769,"Ġmeans":1770,"Ġproblem":1771,"ggest":1772,"Ġauthor":1773,"Ġpriv":1774,"Ġthought":1775,"itive":1776,"Ġviol":1777,"Ġavail":1778,"ourn":1779,"Ġproduct":1780,"ĠHowever":1781,"ivid":1782,"Ġknown":1783,"oci":1784,"Ġnon":1785,"gress":1786,"Ġyet":1787,"Ġhold":1788,"Ġacross":1789,"Ġprotect":1790,"Ġ2016":1791,"Ġlocal":1792,"ald":1793,"19":1794,"Ġcommunity":1795,"Ġwrit":1796,"ĠPol":1797,"ler":1798,"Ġfail":1799,"Ġreason":1800,"Ġ&":1801,"Ġsuggest":1802,"inc":1803,"Ġmakes":1804,"Ġorig":1805,"ĠChrist":1806,"arm":1807,"verage":1808,"por":1809,"ĠHouse":1810,"Ġasked":1811,"not":1812,"book":1813,"orld":1814,"back":1815,"ederal":1816,"Ġ30":1817,"Ġgiven":1818,"aged":1819,"Ġreported":1820,"ensive":1821,"Ġmus":1822,"ĠX":1823,"Ġothers":1824,"Ġstrong":1825,"Ġbelieve":1826,"Ġprob":1827,"Ġvideo":1828,"ĠFl":1829,"Ġgetting":1830,"Ġben":1831,"Ġlight":1832,"ances":1833,"ĠUniversity":1834,"Ġannoun":1835,"ober":1836,"ĠSen":1837,"ĠPr":1838,"ĠMin":1839,"Ġident":1840,"itions":1841,"ored":1842,"Ġca":1843,"Ġsent":1844,"Ġcut":1845,"Ġlim":1846,"iron":1847,"iety":1848,"ĠWhile":1849,"ĠDemocrat":1850,"lement":1851,"Ġcond":1852,"my":1853,"Ġsour":1854,"urther":1855,"Ġcreat":1856,"Ġ2015":1857,"ĠÂ":1858,"ashing":1859,"'ve":1860,"Ġnet":1861,"ĠCent":1862,"ĠDon":1863,"Ġnational":1864,"Ġ16":1865,"rest":1866,"Ġstarted":1867,"Ġsaf":1868,"Ġclose":1869,"30":1870,"Ġland":1871,"Ġavailable":1872,"Ġdeath":1873,"aster":1874,"Ġhig":1875,".,":1876,"Ġindust":1877,"Ġpar":1878,"Ġbased":1879,"Ġissue":1880,"Ġlove":1881,"Ġlow":1882,"Ġaccount":1883,"Ġfollowing":1884,"Ġhistory":1885,"Ġmom":1886,"Ġemploy":1887,"use":1888,"selves":1889,"Ġago":1890,"ĠAmerica":1891,"12":1892,"orts":1893,"ability":1894,"Ġcomes":1895,"Ġtrying":1896,"Ġparty":1897,"ument":1898,"Ġalmost":1899,"Ġseries":1900,"uly":1901,"utes":1902,"Ġtoget":1903,"Ġtogether":1904,"Ġidea":1905,"ĠSec":1906,"ination":1907,"Ġfoc":1908,"of":1909,"hers":1910,"Ġaccess":1911,"ief":1912,"ilar":1913,"reed":1914,"ails":1915,"Ġisn":1916,"itional":1917,"resent":1918,"AT":1919,"Ġclear":1920,"Ġ2014":1921,"Ġadded":1922,"Ġtrad":1923,"Ġpract":1924,"pro":1925,"Ġimpro":1926,"Ġ14":1927,"ĠGr":1928,"erence":1929,"Ġexperience":1930,"though":1931,"Ġfilm":1932,"ĠNe":1933,"Ġhalf":1934,"af":1935,"ĠCanad":1936,"ged":1937,"ream":1938,"ĠBro":1939,"ustom":1940,"Ġrul":1941,"ien":1942,"unch":1943,"Ġlooking":1944,"ring":1945,"Ġsix":1946,"ividual":1947,"ograp":1948,"Ġanything":1949,"rael":1950,"Ġlive":1951,"ĠEng":1952,"rict":1953,"Ġanal":1954,"witter":1955,"eb":1956,"Ġcomplete":1957,"Ġarea":1958,"inton":1959,"erman":1960,"ĠMan":1961,"Ġfav":1962,"minist":1963,"Ġris":1964,"Ġmiss":1965,"Ġpresent":1966,"ai":1967,"Ġsaying":1968,"nes":1969,"ĠSu":1970,"Ġbad":1971,"rug":1972,"raw":1973,"Ġvict":1974,"ert":1975,"cially":1976,"aid":1977,"Ġbill":1978,"ĠNorth":1979,"ows":1980,"Ġ13":1981,"ĠWar":1982,"Ġtaken":1983,"ĠCar":1984,"ps":1985,"uge":1986,"Ġphot":1987,"Ġmor":1988,"Ġcourt":1989,"Ġentire":1990,"Ġtry":1991,"Ġcompet":1992,"ators":1993,"Ġaut":1994,"Ġbehind":1995,"Ġz":1996,"'m":1997,"Ġtre":1998,"Ġ|":1999,"Ġ17":2000,"wards":2001,"Ġer":2002,"play":2003,"Ġnear":2004,"ĠNow":2005,"Ġmult":2006,"osp":2007,"Ġface":2008,"Ġsecurity":2009,"Ġmilitary":2010,"ĠBar":2011,"Ġproper":2012,"ĠAf":2013,"âĢĵ":2014,"Ġ:":2015,"Ġdiscuss":2016,"ĠDep":2017,"IN":2018,"Ġ/":2019,"Ġrather":2020,"Ġtot":2021,"Ġindividual":2022,"Ġthreat":2023,"Ġsingle":2024,"Ġstudy":2025,"ĠJust":2026,"ĠBrit":2027,"Ġmind":2028,"15":2029,"Ġquick":2030,"Ġpubl":2031,"ĠAb":2032,"ĠCal":2033,"atic":2034,"Ġwanted":2035,"Ġfall":2036,"irc":2037,"Ġmess":2038,"aper":2039,"ĠInst":2040,"Ġpolicy":2041,"ĠNational":2042,"ales":2043,"Ġsomeone":2044,"ĠHis":2045,"ĠClinton":2046,"ĠRes":2047,"lling":2048,"ids":2049,"Ġfood":2050,"Ġsum":2051,"ĠIsrael":2052,"ĠApp":2053,"Ġblack":2054,"ĠEd":2055,"par":2056,"Ġcult":2057,"off":2058,"Ġspecial":2059,"Ġredu":2060,"ĠHar":2061,"Ġbring":2062,"Ġplayer":2063,"Ġkey":2064,"Ġcomb":2065,"ply":2066,"Ġattempt":2067,"Ġcompan":2068,"ĠThese":2069,"ĠWorld":2070,"ON":2071,"sy":2072,"ĠAust":2073,"ĠCity":2074,"Ġtaking":2075,"ĠDav":2076,"ĠMy":2077,"Ġpret":2078,"ify":2079,"Ġfoot":2080,"ĠMe":2081,"**":2082,"Ġelse":2083,"ĠSome":2084,"olution":2085,"elt":2086,"viron":2087,"Ġbody":2088,"Ġfront":2089,"Ġspace":2090,"Ġprobably":2091,"Ġnothing":2092,"ches":2093,"ashington":2094,"://":2095,"Ġcou":2096,"rote":2097,"icult":2098,"ĠGe":2099,"Ġjo":2100,"go":2101,"Ġresearch":2102,".)":2103,"Ġconnect":2104,"Ġsw":2105,"Ġcoming":2106,"ĠGu":2107,"ĠPart":2108,"amed":2109,"ming":2110,"Ġpoints":2111,"Ġhowever":2112,"Ġdescrib":2113,"hy":2114,"Ġear":2115,"ault":2116,"cing":2117,"Ġsimilar":2118,"reme":2119,"Ġbenef":2120,"ĊĠĊĠĊĠĊĠĊĠĊ":2121,"Ġeither":2122,"Ġsignific":2123,"ĠBy":2124,"ĠJan":2125,"Ġcoun":2126,"Ġdecision":2127,"ully":2128,"irl":2129,"aces":2130,"Ġexist":2131,"Ġmass":2132,"Ġsus":2133,"over":2134,"Ġ2013":2135,"Ġtarg":2136,"Ġimm":2137,"Ġfeat":2138,"Ġconv":2139,"ana":2140,"ĠWashington":2141,"Ġhouse":2142,"Ġenc":2143,"Ġrights":2144,"mb":2145,"Ġwa":2146,"asing":2147,"Ġcreate":2148,"Ġfurther":2149,"Ġhit":2150,"Ġdoc":2151,"Ġfire":2152,"Ġchall":2153,"ung":2154,"yn":2155,"Ġwrote":2156,"Ġban":2157,"Ġservice":2158,"Ġfig":2159,"Ġthird":2160,"ĠDo":2161,"ĠSouth":2162,"Ġrepl":2163,"Ġstop":2164,"Ġpick":2165,"Ġcompl":2166,"Ġbegin":2167,"ively":2168,"Ġfield":2169,"Ġissues":2170,"now":2171,"sw":2172,"Ġwhole":2173,"Ġrelations":2174,"Ġstep":2175,"Ġsuper":2176,"pping":2177,"IS":2178,"ried":2179,"Ġseems":2180,"ently":2181,"Ġ2012":2182,"Ġmeas":2183,"ape":2184,"Ġeverything":2185,"ww":2186,"Ġcand":2187,"pecially":2188,"Ġdam":2189,"itted":2190,"Ġexec":2191,"Ġtra":2192,"Ġcompanies":2193,"Ġey":2194,"Ġfederal":2195,"Ġroom":2196,"pite":2197,"ĠAcc":2198,"AN":2199,"ĠMed":2200,"Ġwatch":2201,"attle":2202,"Ġsound":2203,"Ġdue":2204,"aul":2205,"Ġlab":2206,"ilt":2207,"16":2208,"ĠAss":2209,"Ġself":2210,"oon":2211,"uation":2212,"ĠIntern":2213,"Ġleaders":2214,"Ġinfl":2215,"Ġstates":2216,"ibility":2217,"Ġrole":2218,"head":2219,"Ġ25":2220,"ivil":2221,"Ġ2017":2222,"Ġstri":2223,"iday":2224,"ran":2225,"Ġcustom":2226,"ery":2227,"Ġreleased":2228,"Ġofficials":2229,"rodu":2230,"Ġbegan":2231,"Ġstudents":2232,"amer":2233,"ĠDr":2234,"Ġposition":2235,"Ġopt":2236,"Ġcharacter":2237,"obal":2238,"AR":2239,"Ġ)":2240,"Ġmatter":2241,"Ġfinal":2242,"Ġoutside":2243,"14":2244,"Ġener":2245,"ender":2246,"Ġdou":2247,"Ġstatement":2248,"ades":2249,"Ġhimself":2250,"ĠChina":2251,"Ġbreak":2252,"Ġtreat":2253,"Ã©":2254,"Ġdevelopment":2255,"Ġprovide":2256,"Ġ100":2257,"Ġstat":2258,"Ġ198":2259,"vironment":2260,"arlier":2261,"Ġinit":2262,"Ġabove":2263,"sec":2264,"Ġitself":2265,"like":2266,"Ġamount":2267,"Ġaction":2268,"Ġrepresent":2269,"Ġhours":2270,"Ġthemselves":2271,"Ġgun":2272,"In":2273,"iod":2274,"Ġcontinue":2275,"lim":2276,"Ġoffice":2277,"Ġbecame":2278,"ĠGerman":2279,"Ġgeneral":2280,"Ġspecific":2281,"Ġaddress":2282,"Ġneg":2283,"Ġcountries":2284,"aced":2285,"ĠWill":2286,"Ġlarg":2287,"Ġsimply":2288,"Ġtrue":2289,"lish":2290,"Ġwasn":2291,"ask":2292,"reg":2293,"Ġsignificant":2294,"'ll":2295,"umb":2296,"OR":2297,"Ġbar":2298,"Ġground":2299,"ogn":2300,"oid":2301,"Ġinterview":2302,"acebook":2303,"Ġrunning":2304,"ev":2305,"ĠEn":2306,"Ġdifficult":2307,"ili":2308,"Ġrad":2309,"Ġevidence":2310,"arter":2311,"Ġversion":2312,"Ġadminist":2313,"Ġprofess":2314,"Ġcop":2315,"Ġneeds":2316,"Ġred":2317,"ĠTwitter":2318,"Ġagree":2319,"angu":2320,"Ġtyp":2321,"ogle":2322,"ĠNews":2323,"Ġeveryone":2324,"Ġdrug":2325,"BC":2326,"Ġgroups":2327,"Ġappe":2328,"iddle":2329,"eks":2330,"Ġrespons":2331,"Ġbuilding":2332,"Ġball":2333,"Ġdom":2334,"Ġwoman":2335,"Ġtem":2336,"Ġshows":2337,"Ġmusic":2338,"Ġcommon":2339,"Ġdest":2340,"Ġlat":2341,"13":2342,"Ġneeded":2343,"Ġinj":2344,"ĠMus":2345,"lam":2346,"Ġbelow":2347,"Ġ50":2348,"ift":2349,"Ġexc":2350,"right":2351,"Ġrelease":2352,"ournal":2353,"ĠWest":2354,"ĠPe":2355,"Ġsaw":2356,"Ġdeep":2357,"Ġpretty":2358,"ribut":2359,"Ġinclude":2360,"ote":2361,"ĠWhite":2362,"Ġquite":2363,"Ġplayed":2364,"isc":2365,"Ġmot":2366,"Ġindustry":2367,"body":2368,"Ġap":2369,"Ġsense":2370,"Ġenergy":2371,"Ġplaying":2372,"Ġcandid":2373,"Ġmag":2374,"Ġphys":2375,"ĠOct":2376,"yle":2377,"ival":2378,"Ġgen":2379,"ES":2380,"Ġwhite":2381,"Ġlegal":2382,"atur":2383,"Ġlate":2384,"Ġfriends":2385,"Ġhtt":2386,"Ġcharg":2387,"Ġalleg":2388,"Ġ+":2389,"Ġinstead":2390,"ĠSte":2391,"Ġabs":2392,"ĠFacebook":2393,"Ġlost":2394,"Ġ<":2395,"ĠMich":2396,"ĠCong":2397,"bo":2398,"Ġespecially":2399,"ĠPer":2400,"Ġvalue":2401,"ique":2402,"Ġbillion":2403,"osing":2404,"Ġhom":2405,"Ġhost":2406,"lev":2407,"oring":2408,"Ġanim":2409,"Ġ{":2410,"istic":2411,"Ġple":2412,"Ġ24":2413,"where":2414,"17":2415,"Ġforward":2416,"ager":2417,"Ġobject":2418,"Ġrecently":2419,"Ġtrack":2420,"time":2421,"AS":2422,"ĠSm":2423,"ĠSept":2424,"Ġweeks":2425,"Ġelection":2426,"irt":2427,"Ġvote":2428,"Ġjud":2429,"Ġsuff":2430,"Ġdeter":2431,"epend":2432,"Ġchanges":2433,"Ġperiod":2434,"Ġopportun":2435,"ĠMarch":2436,"Ġlo":2437,"This":2438,"medi":2439,"ript":2440,"Ġlonger":2441,"Ġpain":2442,"ached":2443,"ij":2444,"oke":2445,"Ġsite":2446,"Ġaccept":2447,"Ġep":2448,"hod":2449,"Ġsoon":2450,"Ġshoot":2451,"Ġmoment":2452,"Ġhope":2453,"Ġeconomic":2454,"ights":2455,"Ġpie":2456,"itting":2457,"duct":2458,"Ġcheck":2459,"Ġdecl":2460,"ĠMore":2461,"irm":2462,"ental":2463,"18":2464,"Ġwrong":2465,"Ġblock":2466,"ĠRepublican":2467,"ĠDepartment":2468,"Ġconsum":2469,"ĠAug":2470,"St":2471,"den":2472,"Ġrelig":2473,"ĠEl":2474,"Ġtit":2475,"ĠEm":2476,"Ġcirc":2477,"____":2478,"ĠSyri":2479,"Ġpotential":2480,"Ġhigher":2481,"Ġworks":2482,"Ġconsider":2483,"lege":2484,"arc":2485,"ners":2486,"Ġfocus":2487,"Ġshare":2488,"Ġcred":2489,"ancial":2490,"Ġeduc":2491,"lt":2492,"alt":2493,"Ġheld":2494,"oe":2495,"ĠJune":2496,"iding":2497,"cial":2498,"onse":2499,"Ġwebs":2500,"Ġonline":2501,"key":2502,"ĠGoogle":2503,"fer":2504,"Ġwalk":2505,"Ġstay":2506,"ĠAccording":2507,"Ġfunction":2508,"ĠHere":2509,"Ġled":2510,"Ġreve":2511,"overed":2512,"ularly":2513,"Ġwords":2514,"Ġparent":2515,"ĠRed":2516,"Ġpred":2517,"hel":2518,"Ġstru":2519,"Ġresults":2520,"Ġdi":2521,"ĠOff":2522,"fect":2523,"Ġ*":2524,"Ġwind":2525,"Ġrisk":2526,"ĠAct":2527,"Ġreview":2528,"Ġrev":2529,"Ġcode":2530,"Ġsold":2531,"lear":2532,"Ġcontract":2533,"Ġlaws":2534,"ients":2535,"ĠApr":2536,"Ġce":2537,"Ġarticle":2538,"ees":2539,"omm":2540,"aut":2541,"Ġtotal":2542,"cil":2543,"ole":2544,"Ġaud":2545,"==":2546,"Ġapplic":2547,"Ġservices":2548,"Ġste":2549,"ĠJuly":2550,"Ġpersonal":2551,"uary":2552,"Ġminutes":2553,"asons":2554,"ham":2555,"Ġanyone":2556,"Ġage":2557,"ilities":2558,"put":2559,"anger":2560,"ns":2561,"Ġ2011":2562,"25":2563,"Ġfavor":2564,"itution":2565,"Ġprim":2566,"Ġtarget":2567,"Ġrate":2568,"Ġupd":2569,"Ġansw":2570,"haps":2571,"ule":2572,"Ġpopular":2573,"Ġden":2574,"ateg":2575,"Ġexpress":2576,"apan":2577,"Ġhy":2578,"Ġvol":2579,"Ġearlier":2580,"Ġdead":2581,"Ġnecess":2582,"ĠCongress":2583,"ĠMond":2584,"Ġcomput":2585,"Ġrespect":2586,"aging":2587,"ĠGod":2588,"ĠHill":2589,"Ġtechnology":2590,"Ġgoal":2591,"Ġexpected":2592,"Ġcreated":2593,"Ġenvironment":2594,"uel":2595,"ĠAustral":2596,"ends":2597,"iter":2598,"rel":2599,"Ġproblems":2600,"Ġbase":2601,"Ġsurpr":2602,"ude":2603,"val":2604,"Ġreceived":2605,"Ġ@":2606,"Ġport":2607,"reet":2608,"na":2609,"Ġscient":2610,"ĠDes":2611,"Ġprivate":2612,"isl":2613,"Ġincrease":2614,"Ġways":2615,"Ġcomment":2616,"Ġeasy":2617,"Ġanti":2618,"Ġpack":2619,"Ġforce":2620,"iple":2621,"Ġshot":2622,"Ġquestions":2623,"Ġcannot":2624,"Ġannounced":2625,"action":2626,"eter":2627,"ĠAg":2628,"Ġlangu":2629,"ĠFriday":2630,"Ġimpact":2631,"Ġpur":2632,"EN":2633,"aterial":2634,"ĠCont":2635,"ittee":2636,"ples":2637,"atives":2638,"Ġet":2639,"hern":2640,"aving":2641,"Ġinvolved":2642,"ĠCour":2643,"ray":2644,"Ġ197":2645,"Ġtype":2646,"ĠApril":2647,"Ġdiv":2648,"lex":2649,"hood":2650,"ĠCount":2651,"itiz":2652,"Ġspeak":2653,"Ġexact":2654,"Ġmodel":2655,"itten":2656,"Ġexecut":2657,"Ġnearly":2658,"ires":2659,"ĠTues":2660,"Ġcivil":2661,"ĠPal":2662,"Ġrelationship":2663,"Ġterror":2664,"Ġstaff":2665,"Ġsen":2666,"ĠMonday":2667,"okes":2668,"ĠEven":2669,"Ġcases":2670,"Ġinside":2671,"icro":2672,"Ġoriginal":2673,"60":2674,"rem":2675,"ĠRussia":2676,"Ġcontent":2677,"omb":2678,"ĠTuesday":2679,"ĠDavid":2680,"Ġleave":2681,"Ġresponse":2682,"che":2683,"ĠJapan":2684,"ises":2685,"ams":2686,"lled":2687,"Ġcapt":2688,"Ġfans":2689,"ãģ":2690,"Ġur":2691,"eed":2692,"Ġcoll":2693,"ĠQu":2694,"Ġ2010":2695,"ĠAmericans":2696,"Ġinternational":2697,"Ġarrest":2698,"Ġaverage":2699,"ĠCor":2700,"Ġbroad":2701,"Ġliving":2702,"Ġheart":2703,"ĠGl":2704,"bor":2705,"ĠWed":2706,"bit":2707,"ky":2708,"Ġreports":2709,"Ġworth":2710,"cast":2711,"Ġsource":2712,"Ġkilled":2713,"Ġnation":2714,"ips":2715,"Ġcal":2716,"ĠGeor":2717,"ellig":2718,"Ġbecom":2719,"atural":2720,"onst":2721,"ĠSan":2722,"Ġusers":2723,"Ġworked":2724,"oto":2725,"ests":2726,"Ġsoft":2727,"Ġobs":2728,"ctor":2729,"Ġimmedi":2730,"Ġsubject":2731,"ĠFirst":2732,"Ġ40":2733,"ites":2734,"joy":2735,"Ġestab":2736,"Ġchance":2737,"ging":2738,"Ġrespond":2739,"Ġclub":2740,"ops":2741,"Ġcell":2742,"Ġglobal":2743,"ĠPaul":2744,"Ġtakes":2745,"ael":2746,"Ġability":2747,"Ġadm":2748,"rought":2749,"Ġoil":2750,"Ġweap":2751,"ĠCalif":2752,"Ġassoci":2753,"Ġterms":2754,"Ġworkers":2755,"Ġprice":2756,"ĠSpe":2757,"izing":2758,"ze":2759,"Ġdirector":2760,"Ġroad":2761,"ĠHer":2762,"ological":2763,"Ġpublished":2764,"Ġtou":2765,"osition":2766,"Ġcollect":2767,"Ġdefin":2768,"He":2769,"Ġfinancial":2770,"ĠSund":2771,"unt":2772,"ĠFeb":2773,"Ġmid":2774,"Ġlog":2775,"Ġsqu":2776,"Ġdecided":2777,"ovember":2778,"Ġlack":2779,"Wh":2780,"Ġphone":2781,"Ġmother":2782,"Ġbuy":2783,"Ġgave":2784,"Ġgirl":2785,"Ġstore":2786,"Ġemer":2787,"ĠJanuary":2788,"Ġinflu":2789,"ĠSch":2790,"Ġcapital":2791,"Ġrequire":2792,"Ġhappened":2793,"ĠSeptember":2794,"Ġ21":2795,"Ġforeign":2796,"rain":2797,"clus":2798,"Ġfem":2799,"mon":2800,"\".":2801,"Ġgoes":2802,"Ġcurrently":2803,"Ġsituation":2804,"ĠPost":2805,"based":2806,"aled":2807,"Ġwhose":2808,"Ġlives":2809,"Ġindic":2810,"oved":2811,"Ġoffer":2812,"Ġmaterial":2813,"Ġtal":2814,"ino":2815,"ĠAng":2816,"Ġmember":2817,"Ġill":2818,"Ġbur":2819,"ought":2820,"Ġplans":2821,"Ġaffect":2822,"ĠIslam":2823,"Ġâ":2824,"Ġmethod":2825,"vertise":2826,"nesday":2827,"Ġparticip":2828,"Ġarri":2829,"Ġ22":2830,"You":2831,"ĠThurs":2832,"ĠTV":2833,"ĠNovember":2834,"Ġpict":2835,"rect":2836,"Ġmeeting":2837,"Ġrecogn":2838,"Ġteams":2839,"Ġturned":2840,"ruction":2841,"Ġbank":2842,"Ġnetwork":2843,"Ġevents":2844,"fully":2845,"Ġsimple":2846,"order":2847,"ĠWednesday":2848,"ese":2849,"Ġintrodu":2850,"Ġnorm":2851,"Ġcy":2852,"Ġtext":2853,"Ġareas":2854,"ills":2855,"Ġ}":2856,"Ġregard":2857,"ĠAfric":2858,"ĠThursday":2859,"Ġhuge":2860,"Ġcouple":2861,"oo":2862,"Ġpage":2863,"Ġperformance":2864,"Ġapproach":2865,"Ġtool":2866,"Ġcareer":2867,"Ġvia":2868,"bl":2869,"ĠCourt":2870,"oud":2871,"Ġmis":2872,"Ġfelt":2873,"aur":2874,"ety":2875,"Ġemail":2876,"Ġord":2877,"Ġrace":2878,"ĠKe":2879,"apt":2880,"load":2881,"ĠTw":2882,"Ġquickly":2883,"ĠEuropean":2884,"ĠAugust":2885,"Ġround":2886,"ĠOctober":2887,"--------":2888,"Ġhon":2889,"\",":2890,"aily":2891,"oor":2892,"Ġimprove":2893,"Ġengine":2894,"istan":2895,"Ġnumbers":2896,"40":2897,"Ġvictim":2898,"rown":2899,"Ġadministration":2900,"ĠOf":2901,"Ġpull":2902,"ĠCanada":2903,"Ġbuilt":2904,"ett":2905,"ĠCaliforn":2906,"fl":2907,"Ġfre":2908,"chie":2909,"ĠSunday":2910,"ĠBritish":2911,"Ġloss":2912,"Ġpers":2913,"avy":2914,"ĠThen":2915,"ructure":2916,"Ġfather":2917,"ume":2918,"Ġthous":2919,"Ġdig":2920,"ED":2921,"Ġeconomy":2922,"Ġproduction":2923,"Ġboy":2924,"Ġheard":2925,"Ġmatch":2926,"âĢĿ.":2927,"Ġwebsite":2928,"Ġenjoy":2929,"Ġsecret":2930,"ĠBlack":2931,"ĠSw":2932,"Ġallowed":2933,"down":2934,"Ġrepe":2935,"Ġhands":2936,"Ġboard":2937,"Ġspent":2938,"Ġtrade":2939,"Ġwide":2940,"Ġlower":2941,"face":2942,"cember":2943,"Ġtravel":2944,"Ġcover":2945,"Ġpoll":2946,"atory":2947,"Ġincluded":2948,"Ġwants":2949,"Ġ23":2950,"Ġlegisl":2951,"Ġtown":2952,"uses":2953,"Ġknew":2954,"Ġneigh":2955,"ĠPat":2956,"ech":2957,"orters":2958,"iction":2959,"Ġbehav":2960,"Ġsepar":2961,"estern":2962,"Ġvisit":2963,"Ġgets":2964,"Ġperfect":2965,"ĠCalifornia":2966,"ened":2967,"ĠIS":2968,"ences":2969,"ĠRussian":2970,"ishing":2971,"anks":2972,"ÂŃ":2973,"Ġmovement":2974,"gest":2975,"agement":2976,"?âĢĿ":2977,"Ġtried":2978,"ession":2979,"ctions":2980,"ĠUK":2981,"ĠKore":2982,"ĠPar":2983,"de":2984,"Ġbi":2985,"Ġcause":2986,"ris":2987,"oph":2988,"Ġforces":2989,"Ġens":2990,"Ġfear":2991,"lin":2992,"Ġattention":2993,"Ġparticular":2994,");":2995,"ĠInt":2996,"force":2997,"ĠDecember":2998,"Ġpopulation":2999,"hic":3000,"ceed":3001,"ĠMark":3002,"Ġbrought":3003,"Ġreach":3004,"Ġlooks":3005,"Ġvarious":3006,"ibly":3007,"Ġvo":3008,"AL":3009,"Ġbud":3010,"If":3011,"uk":3012,"Ġgrowth":3013,"ĠFin":3014,"arily":3015,"ening":3016,"Ġsett":3017,"Ġmention":3018,"Ġprevious":3019,"Ġlink":3020,"urd":3021,"aker":3022,"sequ":3023,"idents":3024,"Ġmorning":3025,"'d":3026,"ĠChe":3027,"cle":3028,"field":3029,"undred":3030,"ma":3031,"Ġfair":3032,"Ġfell":3033,"Ġtraining":3034,"hold":3035,"idered":3036,"Ġimage":3037,"Ġprogress":3038,"yond":3039,"alled":3040,"Ġsize":3041,"ĠPark":3042,"ĠSenate":3043,"raz":3044,"cies":3045,"ny":3046,"ĠTH":3047,"Ġcontact":3048,"Ġhot":3049,"ĠFrom":3050,"Ġdemand":3051,"Ġrac":3052,"Ġ...":3053,"Ġsong":3054,"ĠStreet":3055,"][":3056,"ledge":3057,"99":3058,"Ġleader":3059,"Ġhor":3060,"ĠIndia":3061,"Ġcitiz":3062,"Ġess":3063,"Ġrules":3064,"ground":3065,"Ġliber":3066,"ĠKing":3067,"iers":3068,"Ġsearch":3069,"AC":3070,"ecause":3071,"ification":3072,"Ġlatest":3073,"iant":3074,"inks":3075,"come":3076,"Ġprep":3077,"Ġstrugg":3078,"Ġupon":3079,"ĠIran":3080,"There":3081,"ĠJew":3082,"Ġfast":3083,"Ġcoach":3084,"Ġtalking":3085,"Ġindepend":3086,"ondon":3087,"Ġspeed":3088,"uments":3089,"ĠCons":3090,"Ġwond":3091,"ges":3092,"Ġfeatures":3093,"arth":3094,"ĠTex":3095,"Ġexam":3096,"Ġaddition":3097,"ĠTimes":3098,"ĠParty":3099,"Ġreb":3100,"IT":3101,"rim":3102,"elligence":3103,"ĠCounty":3104,"Ġconsidered":3105,"Ġlanguage":3106,"het":3107,"aries":3108,"vent":3109,"OS":3110,"ĠCenter":3111,"bed":3112,"Ġstar":3113,"Ġmedical":3114,"ĠSatur":3115,"Ġund":3116,"Ġlevels":3117,"Ġ2008":3118,"raq":3119,"Ġslow":3120,"ille":3121,"ĠRom":3122,"imately":3123,"Ġachie":3124,"Ġinvestigation":3125,"unk":3126,"ĠMcC":3127,"Ġconduct":3128,"ĠSand":3129,"Ġmach":3130,"ĠDonald":3131,"Ġsn":3132,"Ġcard":3133,"Ġsort":3134,"ope":3135,"IC":3136,"Ġcritic":3137,"Ġdoll":3138,"ament":3139,"ĠPolice":3140,"ysis":3141,"Ġpaper":3142,"Ġbox":3143,"Ġpen":3144,"asc":3145,"uf":3146,"Ġconserv":3147,"Ġprior":3148,"ĠMuslim":3149,"Ġsexual":3150,"pir":3151,"Ġsafe":3152,"Ġsystems":3153,"Ġparents":3154,"Ġdocument":3155,"Ġhear":3156,"Ġjobs":3157,"ĠNet":3158,"atform":3159,"Ġwritten":3160,"Ġspokes":3161,"Ġsens":3162,"igr":3163,"ĠUp":3164,"Ġdraw":3165,"Ġincreasing":3166,"Ġseven":3167,"Ġseek":3168,"ĠSaturday":3169,"200":3170,"ĠIraq":3171,"idge":3172,"ruary":3173,"Ġprevent":3174,"sych":3175,"ani":3176,"Ġlearn":3177,"Ġextreme":3178,"ĠLet":3179,"ĠTur":3180,"Ġ2009":3181,"Ġeffort":3182,"ĠLab":3183,"ĠLondon":3184,"Ġson":3185,"Ġserious":3186,"ĠSim":3187,"Ġconc":3188,"Ġcompletely":3189,"rast":3190,"uit":3191,"Ġinn":3192,"Ġscreen":3193,"ĠOther":3194,"Ġ27":3195,"ĠMor":3196,"Ġ28":3197,"Ġregul":3198,"ining":3199,"Ġeight":3200,"Ġrange":3201,"room":3202,"itch":3203,"ources":3204,"Ġviolence":3205,"ĠSoc":3206,"Ġbott":3207,"Ġmessage":3208,"set":3209,"Ġobv":3210,"Ġsurve":3211,"ĠGener":3212,"Ġdespite":3213,"ĠMichael":3214,"OP":3215,"Ġinteresting":3216,"reedom":3217,"Ġdoub":3218,"Ġopportunity":3219,"ico":3220,"ĠEast":3221,"Ġclaims":3222,"22":3223,"rench":3224,"Ġparticularly":3225,"anced":3226,"Ġextra":3227,"tr":3228,"Ġanswer":3229,"Ġsociety":3230,"light":3231,"ĠJames":3232,"Ġmajority":3233,"Ġjournal":3234,"Ġattacks":3235,"Ġguy":3236,"aming":3237,"atter":3238,"erve":3239,"Ġexactly":3240,"Ġcarry":3241,"entially":3242,"Ġbiggest":3243,"eff":3244,"ĠFebruary":3245,"US":3246,"ĠRead":3247,"ux":3248,"Ġclimate":3249,"illed":3250,"ĠâĢ¦":3251,"Ġcross":3252,"ĠPlay":3253,"ĠMost":3254,"Ġrequired":3255,"Ġaren":3256,"ibr":3257,"Ġ26":3258,"erc":3259,"isions":3260,"Ġpaid":3261,"Ġhundred":3262,"Ġexperien":3263,"Ġdefense":3264,"Ġexcept":3265,"Ġmodern":3266,"Ġpractice":3267,"ĠÐ":3268,"ension":3269,"vertisement":3270,"lying":3271,"Ġquarter":3272,"ha":3273,"Ġofficers":3274,"Ġnatural":3275,"ĠRepublicans":3276,"ari":3277,"oses":3278,"Ġscience":3279,"inese":3280,"Ġremain":3281,"Ġcrim":3282,"Ġlooked":3283,"Ġcertainly":3284,"nces":3285,"Ġhistor":3286,"Ġsurv":3287,"uclear":3288,"utions":3289,"Ġgas":3290,"Ġstories":3291,"Ġmiddle":3292,"ĠBill":3293,"Ġlay":3294,"Ġdro":3295,"Ġtable":3296,"Ġstuff":3297,"Ġfinally":3298,"Ġsometimes":3299,"Ġcommunic":3300,"Ġproducts":3301,"Ġmovie":3302,"Ġaw":3303,"ospital":3304,"Ġrout":3305,"ĠCoun":3306,"Ġterm":3307,"mp":3308,"Ġimag":3309,"Ġconvers":3310,"Ġuser":3311,"aves":3312,"Ġpan":3313,"Ġleading":3314,"Ġ>":3315,"ously":3316,"Ġdescribed":3317,"Ġones":3318,"ĠWhy":3319,"Ġchanged":3320,"pper":3321,"Ġdetails":3322,"Ġsummer":3323,"Ġult":3324,"hib":3325,"Ġprison":3326,"Ġblood":3327,"Ġhttp":3328,"Ġquality":3329,"eth":3330,"Ġstarting":3331,"Ġshowed":3332,"ĠSince":3333,"80":3334,"Ġgiving":3335,"ĠMon":3336,"icks":3337,"Ġoccur":3338,"uing":3339,"Ġprovided":3340,"akers":3341,"Ġnamed":3342,"24":3343,"Ġremains":3344,"ĠJack":3345,"Ġcosts":3346,"ĠDemocratic":3347,"Ġcomments":3348,"Ġregion":3349,"aught":3350,"ida":3351,"....":3352,"ĠSer":3353,"Ġpoor":3354,"Ġdanger":3355,"Ġpath":3356,"enge":3357,"Ġchief":3358,"Ġmultiple":3359,"ĠRec":3360,"Ġeducation":3361,"Ġmob":3362,"Ġdamage":3363,"Ġgrowing":3364,"Ġwriting":3365,"coin":3366,"Ġparts":3367,"Ġcontinued":3368,"Ġdemonst":3369,"Ġthinking":3370,"Ġassist":3371,"Ġfix":3372,"Ġpurp":3373,"inary":3374,"Ġmaintain":3375,"ĠMany":3376,"ĠTexas":3377,"ĠLeague":3378,"Ġwrite":3379,"ĠChinese":3380,"Ġready":3381,"Ġpurch":3382,"urt":3383,"Ġwouldn":3384,"arr":3385,"omp":3386,"Ġincreased":3387,"fort":3388,"ĠDis":3389,"ĠRich":3390,"Ġdied":3391,"Ġfile":3392,"Ġculture":3393,"mit":3394,"Ġrequest":3395,"Ġvoters":3396,"ago":3397,"Ġimplement":3398,"ĠGreen":3399,"ĠEvery":3400,"Ġmill":3401,"ĠWilliam":3402,"Ġcamer":3403,"Ġefforts":3404,"ables":3405,"oul":3406,"ĠApple":3407,"ĠBo":3408,"aly":3409,"ban":3410,"Ġspot":3411,"Ġcalls":3412,"oper":3413,"Ġhous":3414,"Ġperhaps":3415,"Ġitem":3416,"Ġalone":3417,"FL":3418,"Ġguys":3419,"Ġreading":3420,"zz":3421,"Ġtowards":3422,"Ġalthough":3423,"Ġstandard":3424,"Ġselect":3425,"Ph":3426,"Ġcele":3427,"Ġusually":3428,"arian":3429,"ĠIndian":3430,"Ġconsist":3431,"Ġplatform":3432,"Ġeffects":3433,"Ġreality":3434,"Ġdirectly":3435,"Ġavoid":3436,"Ġbeyond":3437,"ĠAdd":3438,"Ġkids":3439,"Ġfootball":3440,"iles":3441,"Ġspeech":3442,"icated":3443,"Ġ(@":3444,"Ġsubst":3445,"sp":3446,"Ġcouldn":3447,"Ġscene":3448,"ara":3449,"anch":3450,"using":3451,"Ġincludes":3452,"Ġthroughout":3453,"Ġstudent":3454,"ĠComp":3455,"itute":3456,"inated":3457,"Ġcomplex":3458,"rowd":3459,"ĠRober":3460,"Ġcenter":3461,"ĠSuper":3462,"ĠBel":3463,"Ġimmediately":3464,"ĠMart":3465,"ford":3466,"Ġchalleng":3467,"Ġrob":3468,"Ġrecomm":3469,"Ġunf":3470,"Ġconcept":3471,"ĠLast":3472,"Ġepis":3473,"Ġclos":3474,"Ġver":3475,"ĠDemocrats":3476,"Ġwife":3477,"Ġchoice":3478,"Ġil":3479,"egr":3480,"Ġadditional":3481,"Ġtro":3482,"ĠBen":3483,"ĠWell":3484,"Ġ60":3485,"ĠOver":3486,"ĠMinister":3487,"ston":3488,"Ġresearc":3489,"Ġremember":3490,"Ġsle":3491,"wise":3492,"Ġgone":3493,"Ġsafety":3494,"Ġcast":3495,"Ġten":3496,"Ġdesigned":3497,"itor":3498,"Ġcorpor":3499,"hest":3500,"ĠServ":3501,"Ġagency":3502,"astic":3503,"ĠII":3504,"Ġpiece":3505,"ĠOur":3506,"aches":3507,"rupt":3508,"Ġahead":3509,"Ġsoftware":3510,"Ġopin":3511,"Ġofficer":3512,"Ġdebate":3513,"Ġfigure":3514,"ĠDay":3515,"Ġbrain":3516,"Ġtoward":3517,"omen":3518,"23":3519,"Ġswe":3520,"ports":3521,"bur":3522,"ilies":3523,"Ġcounter":3524,"Ġsell":3525,"AM":3526,"ression":3527,"ĠAssoci":3528,"Ġoption":3529,"Ġblog":3530,"yl":3531,"Ġthousands":3532,"iment":3533,"agon":3534,"icient":3535,"Ġletter":3536,"ĠVal":3537,"Ġsil":3538,"As":3539,"irth":3540,"imum":3541,"Ġrelative":3542,"Ġprec":3543,"atever":3544,"Ġpressure":3545,"Ġreceive":3546,"airs":3547,"Ġmoved":3548,"ampions":3549,"Ġstage":3550,"Ġut":3551,"Ġpassed":3552,"adem":3553,"BI":3554,"Ġappears":3555,"Ġx":3556,"aph":3557,"olute":3558,"roy":3559,"Ġlaunch":3560,"Ġclean":3561,"Ġproperty":3562,"ĠLike":3563,"Ġmeaning":3564,"ĠFrench":3565,"Ġdog":3566,"Ġhelped":3567,"ĠGet":3568,"itation":3569,"Ġtwe":3570,"OT":3571,"Ġdisapp":3572,"Ġrock":3573,"ĠTor":3574,"Ġcris":3575,"Ġdark":3576,"add":3577,"just":3578,"Ġorganization":3579,"Ġalleged":3580,"Ġdrive":3581,"ĠStar":3582,"Ġscore":3583,"Ġconditions":3584,"Ġsat":3585,"Ġtouch":3586,"berg":3587,"ĠEnglish":3588,"Ġsuspect":3589,"Ġdate":3590,"Ġmoving":3591,"Ġtour":3592,"Ġreasons":3593,"aughter":3594,"Ġign":3595,"?\"":3596,"Ġcommand":3597,"ĠWind":3598,"urning":3599,"Ġpark":3600,"itness":3601,"rief":3602,"Ġdeg":3603,"Ġdifference":3604,"Ġnature":3605,"Ġdevice":3606,"Ġhappy":3607,"Ġmyself":3608,"Ġmaybe":3609,"ĠSci":3610,"ext":3611,"chan":3612,"Ġbeginning":3613,"new":3614,"Ġfailed":3615,"ĠAlthough":3616,"men":3617,"Ġnom":3618,"Ġfan":3619,"wood":3620,"ĠAir":3621,"Ġbudget":3622,"Ġencour":3623,"ivity":3624,"Ġcharacters":3625,"Ġnuclear":3626,"Ġcopy":3627,"ĠHam":3628,"more":3629,"Ġbattle":3630,"Ġcomputer":3631,"Ġaim":3632,"Ġ29":3633,"ocked":3634,"Ġtitle":3635,"Ġcompared":3636,"ĠLa":3637,"yan":3638,"EC":3639,"Ġwall":3640,"Ġcentury":3641,"ĠSyria":3642,"Ġcollege":3643,"lease":3644,"aling":3645,"Ġeyes":3646,"Ġestim":3647,"Ġleague":3648,"Ġstra":3649,"ĠGovern":3650,"Ġshown":3651,"ĠBecause":3652,"Ġyes":3653,"Ġpositive":3654,"Ġbooks":3655,"Ġpowerful":3656,"Ġrefer":3657,"Ġcontribut":3658,"ĠTom":3659,"Ġbal":3660,"Ġband":3661,"Ġlimited":3662,"Ġnecessary":3663,"Ġsche":3664,"ĠCap":3665,"Ġcitizens":3666,"Ġdisp":3667,"Ġforced":3668,"iable":3669,"Ġarch":3670,"They":3671,"Ġcandidate":3672,"ufact":3673,"Ġtrust":3674,"Ġconference":3675,"ource":3676,"enty":3677,"Ġlargest":3678,"Ġanalysis":3679,"Ġspending":3680,"Ġsal":3681,"igration":3682,"27":3683,"aint":3684,"orks":3685,"Ġnote":3686,"Ġpresidential":3687,"ĠHigh":3688,"ĊĠĊĠĊĠĊĠ":3689,"Ġ196":3690,"Ġthrow":3691,"ĠMex":3692,"ĠDef":3693,"ET":3694,"Ġaware":3695,"Ġschools":3696,"Ġmeant":3697,"ĠReg":3698,"Ġeventually":3699,"Ġreligious":3700,"ĠInternational":3701,"Ġexecutive":3702,"venue":3703,"ĠAnt":3704,"Ġcorrect":3705,"Ġphysical":3706,"Ġfollowed":3707,"Ġfeature":3708,"ĠAdvertisement":3709,"ĠSmith":3710,"Ġmix":3711,"Ġstreng":3712,"ĠJer":3713,"Ġilleg":3714,"Ġfamilies":3715,"Ġcrowd":3716,"Ġconfir":3717,"EL":3718,"45":3719,"Ġcat":3720,"Ġfirm":3721,"Ġeasily":3722,"Ġcool":3723,"ero":3724,"Ġautom":3725,"Ġesc":3726,"orney":3727,"Ġallows":3728,"ĠPeople":3729,"Ġdraft":3730,"Ġpus":3731,"ube":3732,"Ġgives":3733,"Ġyourself":3734,"Ġgrad":3735,"Ġfeed":3736,"ĠGeorge":3737,"Ġtreatment":3738,"Ġactions":3739,"ĠAustralia":3740,"ressed":3741,"35":3742,"AP":3743,"rated":3744,"ares":3745,"cul":3746,"board":3747,"craft":3748,"ken":3749,"Ġdetail":3750,"Ġoverall":3751,"band":3752,"ĠRob":3753,"Ġsusp":3754,"ĠSchool":3755,"iring":3756,"encies":3757,"dd":3758,"Ġsmart":3759,"Ġang":3760,"Ġincome":3761,"Ġideas":3762,"Ġappeared":3763,"Ġdisplay":3764,"ĠGermany":3765,"Ġcentral":3766,"Ġpolitics":3767,"Ġsigned":3768,"ĠAngel":3769,"ID":3770,"Ġhar":3771,"Ġweapons":3772,"ĠDuring":3773,"Ġanaly":3774,"bum":3775,"ĠMet":3776,"Ġpsych":3777,"ĠBrown":3778,"ĠEU":3779,"Ġdecades":3780,"ĠBer":3781,"Ġnice":3782,"Ġpromot":3783,"Ġdise":3784,"Ġuses":3785,"Ġfrequ":3786,"Ġsenior":3787,"ĠÂ£":3788,"Ġcrime":3789,"ĠChristian":3790,"iance":3791,"Ġlif":3792,"OM":3793,"ĠOh":3794,"aud":3795,"ĠEarth":3796,"ĠGeneral":3797,"Ġunique":3798,"Ġcredit":3799,"26":3800,"lements":3801,"Ġdoor":3802,"ram":3803,"Ġcrisis":3804,"ĠFlor":3805,"Ġaltern":3806,"):":3807,"Ġdeveloped":3808,"Ġbenefits":3809,"Ġmist":3810,"resh":3811,"ĠArab":3812,"Ġconflic":3813,"ĠMac":3814,"uty":3815,"riage":3816,"Ġtruth":3817,"Ġdrop":3818,"ĠBre":3819,"Ġnoted":3820,"Ġrelated":3821,"ĠGold":3822,"urance":3823,"ĠFranc":3824,"Ġsales":3825,"ĠTod":3826,"Ġgoals":3827,"ĠUnion":3828,"Ġbeaut":3829,"ĠTrans":3830,"IA":3831,"ĠArt":3832,"Ġindividuals":3833,"Ġcontinues":3834,"itely":3835,"box":3836,"rol":3837,"iny":3838,"oes":3839,"Ġlic":3840,"Ġrap":3841,"Ġrates":3842,"Ġsto":3843,"Ġcustomers":3844,"Ġchallenge":3845,"Ġprojects":3846,"ĠâĢ¢":3847,"onents":3848,"Ġcharge":3849,"Ġpredict":3850,"ĠCouncil":3851,"Ġapparent":3852,"erved":3853,"nown":3854,"Ġintelligence":3855,"Ġpeace":3856,"ĠUs":3857,"pre":3858,"Ġlarger":3859,"ĠBu":3860,"Ġpreviously":3861,"change":3862,"Ġfully":3863,"Ġmeasure":3864,"Ġlines":3865,"part":3866,"Ġstraight":3867,"Ġmanager":3868,"mar":3869,"net":3870,"Ġadvant":3871,"ville":3872,"Ġbrother":3873,"Ġrule":3874,"Ġsuccessful":3875,"ĠScott":3876,"ĠMag":3877,"Ġexpand":3878,"ĠAlex":3879,"Ġemb":3880,"ĠAlso":3881,"Ġhighly":3882,"Ġclearly":3883,"Ġreform":3884,"oti":3885,"ĠInternet":3886,"Ġseemed":3887,"orter":3888,"Ġcriminal":3889,"ki":3890,"Ġprimary":3891,"ĠAnother":3892,"owers":3893,"ĠLaw":3894,"Ġminor":3895,"iced":3896,"Ġspread":3897,"Ġtraff":3898,"ounds":3899,"Ġknowledge":3900,"antly":3901,"Ġattract":3902,"Ġincident":3903,"Ġweb":3904,"Ġresources":3905,"Ġprograms":3906,"osh":3907,"Ġsave":3908,"ategy":3909,"Ġreached":3910,"Ġgreater":3911,"Ġspir":3912,"Ġkept":3913,"Ġarm":3914,"Ch":3915,"ĠFollow":3916,"Ġfavorite":3917,"Ġsend":3918,"ota":3919,"Ġcolor":3920,"while":3921,"Ġemot":3922,"secut":3923,"Ġfeet":3924,"dom":3925,"Ġstudies":3926,"Ġprem":3927,"Ġplaces":3928,"ĠStud":3929,"Ġmanufact":3930,"sey":3931,"Ġrare":3932,"onent":3933,"icit":3934,"ĠMo":3935,"Ġshooting":3936,"iders":3937,"ĠYes":3938,"ĠYour":3939,"Ġknows":3940,"ĠMatt":3941,"Ġorigin":3942,"bon":3943,"ĠTwo":3944,"28":3945,"ĠEngland":3946,"Ġregular":3947,"ingly":3948,"Ġ2007":3949,"Ġrise":3950,"Ġliter":3951,"ocks":3952,"Ġsources":3953,"levision":3954,"ĠAP":3955,"wide":3956,"Ġfighting":3957,"roll":3958,"29":3959,"term":3960,"olic":3961,"Ġlaun":3962,"ĠCr":3963,"Ġactivity":3964,"Ġpun":3965,"Ġstatus":3966,"Ġowners":3967,"Ġoptions":3968,"Ġvoice":3969,"EO":3970,"Ġfine":3971,"Ġcaused":3972,"Ġnormal":3973,"Ġuns":3974,"usion":3975,"lick":3976,"Ġspend":3977,"Ġclaimed":3978,"Ġorganiz":3979,"ĠOp":3980,"Ġended":3981,"ĠMod":3982,"Ġcities":3983,"ĠHillary":3984,"rs":3985,"aith":3986,"ado":3987,"Ġenem":3988,"ING":3989,"Ġcalling":3990,"Ð¾":3991,"ĠChic":3992,"roid":3993,"Ġreflect":3994,"Ġintegr":3995,"ength":3996,"ĠSam":3997,"iled":3998,"que":3999,"ĠFlorida":4000,"ifying":4001,"100":4002,"Ġshut":4003,"Ġprint":4004,"Ġresearchers":4005,"Ġnames":4006,"Ġhaven":4007,"Ġprices":4008,"ĠSun":4009,"Ġfemale":4010,"ĠBay":4011,"Ġvirt":4012,"âĢĿ,":4013,"ĠPhil":4014,"Ġhappens":4015,"Ġemployees":4016,"ĠPre":4017,"oles":4018,"Ġtrou":4019,"Ġadding":4020,"uman":4021,"Ġbasic":4022,"RE":4023,"Ġsupposed":4024,"uana":4025,"Ġplant":4026,"Ġhospital":4027,"org":4028,"iverse":4029,"Ġpros":4030,"Ġpolicies":4031,"ĠPort":4032,"Ġraised":4033,"Ġjump":4034,"Ġalbum":4035,"Ġtraditional":4036,"Ġabsolute":4037,"Ġcharges":4038,"Ġconcerns":4039,"Ġstyle":4040,"70":4041,"Ġslight":4042,"Ġcreating":4043,"inger":4044,"Ġacqu":4045,"Ġgrand":4046,"Ġpatients":4047,"ica":4048,"Ġfunding":4049,"ribution":4050,"Ġauthorities":4051,"Ġfreedom":4052,"Ġscen":4053,"Ġbeat":4054,"33":4055,"Ġcommer":4056,"vere":4057,"Ġseeing":4058,"Ġlik":4059,"AD":4060,"ĠFrance":4061,".âĢĻ":4062,"Ġminister":4063,"21":4064,"Ġimpl":4065,"Ġcry":4066,"What":4067,"Ġleaving":4068,"Ġactual":4069,"Ġmechan":4070,"ona":4071,"gen":4072,"see":4073,"ĠChicago":4074,"Ġgreen":4075,"ĠSl":4076,"ĠHealth":4077,"Ġbeg":4078,"Ġir":4079,"ĠAtt":4080,"alse":4081,"Ġgold":4082,"Ġbehavior":4083,"ya":4084,"Ġwait":4085,"Ġposted":4086,"Ġbirth":4087,"Ġstation":4088,"ĠMike":4089,"Ġpush":4090,"Ġmer":4091,"ipp":4092,"Ġeye":4093,"Ġagreement":4094,"ijuana":4095,"ĠAM":4096,"Ġoffered":4097,"Ġensure":4098,"Ġappl":4099,"ĠLou":4100,"Ġweight":4101,"Ġeth":4102,"Ġweekend":4103,"Ġrank":4104,"ĠBit":4105,"mark":4106,"Ġvac":4107,"Ġpropos":4108,"itude":4109,"Ġwilling":4110,"Ġrevealed":4111,"ĠRel":4112,"Ġadop":4113,"But":4114,"Ġvalues":4115,"ĠSecret":4116,"Ġdetermin":4117,".'":4118,"www":4119,"earch":4120,"ipped":4121,"ĠStep":4122,"Ġapplication":4123,"rian":4124,"acing":4125,"Ġmostly":4126,"Ġestabl":4127,"ĠInstead":4128,"Ġperm":4129,"ront":4130,"ĠBush":4131,"ĠSub":4132,"ĠMal":4133,"soft":4134,"ĠWall":4135,"Ġadult":4136,"Ġpicture":4137,"Ġbrief":4138,"ĠDel":4139,"ĠOnce":4140,"Ġbelieved":4141,"Ġstrategy":4142,"ĠMil":4143,"Ġlearned":4144,"Ġrecords":4145,"istry":4146,"Ġchoose":4147,"Ġinstall":4148,"Ġwonder":4149,"IL":4150,"ĠMicro":4151,"Ġwhatever":4152,"cher":4153,"arliam":4154,"ĠPress":4155,"Ġqual":4156,"Ġdire":4157,"Ġlawy":4158,"ĠInc":4159,"SA":4160,"igned":4161,"Ġenforce":4162,"Ġcommit":4163,"Ġmassive":4164,"pri":4165,"ĠImage":4166,"Ġcars":4167,"Ġmount":4168,"ĠTer":4169,"ste":4170,"Ġstreet":4171,"OU":4172,"ection":4173,"Ġfeeling":4174,"ĠBig":4175,"Ġwild":4176,"Ġparties":4177,"Ġarrested":4178,"Ġdevices":4179,"ĠJohnson":4180,"ĠAre":4181,"500":4182,"inn":4183,"ĠLiber":4184,"Ġwhom":4185,"Ġassault":4186,"Ġwat":4187,"aby":4188,"Ġinfluence":4189,"Ġenter":4190,"Ġasking":4191,"ae":4192,"Ġlose":4193,"Ġmission":4194,"Ġborder":4195,"ented":4196,"Ġshowing":4197,"Ġprovides":4198,"Ġtemper":4199,"ĠFound":4200,"arliament":4201,"Ġproduced":4202,"Ġjudge":4203,"Ġcritical":4204,"ĠUnder":4205,"Ġconfirmed":4206,"Ġoperations":4207,"ĠEv":4208,"Ġimages":4209,"90":4210,"Ġtend":4211,"ĠPalest":4212,"Ġnegoti":4213,"point":4214,"Ġdrink":4215,"ĠJustice":4216,"ĠPri":4217,"ĠCommittee":4218,"orial":4219,"Ġdream":4220,"Ġcelebr":4221,"ĠWestern":4222,"Ġresidents":4223,"ĠCommission":4224,"aked":4225,"Ġruns":4226,"ĠGreat":4227,"Ġfat":4228,"rav":4229,"Ġproduce":4230,"Ġdistrict":4231,"ription":4232,"Ġetc":4233,"Ġteac":4234,"Ġdebt":4235,"rows":4236,"Ġcru":4237,"cont":4238,"no":4239,"ĠÃ":4240,"Ġopposition":4241,"ĠMad":4242,"estic":4243,"amb":4244,"ĠFrancis":4245,"Ġcore":4246,"ĠKorea":4247,"Ġbrand":4248,"Ġsection":4249,"Ġpattern":4250,"icial":4251,"Ġdefend":4252,"ugg":4253,"Ġindependent":4254,"ags":4255,"cell":4256,"Ġbenefit":4257,"ĠSecurity":4258,"Ġhero":4259,"Ġadvoc":4260,"ĠSanders":4261,"That":4262,"Ġtick":4263,"mine":4264,"Ġdollars":4265,"Ġeffective":4266,"ograph":4267,"And":4268,"Ġ;":4269,"ocr":4270,"Ġsolution":4271,"abor":4272,"Ġinterested":4273,"Ġdigital":4274,"ords":4275,"Ġvill":4276,"Ġhighest":4277,"hicle":4278,"Ġopening":4279,"Ġresponsible":4280,"Ġworse":4281,"rial":4282,"ĠTHE":4283,"ties":4284,"Ġlearning":4285,"Ġ80":4286,"ĠThose":4287,"Ġoffers":4288,"ĠNFL":4289,"ĠOffice":4290,"ĠGame":4291,"Ġreplace":4292,"ĠWindows":4293,"icians":4294,"Ġmemory":4295,"Ġrestrict":4296,"Ġagreed":4297,"ĠDist":4298,"Ġdaily":4299,"Ġfit":4300,"iation":4301,"ĠTy":4302,"Ġinvestment":4303,"ĠChris":4304,"Ġtrial":4305,"Ġtrain":4306,"ipe":4307,"ĠAny":4308,"Ġtypes":4309,"Ġmur":4310,"ĠDirect":4311,"gency":4312,"ĠCup":4313,"Ġoccas":4314,"ĠCommun":4315,"Ġ31":4316,"CC":4317,"Ġtheory":4318,"Ġmillions":4319,"BA":4320,"Ġchem":4321,"Ġbasis":4322,"Ġkick":4323,"Ġmarriage":4324,"Ġexplained":4325,"Ġchair":4326,"Ġgenerally":4327,"oly":4328,"Ġheavy":4329,"ĠUk":4330,"Ġtelevision":4331,"Ġder":4332,"illing":4333,"Ġproposed":4334,"Ġmiles":4335,"Ġopinion":4336,"ĠPhoto":4337,"uries":4338,"ĠSee":4339,"Ġdefe":4340,"Ġcondition":4341,"Ġ35":4342,"Ġjoin":4343,"aks":4344,"Ġmap":4345,"Ġonto":4346,"Ġprotest":4347,"Ġreject":4348,"Ġmale":4349,"Ġbecomes":4350,"âĢľ":4351,"Ġload":4352,"Ġachieve":4353,"Ġpartners":4354,"vest":4355,"Ġassociated":4356,"Ġdestroy":4357,"ĠTre":4358,"Ġvs":4359,"Ġassum":4360,"icip":4361,"Ġhundreds":4362,"azing":4363,"rate":4364,"Ġopened":4365,"Ġadvantage":4366,"Ġsurround":4367,"ĠCle":4368,"ĠAc":4369,"ĠBoth":4370,"Ġunderstanding":4371,"ĠHall":4372,"coming":4373,"Ġcoal":4374,"Ġphoto":4375,"ĠPet":4376,"outhern":4377,"ĠVir":4378,"ander":4379,"Ġobtain":4380,"Ġannounce":4381,"________":4382,"well":4383,"Ġice":4384,"Ġmanagement":4385,"Ġsleep":4386,"Ġship":4387,"eline":4388,"Ġborn":4389,"ĠFox":4390,"orthern":4391,"Ġeasier":4392,"ĠRobert":4393,"44":4394,"Ġlimit":4395,"Ġcontrovers":4396,"Ġinitial":4397,"known":4398,"Ġthus":4399,"Ġlegislation":4400,"Ġaccused":4401,"Ġbecoming":4402,"====":4403,"ĠIslamic":4404,"Ġspl":4405,"oom":4406,"Ġillegal":4407,"Ġunlike":4408,"ĠJud":4409,"ĠDet":4410,"Ġspecies":4411,"Ġ90":4412,"ĠOut":4413,"witch":4414,"ĠProf":4415,"Ġdouble":4416,"Ġ2006":4417,"BS":4418,"odes":4419,"Ġelectric":4420,"Ġprofessional":4421,"Ġcamera":4422,"Ġframe":4423,"Ġneighbor":4424,"Ġharm":4425,"olf":4426,"!!":4427,"AA":4428,"ference":4429,"ĠThom":4430,"ĠUN":4431,"Ġwealth":4432,"Ġlocation":4433,"Ġserved":4434,"ĠCanadian":4435,"ĠMer":4436,"ĠWil":4437,"Ġbelief":4438,"Ġresist":4439,"met":4440,"Ġshared":4441,"Ġnine":4442,"Ġserve":4443,"ĠBank":4444,"GB":4445,"Ġrat":4446,"Ġstrik":4447,"Ġnegative":4448,"ios":4449,"Ġextremely":4450,"Ġwinning":4451,"Ġbottom":4452,"Ġscientists":4453,"za":4454,"Ġdocuments":4455,"Ġactive":4456,"Ġmachine":4457,"Ġbed":4458,"ortunately":4459,"bert":4460,"Ġge":4461,"Ġpurpose":4462,"Ġsolid":4463,"Ġincred":4464,"Ġvictims":4465,"Ġreduce":4466,"Ġaudience":4467,"iful":4468,"Ġreturned":4469,"Ġdepartment":4470,"Ġamb":4471,"ĠPM":4472,"Ġmarijuana":4473,"FC":4474,"ears":4475,"ih":4476,"lant":4477,"lands":4478,"Ġchurch":4479,"Ġran":4480,"ĠVer":4481,"ĠJones":4482,"Ġexisting":4483,"Ġnotice":4484,"istics":4485,"house":4486,"Ġexplain":4487,"ĠLeg":4488,"Ġcommunities":4489,"equ":4490,"Ġbomb":4491,"Ġvictory":4492,"Ġleadership":4493,"ĠDespite":4494,"ĠJim":4495,"Ġdie":4496,"Ġinstance":4497,"atically":4498,"Ġdoubt":4499,"Ġcomfort":4500,"Ġargument":4501,"Ġteach":4502,"ĠBritain":4503,"Ġwatching":4504,"ĠInstitute":4505,"ĠKen":4506,"Ġunc":4507,"Ġfaith":4508,"ĠCarol":4509,"36":4510,"ghan":4511,"ĠLos":4512,"ĠTheir":4513,"Ġnotes":4514,"Ġputting":4515,"Ġmobile":4516,"Ġseparate":4517,"miss":4518,"Ġhearing":4519,"rad":4520,"Ġinternet":4521,"acity":4522,"Ġepisode":4523,"ĠQue":4524,"how":4525,"Ġpet":4526,"Ġfresh":4527,"Ġdefinitely":4528,"ĠMiss":4529,"ĠSil":4530,"asy":4531,"Ġbackground":4532,"Ġviews":4533,"When":4534,"Ġvehicle":4535,"Ġcommittee":4536,"Ġconservative":4537,"iller":4538,"ĠToday":4539,"ĠBur":4540,"Ġpurs":4541,"works":4542,"ĠYet":4543,"Ġcoverage":4544,"Ðµ":4545,"ĠIsraeli":4546,"32":4547,"OL":4548,"Ġfloor":4549,"scrib":4550,"ĠFBI":4551,"ĠChurch":4552,"ĠTim":4553,"Ġlaunched":4554,"Ġdirection":4555,"ography":4556,"iliar":4557,"Ġsupporters":4558,"Ġissued":4559,"Ġmax":4560,"Ġdangerous":4561,"Ð°":4562,"inct":4563,"Ġtrend":4564,"resp":4565,"zen":4566,"Ġsun":4567,"ĠJeff":4568,"Ġradio":4569,"ĠFrank":4570,"Ġcompetition":4571,"Ġnorth":4572,"PS":4573,"38":4574,"Ġdrugs":4575,"Ġsuggested":4576,"Ġsites":4577,"ĠInter":4578,"75":4579,"orrow":4580,"inate":4581,"andom":4582,"Ġlabor":4583,"Ġ70":4584,"ga":4585,"Ġstructure":4586,"la":4587,"ãĤ":4588,"Ġspoke":4589,"Ġcards":4590,"ario":4591,"gu":4592,"Ġrepeated":4593,"Ġitems":4594,"Ġcommercial":4595,"Ġtraffic":4596,"Ġdecade":4597,"Ġnovel":4598,"ĠMicrosoft":4599,"Ġstated":4600,"Ġfalse":4601,"do":4602,"vention":4603,"ĠUkrain":4604,"going":4605,"Ġcontain":4606,"gers":4607,"Ġrefere":4608,"Ġworst":4609,"Ġclosed":4610,"ĠFore":4611,"ĠChar":4612,"anted":4613,"Ġtask":4614,"Ġcharged":4615,"Ġtransfer":4616,"ribute":4617,"Ġdisease":4618,"ampionship":4619,"Ġreact":4620,"Ġhus":4621,"Ġdriver":4622,"Ġsmaller":4623,"ctors":4624,"Ġnor":4625,"ĠGood":4626,"which":4627,"ĠSur":4628,"ĠPlease":4629,"Ġded":4630,"bing":4631,"Ġrestaur":4632,"Ġdaughter":4633,"Ġdriving":4634,"Ġtelling":4635,"ius":4636,"semb":4637,"Ġentirely":4638,"ĠPak":4639,"Ġdiscovered":4640,"Ġhack":4641,"Ġplays":4642,"Ġtools":4643,"ĠConst":4644,"34":4645,"Ġcash":4646,"Ġsurface":4647,"ĠGree":4648,"Ġgay":4649,"ĠCur":4650,"Ġconcerned":4651,"Ġsupported":4652,"Ġexerc":4653,"Ġtransport":4654,"Ġanimals":4655,"rey":4656,"Ġaspect":4657,"Ġcompar":4658,"ĠSup":4659,"Ġfinding":4660,"ĠPC":4661,"iling":4662,"ulated":4663,"ĠRyan":4664,"icy":4665,"ĠWho":4666,"ulf":4667,"inter":4668,"Ġplease":4669,"NN":4670,"Ġolder":4671,"andon":4672,"Ġcateg":4673,"gl":4674,"overy":4675,"For":4676,"Ġcandidates":4677,"azon":4678,"tered":4679,"ĠRichard":4680,"Ġrequires":4681,"oman":4682,"oyal":4683,"iest":4684,"Ġstrength":4685,"hem":4686,"ĠKh":4687,"Ġfarm":4688,"eal":4689,"Ġwel":4690,"Ġcontext":4691,"ĠBack":4692,"Ġbusinesses":4693,"annel":4694,"Ġactivities":4695,"ait":4696,"ibrary":4697,"but":4698,"Ġcaught":4699,"Ġlargely":4700,"Ġtesting":4701,"phone":4702,"Ġannual":4703,"night":4704,"Ġconsequ":4705,"Ġallowing":4706,"ĠDec":4707,"udd":4708,"Ġfuel":4709,"ĠJo":4710,"Ġblue":4711,"Ġraise":4712,"!âĢĿ":4713,"izes":4714,"PA":4715,"Ġinsurance":4716,"ossible":4717,"Ġmurder":4718,"Ġstock":4719,"Ġstrateg":4720,"EM":4721,"ĠJewish":4722,"Ġgeneration":4723,"arant":4724,"ception":4725,"Ġconcern":4726,"NA":4727,"kins":4728,"Ġbelieves":4729,"ĠSal":4730,"Ġtruly":4731,"Ġaccur":4732,"Ġafford":4733,"ĠAfghan":4734,"ĠGOP":4735,"Ġdecisions":4736,"rick":4737,"ici":4738,"Ġphil":4739,"ĠGroup":4740,"ĠAfrican":4741,"Ġconstruction":4742,"itable":4743,"Ġjustice":4744,"osure":4745,"ĠNor":4746,"ada":4747,"Ġwitness":4748,"Ġholding":4749,"ĠAfrica":4750,"ST":4751,"ava":4752,"Ġguess":4753,"ĠAssociation":4754,"igrants":4755,"ĠTeam":4756,"Ġpresence":4757,"cript":4758,"37":4759,"anging":4760,"Ġunit":4761,"Ġattend":4762,"48":4763,"Ġtim":4764,"Ġscale":4765,"ĠRock":4766,"Ġplanning":4767,"cknow":4768,"ĠST":4769,"Ġrefuge":4770,"olly":4771,"Ġsan":4772,"ĠRem":4773,"Ġrough":4774,"Ġplaced":4775,"Ġtells":4776,"pective":4777,"Ġlength":4778,"55":4779,"ĠJoe":4780,"bre":4781,"Don":4782,"spe":4783,"Ġestablish":4784,"Ġsequ":4785,"cient":4786,"Ġmentioned":4787,"ĠPalestin":4788,"ancy":4789,"Ġwaiting":4790,"Ġcatch":4791,"Ġspokesman":4792,"Ġjoined":4793,"Ġkid":4794,"ĠMP":4795,"ĠLouis":4796,"ĠPakistan":4797,"Ġconflict":4798,"Ġhasn":4799,"ĠVirgin":4800,"ĠMartin":4801,"Ġ2018":4802,"Ġmissing":4803,"ocracy":4804,"Ġiniti":4805,"Ġdeliver":4806,"ĠIr":4807,"Ġupdate":4808,"Ġabuse":4809,"igan":4810,"nel":4811,"ĠMont":4812,"Ġinjury":4813,"Ġrecommend":4814,"ĠFe":4815,"ĠAngeles":4816,"Ġinterests":4817,"ĠGovernment":4818,"Ġ2005":4819,"ĠJapanese":4820,"Ġintroduced":4821,"Ġproviding":4822,"Ġenforcement":4823,"ĠCEO":4824,"ĠFire":4825,"isation":4826,"Ġestablished":4827,"Ġoccup":4828,"icon":4829,"Ġeat":4830,"Ġremoved":4831,"onym":4832,"Ġcells":4833,"bour":4834,"win":4835,"vant":4836,"Ġconversation":4837,"Ġbanks":4838,"Ġcancer":4839,"Ġdiscussion":4840,"ĠAndroid":4841,"Ġfant":4842,"Ġstopped":4843,"ady":4844,"Ġhttps":4845,"ĠTime":4846,"cks":4847,"SP":4848,"ĠThomas":4849,"Ġuseful":4850,"ĠMexico":4851,"icles":4852,"itz":4853,"Ġnewsp":4854,"Ġhomes":4855,"ĠJose":4856,"Ġoffensive":4857,"Ġassess":4858,"azine":4859,"Ġdownload":4860,"Ġsouth":4861,"Ġsports":4862,"Ġcook":4863,"oted":4864,"Ġfourth":4865,"Ġobvious":4866,"Ġtransl":4867,"ula":4868,"Ġmodels":4869,"Ġbul":4870,"Ġhousing":4871,"owl":4872,"Ġstick":4873,"Ġmeasures":4874,"kin":4875,"umn":4876,"onto":4877,"ications":4878,"Ġgirls":4879,"Ġoperation":4880,"anda":4881,"Ġsetting":4882,"formation":4883,"Ġfiles":4884,"Ġmanaged":4885,"season":4886,"oms":4887,"Ġidentified":4888,"Ġhair":4889,"Ġfocused":4890,"39":4891,"Ġappropri":4892,"ĠMary":4893,"Ġfinished":4894,"Ġprefer":4895,"Ġarrived":4896,"Ġspirit":4897,"real":4898,"Ġskills":4899,"Ġearth":4900,"ĠSupreme":4901,"Ġveter":4902,"Ġfigures":4903,"place":4904,"ulate":4905,"Ġ32":4906,"what":4907,"ĠBern":4908,"Ġ2000":4909,"Ġacknow":4910,"Ġconclud":4911,"Ġtherefore":4912,"Ġcommitted":4913,"****":4914,"ups":4915,"Ġkeeping":4916,"ĠWeb":4917,"Ġfunds":4918,"ading":4919,"ĠResearch":4920,"verse":4921,"Ġexclus":4922,"47":4923,"ĠJon":4924,"apped":4925,"Ġidentity":4926,"Ġtough":4927,"lig":4928,"ĠArmy":4929,"Ġexchange":4930,"outs":4931,"Ġotherwise":4932,"Ġfeels":4933,"Ġclick":4934,"Ġpartner":4935,"hi":4936,"ĠPut":4937,"ication":4938,"ĠPeter":4939,"Ġrelatively":4940,"Ġowner":4941,"enses":4942,"Ġdetect":4943,"Ġsurvey":4944,"eah":4945,"âĢĶâĢĶ":4946,"agn":4947,"Ġtrip":4948,"itutional":4949,"wing":4950,"ronic":4951,"Ġsteps":4952,"Is":4953,"Ġslightly":4954,"ka":4955,"Ġconnection":4956,"rig":4957,"Ġtweet":4958,"Ġphotos":4959,"Ã¡":4960,"upp":4961,"dden":4962,"Ġdepend":4963,"Ġhusband":4964,"ĠSol":4965,"ocal":4966,"gar":4967,"Ġweak":4968,"Ġprotection":4969,"Ġgender":4970,"uct":4971,"49":4972,"Ġdefensive":4973,"Ġ45":4974,"Ġmere":4975,"Ġelements":4976,"ĠDen":4977,"icide":4978,"rency":4979,"Ġstrike":4980,"Ġfle":4981,"isf":4982,"Ġcircum":4983,"ighter":4984,"Ġgain":4985,"Ġcorner":4986,"Ġkilling":4987,"vis":4988,"ĠPrime":4989,"ils":4990,"Ġcollection":4991,"\":":4992,"ucky":4993,"Ġroll":4994,"Ġdat":4995,"Ġsuggests":4996,"ania":4997,"ancing":4998,"Ġsust":4999,"ĠCollege":5000,"makers":5001,"Ġaggress":5002,"Ġcommission":5003,"Ġwindow":5004,"prof":5005,"rd":5006,"Ġsupply":5007,"mas":5008,"stream":5009,"DA":5010,"ĠLu":5011,"TC":5012,"##":5013,"Ġtaxes":5014,"ĠPublic":5015,"hens":5016,"Ġbigger":5017,"odies":5018,"hedul":5019,"ĠImages":5020,"Ġmicro":5021,"RA":5022,"Ġfailure":5023,"Ġmental":5024,"Ġremind":5025,"ano":5026,"Ġamazing":5027,"Ġstruct":5028,"Ġsides":5029,"ĠSecretary":5030,"Ġplanet":5031,"lor":5032,"Ġspeaking":5033,"Ġhappening":5034,"Ġstarts":5035,"ĠIN":5036,"iot":5037,"Ġorganizations":5038,"ĠAtlant":5039,"Ġnone":5040,"Ġguard":5041,"ãĥ":5042,"Ġplanned":5043,"Ġsudden":5044,"Re":5045,"Ġfamiliar":5046,"Ġtalks":5047,"Ġthanks":5048,"adium":5049,"Ġspect":5050,"uate":5051,"Ġwish":5052,"amm":5053,"rees":5054,"Ġhate":5055,"Ġaward":5056,"ĠCamp":5057,"Ġcrew":5058,"Ġdecide":5059,"gypt":5060,"idering":5061,"Ġarmy":5062,"Ġimmigration":5063,"ĠAN":5064,"Ġcarried":5065,"Ġseconds":5066,"Ġscript":5067,"Ġregist":5068,"Ġscientific":5069,"Ġappoint":5070,"ĠMos":5071,"ynam":5072,"ĠMean":5073,"Ġstanding":5074,"eless":5075,"ĠSyrian":5076,"ĠProt":5077,"Ġhelping":5078,"range":5079,"agues":5080,"ola":5081,"uters":5082,"Ġbeer":5083,"CH":5084,"Ġmulti":5085,"Ġrevolution":5086,"ĠMars":5087,"ias":5088,"oston":5089,"ĠBitcoin":5090,"ĠJes":5091,"Ġfiled":5092,"awn":5093,"ĠAmazon":5094,"ĠService":5095,"Ġenvironmental":5096,"Ġdomestic":5097,"imal":5098,"Ġque":5099,"ocol":5100,"Ġstandards":5101,"Ġvariety":5102,"ĠPlan":5103,"gn":5104,"Ġmarkets":5105,"No":5106,"Ġphilos":5107,"ĠBet":5108,"Ġsch":5109,"65":5110,"Ġbatter":5111,"ĠAri":5112,"Ġturns":5113,"erous":5114,"aven":5115,"Sh":5116,"Ġtack":5117,"Ġimpossible":5118,"ĠCentral":5119,"Ġpair":5120,"Ġvotes":5121,"].":5122,"Ġaccounts":5123,"ĠToronto":5124,"ĠBob":5125,"ĠMur":5126,"Ġdegree":5127,"Ġvul":5128,"Ġdropped":5129,"Ġacadem":5130,"Ġcold":5131,"Ġinteract":5132,"Ġterrit":5133,"ĠOpen":5134,"Ġneighborhood":5135,"Ġpossibly":5136,"ĠSocial":5137,"Ġbalance":5138,"Ġserver":5139,"Ġoperating":5140,"Ġappre":5141,"Ġprofessor":5142,"iser":5143,"aded":5144,"Ġtests":5145,"Ġalternative":5146,"aren":5147,"fe":5148,"Ġhonest":5149,"Ġworry":5150,"illa":5151,"Ġcuts":5152,"run":5153,"Ġunion":5154,"HL":5155,"!\"":5156,"Ġrich":5157,"ipping":5158,"Ġincreasingly":5159,"ĠFoundation":5160,"pm":5161,"Ġfellow":5162,"Ġprinc":5163,"ĠDan":5164,"Ġ//":5165,"Ġapply":5166,"cious":5167,"Ġlived":5168,"Ġchanging":5169,"Ġlosing":5170,"ruit":5171,"arks":5172,"itect":5173,"hicles":5174,"Ġapparently":5175,"ĠRub":5176,"with":5177,"ĠUSA":5178,"Ġunivers":5179,"rastructure":5180,"ĠDistrict":5181,"Ġdevelopers":5182,"Ġultimately":5183,"Ġhumans":5184,"Ġagencies":5185,"icted":5186,"ĠCarolina":5187,"Ġsounds":5188,"ores":5189,"Ġtwice":5190,"Ġreligion":5191,"Ġsea":5192,"Ġcolle":5193,"Ġabsolutely":5194,"=\"":5195,"ashed":5196,"ĠRE":5197,"Ġath":5198,"och":5199,"ĠSecond":5200,"ĠVe":5201,"0000":5202,"Ġsoldiers":5203,"ansion":5204,"Ġcloser":5205,"Ġinnov":5206,"stein":5207,"Ġunits":5208,"Ġschedul":5209,"Ġmut":5210,"ĠChief":5211,"Ġauthority":5212,"Ġhealthy":5213,"Ġbeautiful":5214,"Ð¸":5215,"ĠEgypt":5216,"ĠBefore":5217,"Ġequip":5218,"Ġpossibility":5219,"acks":5220,"Ġpaying":5221,"ĠFederal":5222,"Americ":5223,"roud":5224,"Ġdeveloping":5225,"Ġexpensive":5226,"Ġyards":5227,"Ġcorporate":5228,"Ġflight":5229,"Ġvast":5230,"Ġwriter":5231,"Ġskin":5232,"aine":5233,"Ġapart":5234,"ĠMiddle":5235,"46":5236,"Ġregarding":5237,"coh":5238,"ĠMel":5239,"ĠFree":5240,"Ġadjust":5241,"ĠMass":5242,"Ġdeploy":5243,"ĠWhe":5244,"Ġseeking":5245,"Ġexperts":5246,"Ġvir":5247,"Ġimagine":5248,"isted":5249,"ĠSteve":5250,"ĠBoston":5251,"Ġsolar":5252,"ÃĤ":5253,"ĠMedia":5254,"Ġapplications":5255,"Ġtast":5256,"related":5257,"ĠGal":5258,"Ġ2004":5259,"ĠLat":5260,"Ġanimal":5261,"Ġsitting":5262,"ĠCru":5263,"ĠFrancisco":5264,"ĠSpr":5265,"Ġinternal":5266,"apers":5267,"Ġvision":5268,"Ġcapacity":5269,"ologies":5270,"atures":5271,"ĠLee":5272,"Ġheat":5273,"Ġcovered":5274,"Ġpil":5275,"IV":5276,"ĠMem":5277,"ĠThough":5278,"ĠSing":5279,"look":5280,"pire":5281,"Ġgar":5282,"Ġpit":5283,"Ġelim":5284,"osen":5285,"Ġunless":5286,"ĠBook":5287,"Ġarms":5288,"Ġerror":5289,"Ġtrail":5290,"Ġresponsibility":5291,"Ġelections":5292,"ĠWatch":5293,"Ġlob":5294,"ĠJournal":5295,"ION":5296,"state":5297,"ENT":5298,"Ġuniversity":5299,"IM":5300,"oving":5301,"Ġpresented":5302,"ĠWilliams":5303,"Ġfol":5304,"Ġfamous":5305,"Ġforms":5306,"ĠSant":5307,"enced":5308,"sen":5309,"lets":5310,"ĠEach":5311,"Ġearn":5312,"Ġsurprise":5313,"idden":5314,"Ġguarant":5315,"Ġfif":5316,"Ġattorney":5317,"Ġconvention":5318,"Ġodd":5319,"ĠTop":5320,"Ġsymb":5321,"ĠPhot":5322,"ayer":5323,"Ġtight":5324,"uration":5325,"rible":5326,"Ġrid":5327,"ĠCath":5328,"ortion":5329,"ÑĤ":5330,"uster":5331,"ĠPower":5332,"Ġsport":5333,"Ġbroken":5334,"IP":5335,"Ġhelps":5336,"Ġteen":5337,"ĠMs":5338,"Ġintended":5339,"ĠVirginia":5340,"ĠOnly":5341,"mail":5342,"Ġinstit":5343,"under":5344,"ĠRo":5345,"pret":5346,"Ġvehicles":5347,"ĠSign":5348,"Ġestimated":5349,"porary":5350,"ĠStill":5351,"Ġclim":5352,"Ġflow":5353,"ressive":5354,"Ġshall":5355,"ĠHist":5356,"hand":5357,"Ġstreets":5358,"Ġoccurred":5359,"cel":5360,"Ġdetermine":5361,"ĠColor":5362,"Ġconsult":5363,"()":5364,"Ġton":5365,"31":5366,"ĠConserv":5367,"person":5368,"ĠCharl":5369,"Ġexpert":5370,"Ġpieces":5371,"Ġfired":5372,"ĠParis":5373,"anche":5374,"Ġtroops":5375,"----------------":5376,"alls":5377,"ĠAustralian":5378,"ĠGuard":5379,"Ġlocated":5380,"useum":5381,"ĠRad":5382,"xual":5383,"terday":5384,"rie":5385,"Ġprove":5386,"Ġrapid":5387,"OW":5388,"Ġstars":5389,"Ġprepared":5390,"oty":5391,"orage":5392,"Ãĥ":5393,"Ġspecifically":5394,"Ġbringing":5395,"Ġpotentially":5396,"ĠSaud":5397,"LE":5398,"ĠRiver":5399,"Ġhyp":5400,"Ġnar":5401,"Ġconclus":5402,"phas":5403,"eder":5404,"Ġsector":5405,"Ġrandom":5406,"ĠShow":5407,"Ġboost":5408,"Ġfaster":5409,"Ġgovernments":5410,"Ġstress":5411,"Ġplenty":5412,"ss":5413,"Ġvulner":5414,"ym":5415,"Ġselling":5416,"Ġequipment":5417,"ĠProject":5418,"Ġbreat":5419,"Ġbaby":5420,"ĠMedic":5421,"Ġseasons":5422,"Ġproposal":5423,"Ġcouncil":5424,"ĠAv":5425,"Ġheav":5426,"Ġjail":5427,"ĠNov":5428,"Ġruling":5429,"Ġ=>":5430,"endment":5431,"Ġremove":5432,"ader":5433,"Ġrefused":5434,"Ġfactors":5435,"cean":5436,"Ġinfrastructure":5437,"ini":5438,"Ġdin":5439,"Ġera":5440,"Ġoffering":5441,"Ġsecure":5442,"mm":5443,"Ġbroke":5444,"Ġweapon":5445,"Ġdram":5446,"Ġprosecut":5447,"Ġclin":5448,"Ġclot":5449,"ĠTra":5450,"Ġexpressed":5451,"Ġvoted":5452,"ht":5453,"Ġequal":5454,"ĠAndrew":5455,"ĠWork":5456,"ĠIsland":5457,"Ġchallenges":5458,"road":5459,"Ġmethods":5460,"Ġconducted":5461,"vey":5462,"war":5463,"ey":5464,"isher":5465,"noon":5466,"ureau":5467,"ĠHol":5468,"Ġelected":5469,"Ġcombat":5470,"ean":5471,"Ġcarbon":5472,"DP":5473,"Ġtourn":5474,"Ġpointed":5475,"Ġpositions":5476,"yr":5477,"ĠOk":5478,"ĠNAS":5479,",'":5480,"Ġtrig":5481,"Ġremained":5482,"Ġprime":5483,"ĠSum":5484,"rog":5485,"Ġcultural":5486,"Ġretail":5487,"ĠJackson":5488,"Ġoriginally":5489,"ocking":5490,"olit":5491,"eds":5492,"ĠSpace":5493,"Ġmaster":5494,"onom":5495,"ĠHaw":5496,"issions":5497,"Ġsigns":5498,"Ġfinish":5499,"ashion":5500,"Ġcriticism":5501,"ĠMeanwhile":5502,"Ġweren":5503,"lyn":5504,"Ġshape":5505,"Ġthank":5506,"Ġpercentage":5507,"Ġgreatest":5508,"Ġsale":5509,"Ġsignificantly":5510,"Ġappearance":5511,"ĠPac":5512,"ĠForce":5513,"etic":5514,"Ġvoting":5515,"Ġfacing":5516,"olved":5517,"Ġyouth":5518,"ĠWhere":5519,"Ġstret":5520,"ours":5521,"Ġinvolve":5522,"Ġ500":5523,"ĠHuman":5524,"Ġaffected":5525,"Ġtele":5526,"pired":5527,"lymp":5528,"Ġdetermined":5529,"Ġreduced":5530,"Ġwood":5531,"Ġregime":5532,"UT":5533,"Ġchemical":5534,"rier":5535,"standing":5536,"64":5537,"Ġbought":5538,"Ġherself":5539,"Ġmode":5540,"Ġmarg":5541,"Ġindeed":5542,"Tr":5543,"Ġobviously":5544,"Ġminimum":5545,"ĠDaily":5546,"IG":5547,"arp":5548,"Ġgrew":5549,"Ġhurt":5550,"ĠBBC":5551,"My":5552,"Ġthr":5553,"reens":5554,"Ġhandle":5555,"Ġremaining":5556,"Ġ1990":5557,"Ġhun":5558,"ĠDou":5559,"Ġcontrast":5560,"ĠMaybe":5561,"Ġrent":5562,"95":5563,"Ġplus":5564,"ĠRoad":5565,"Ġpoliticians":5566,"Ġcas":5567,"Ġargued":5568,"ĠDirector":5569,"gment":5570,"ighters":5571,"inating":5572,"Ġsupporting":5573,"ĠMa":5574,"Ġswitch":5575,"ĠLabour":5576,"Ġrecorded":5577,"ĠAT":5578,"Ġsubs":5579,"col":5580,"Ġleads":5581,"ĠSupp":5582,"Ġrevenue":5583,"Ġpurchase":5584,"Ġsurprising":5585,"Ġappreci":5586,"Ġwearing":5587,"Ġbound":5588,"Ġproced":5589,"Ġtact":5590,"Ġexcited":5591,"Ġconsidering":5592,"ĠDown":5593,"Ġvideos":5594,"Ġminute":5595,"Ġfilms":5596,"Ġexplos":5597,"Ġbasically":5598,"Ġ195":5599,"ownt":5600,"Ġexperienced":5601,"Ġpanel":5602,"Ġaid":5603,"Ġdifferences":5604,"Ġturning":5605,"Ġconcent":5606,"Ġexperiment":5607,"Ġidentify":5608,"cohol":5609,"Ġaccident":5610,"Ġshift":5611,"essions":5612,"Ġopportunities":5613,"lo":5614,"Ġafternoon":5615,"Ġbelong":5616,"Ġspring":5617,"Ġobserv":5618,"ĠOlymp":5619,"ogue":5620,"ĠRod":5621,"Ġpulled":5622,"Ġseriously":5623,"Ġaircraft":5624,"Ġmotiv":5625,"Ġglass":5626,"ĠWal":5627,"ruption":5628,"ĠTurkey":5629,"class":5630,"ller":5631,"Ġconsumers":5632,"ĠAbout":5633,"ĠDevelop":5634,"Ġprospect":5635,"life":5636,"Ġagent":5637,"ĠOl":5638,"Ġlisten":5639,"Ġdiss":5640,"Ġseat":5641,"Ġdim":5642,"top":5643,"Ġends":5644,"ĠFer":5645,"Ġdepart":5646,"So":5647,"Ġevening":5648,"ĠHy":5649,"Get":5650,"Ġemergency":5651,"Ġvisual":5652,"Ġcompleted":5653,"asp":5654,"ĠPenn":5655,"osite":5656,"Ġtreated":5657,"01":5658,"Ġid":5659,"05":5660,"Ġelement":5661,"Ġast":5662,"Ġpackage":5663,"apping":5664,"ĠTechn":5665,"ĠRon":5666,"hered":5667,"pet":5668,"apter":5669,"uts":5670,"Ġcombined":5671,"Ġconstruct":5672,"ĠiPh":5673,"ĠSystem":5674,"Ġstruggle":5675,"plom":5676,"Ġlots":5677,"Ġenemy":5678,"ĠSqu":5679,"ita":5680,"Ġhopes":5681,"Ġapps":5682,"Ġmort":5683,"mes":5684,"ĠGen":5685,"Ġpassing":5686,"Ġtalked":5687,"ĠJul":5688,",[":5689,"Ġ36":5690,"Ġsuppl":5691,"anged":5692,"Ġprivacy":5693,"ĠWood":5694,"that":5695,"Ġ2003":5696,"ĠLin":5697,"ket":5698,"Ġpowers":5699,"ucks":5700,"ensions":5701,"Ġplants":5702,"abilities":5703,"raud":5704,"Ġdiscl":5705,"Ġopposed":5706,"Ġwidely":5707,"Ġsuit":5708,"Ġadvance":5709,"ĠOhio":5710,"ivered":5711,"Ġcalcul":5712,"PD":5713,"Ġtrouble":5714,"Ġdismiss":5715,"nell":5716,"ĠBus":5717,"uous":5718,"Ġproceed":5719,"Ġpages":5720,"Ġburn":5721,"ĠVict":5722,"Ġattempts":5723,"ato":5724,"ĠSher":5725,"Ġsad":5726,"ĠAC":5727,"Ġfactor":5728,"oral":5729,"Ġdistance":5730,"Ġliberal":5731,"Ġzone":5732,"Ġcopyright":5733,"ĠScience":5734,"Ġdefault":5735,"oking":5736,"Ġreference":5737,"ĠGrand":5738,"Ġtun":5739,"Ġfrust":5740,"Ġcart":5741,"Ġreaction":5742,"ĠKim":5743,"rawn":5744,"Ġstorm":5745,"estival":5746,"Ġreporters":5747,"Ġupgr":5748,"ĠIts":5749,"Ġcollabor":5750,"Ġ\\":5751,"Ġtypically":5752,"gent":5753,"Ġvalid":5754,"Ġgrab":5755,"adow":5756,"zer":5757,"Ġsac":5758,"rist":5759,"ĠAgain":5760,"Ġinstruct":5761,"Ġment":5762,"Ġhol":5763,"li":5764,"lines":5765,"ĠSomet":5766,"Ġquant":5767,"ributed":5768,"mosp":5769,"aped":5770,"mond":5771,"Ġquiet":5772,"Ġcoord":5773,"Ġwrites":5774,"sts":5775,"Ġdisappoint":5776,"idel":5777,"Ġ2001":5778,"ĠRev":5779,"Ġdenied":5780,"ĠWeek":5781,"respond":5782,"Ġapproved":5783,"ĠEr":5784,"Ġbodies":5785,"aints":5786,"care":5787,"Ġappeal":5788,"ache":5789,"ĠLife":5790,"Ġmatters":5791,"ĠStr":5792,"ĠDani":5793,"razy":5794,"Ġoptim":5795,"Ġentertain":5796,"Ġbatt":5797,"Ġresponded":5798,"urb":5799,"Ġsets":5800,"Ġstands":5801,"ompl":5802,"ĠIll":5803,"ĠRight":5804,"ĠML":5805,"ĠFar":5806,"elly":5807,"Ġcapable":5808,"Ġconfidence":5809,"Ġrenew":5810,"ffee":5811,"ÃĤÃĥ":5812,"Ġexplo":5813,"Ġmal":5814,"ĠAfghanistan":5815,"Ġtradition":5816,"ternal":5817,"ĠLook":5818,"ĠBraz":5819,"Ġcreation":5820,"oken":5821,"esters":5822,"Ġgiant":5823,"Ġinstitutions":5824,"ĠBest":5825,"ĠThanks":5826,"ĠThank":5827,"Ġweather":5828,"hab":5829,"PR":5830,"free":5831,"Ġconfident":5832,"Ġunable":5833,"Ġpitch":5834,"ĠPR":5835,"ĠAD":5836,"Ġsatisf":5837,"Ġbroadcast":5838,"Ġcloud":5839,"Ġcoast":5840,"Ġsevere":5841,"Ġprompt":5842,"Ġperspective":5843,"Ġgra":5844,"Ġmand":5845,"Ġfly":5846,"ĠCNN":5847,"Ġadvert":5848,"Ġtransition":5849,"isters":5850,"42":5851,"Ġnumerous":5852,"Ġtechnical":5853,"pass":5854,"unte":5855,"Ġcaption":5856,"ĠSeattle":5857,"ĠScot":5858,"ĠVol":5859,"obe":5860,"88":5861,"can":5862,"abled":5863,"Ġreportedly":5864,"ĠTO":5865,"employ":5866,"Ġcrimes":5867,"abin":5868,"host":5869,"Ġpictures":5870,"Ġlit":5871,"ĠIre":5872,"Ġordered":5873,"Ġloved":5874,"Ġcraft":5875,"Ġfaces":5876,"Ġforget":5877,"Ġflag":5878,"Ġadvice":5879,"ĠHen":5880,"Ġexperiences":5881,"unction":5882,"Ġvan":5883,"Ġexplains":5884,"Ġroute":5885,"Ġshouldn":5886,"Ġapprox":5887,"Ġdeclared":5888,"Ġsuffered":5889,"ĠGM":5890,"Ġviolent":5891,"ĠNote":5892,"Ġreporting":5893,"Ġmessages":5894,"Ġproud":5895,"ishes":5896,"astern":5897,"ĠCarl":5898,"ĠStan":5899,"ampion":5900,"Ġmovies":5901,"Ġdelay":5902,"Ġsubstant":5903,"ĠSaudi":5904,"],":5905,"Ã¤":5906,"Ġnewspaper":5907,"Ġbull":5908,"Ġongoing":5909,"Ġguns":5910,"Ġcircumst":5911,"ĠMichigan":5912,"Ġcann":5913,"ilty":5914,"ĠChristmas":5915,"Ġconnected":5916,"Le":5917,"Ġdeclined":5918,"Ġcooper":5919,"Ġeval":5920,"fere":5921,"ĠFour":5922,"ĠID":5923,"New":5924,"Ġdelivered":5925,"oves":5926,"Ġinjured":5927,"Ġexcell":5928,"ulations":5929,"Ġthoughts":5930,"Ġpicked":5931,"ĠSov":5932,"ĠGar":5933,"ĠLong":5934,"Ġdiscrim":5935,"Ġaccompl":5936,"ĠUkraine":5937,"Ġfindings":5938,"Ġadmitted":5939,"Ġappropriate":5940,"Ġforg":5941,"Ġbrows":5942,"Ġec":5943,"Ġleaves":5944,"ĠBlue":5945,"ĠHou":5946,"Ġgather":5947,"ĠHel":5948,"ellow":5949,"Ġprin":5950,"Ġemphas":5951,"ionally":5952,"ĠMuslims":5953,"Ġrot":5954,"Ġmarried":5955,"dule":5956,"angers":5957,"nergy":5958,"rant":5959,"rum":5960,"Ġedge":5961,"gia":5962,"Ġpublicly":5963,"ĠMount":5964,"called":5965,"uations":5966,"Ġrail":5967,"Ġupdates":5968,"essor":5969,"Ġreaders":5970,"Ġarchitect":5971,",âĢĻ":5972,"Ġwalking":5973,"Ġperman":5974,"43":5975,"Ġemails":5976,"ĠPrem":5977,"hew":5978,"Ġeditor":5979,"Ġgraph":5980,"ĠWalk":5981,"ansas":5982,"Ġrealize":5983,"Ġdial":5984,"Ġdrivers":5985,"Ġlawyer":5986,"Ġstatements":5987,"Ġauth":5988,"tion":5989,"rid":5990,"long":5991,"ĠDev":5992,"Ġgod":5993,"ooth":5994,"Ġsession":5995,"Ġconfirm":5996,"Ġlegit":5997,"Ġactivists":5998,"Ġexercise":5999,"Ġourselves":6000,"Ġcontains":6001,"Ġ1980":6002,"Ġpool":6003,"date":6004,"Ġarmed":6005,"ĠRomney":6006,"enda":6007,"Ġagents":6008,"Ġargue":6009,"Ġterrorist":6010,"mates":6011,"IR":6012,"Ġpatient":6013,"ĠElect":6014,"uls":6015,"ĠAnn":6016,"Ġ33":6017,"aza":6018,"Ġmoral":6019,"Ġtalent":6020,"Ġquarterback":6021,"Ġobjects":6022,"Ġfilled":6023,"Ġtech":6024,"Ġbuildings":6025,"enture":6026,"TV":6027,"Ġcrack":6028,"Ġtransform":6029,"Ġlabel":6030,"Ġtree":6031,"ourney":6032,"Ġpractices":6033,"Ġdynam":6034,"uild":6035,"cons":6036,"ĠExp":6037,"ÃĤÃĥÃĤÃĥ":6038,"acter":6039,"ĠLake":6040,"iat":6041,"Ġeffectively":6042,"Ġmissed":6043,"Ĥ¬":6044,"Ġexamples":6045,"Ġflo":6046,"Ñģ":6047,"amental":6048,"Ġcentre":6049,"Ġcauses":6050,"Ġshop":6051,"Ġske":6052,"Ġwear":6053,"ERS":6054,"ĠSky":6055,"Ġsubsequ":6056,"Ġfish":6057,"Ġhell":6058,"Ġallegations":6059,"Ġclient":6060,"asure":6061,"evin":6062,"Ġdebut":6063,"Ġsecretary":6064,"77":6065,"resents":6066,"Ġbond":6067,"Tube":6068,"Ġinjuries":6069,"ounded":6070,"ĠSwed":6071,"Ġdiplom":6072,"inent":6073,"agers":6074,"ÃŃ":6075,"Ġthinks":6076,"orders":6077,"Ġessentially":6078,"Ġsam":6079,"ĠAff":6080,"orry":6081,"Ġartist":6082,"ĠCop":6083,"ala":6084,"Ġexpansion":6085,"ĠIreland":6086,"Ġmotor":6087,"Ġing":6088,"Ġrain":6089,"ĠRam":6090,"Ġ38":6091,"ĠYear":6092,"ĠColumb":6093,"Ġdesire":6094,"Ġinitially":6095,"ĠBrazil":6096,"ĠDiv":6097,"orse":6098,"word":6099,"Ġpure":6100,"ĠiPhone":6101,"Ġmaterials":6102,"OD":6103,"inals":6104,"ĠLib":6105,"Ġexplan":6106,"ilit":6107,"Ġfranch":6108,"Ð½":6109,"arters":6110,"41":6111,"66":6112,"On":6113,"Ġfacts":6114,"ĠAut":6115,"ador":6116,"ĠCub":6117,"Ġnecessarily":6118,"rip":6119,"Ġincor":6120,"Ġgovernor":6121,"Ġdatab":6122,"icing":6123,"Ġlinked":6124,"Ġperformed":6125,"II":6126,"Ġscheduled":6127,"Ġaccepted":6128,"Ġmyster":6129,"ĠAL":6130,"enger":6131,"Ġwarned":6132,"ĠBarack":6133,"esome":6134,"ĠSar":6135,"Ġlisted":6136,"An":6137,"Ġvari":6138,"Ġadvanced":6139,"Ġincreases":6140,"Ġmagazine":6141,"ĠPolit":6142,"Ġsuc":6143,"ette":6144,"Ġplayoff":6145,"Ġbare":6146,"Ġjoint":6147,"Ġfaced":6148,"Ġdoctor":6149,"Ġneither":6150,"ĠNext":6151,"ĠBoard":6152,"Ġabandon":6153,"edy":6154,"ĠFurther":6155,"Ġinterpret":6156,"water":6157,"ĠFig":6158,"Ġmir":6159,"Ġathlet":6160,"illance":6161,"Ġyesterday":6162,"Ġdecre":6163,"ĠView":6164,"Ġannouncement":6165,"Ġeverybody":6166,"Ġradical":6167,"Ġnations":6168,"Ġoffense":6169,"irty":6170,"ĠSports":6171,"TA":6172,"Ġnearby":6173,"MA":6174,"ĠPerhaps":6175,"Ġspons":6176,"ĠISIS":6177,"Ġfort":6178,"Ġfollows":6179,"ĠDi":6180,"ĠNBA":6181,"Ġresolution":6182,"Ġbegins":6183,"ĠBoy":6184,"ĠAriz":6185,"Ġatmosp":6186,"ĠCard":6187,"Ġmoves":6188,"Ġalt":6189,"illy":6190,"Ġconsequences":6191,"Ġsurprised":6192,"Ġconfig":6193,"ĠHome":6194,"athan":6195,"Ġimproved":6196,"Ġdistribution":6197,"otic":6198,"sembly":6199,"Ġpra":6200,"level":6201,"ĠEnter":6202,"Ġ37":6203,"Ġapplied":6204,"Ġrepresents":6205,"Ġchart":6206,"Ġplane":6207,"law":6208,"Ġenh":6209,"Ġaf":6210,"ĠAuthor":6211,"ĠJews":6212,"Ġstood":6213,"ĠEconom":6214,"ĠThree":6215,"Ġwarm":6216,"Ġadds":6217,"Ġphen":6218,"ĠDC":6219,"ĠMen":6220,"Ġride":6221,"Ġ2002":6222,"ĠClub":6223,"abb":6224,"Ġdemocracy":6225,"Ġremark":6226,"Ġoutput":6227,"itors":6228,"Ġflood":6229,"ĠHouston":6230,"Ġtrib":6231,"LA":6232,"Ġguilty":6233,"ĠWik":6234,"Ġthreats":6235,"Ġpushed":6236,"irds":6237,"Ġbrings":6238,"Ġmanufacture":6239,"ĠGra":6240,"ĠEll":6241,"Ġshots":6242,"ĠColorado":6243,"Ġphilosop":6244,"Ġalcohol":6245,"whel":6246,"ĠBrook":6247,"Ġsongs":6248,"Ġrein":6249,"ĠKorean":6250,"Ġwithd":6251,"ĠCy":6252,"Ġtotally":6253,"burg":6254,"usal":6255,"Ġbehavi":6256,"Ġdiscussed":6257,"Ġhistorical":6258,"ĠEric":6259,"duc":6260,"Ġlawsuit":6261,"Ġentry":6262,"ĠFam":6263,"Ġsought":6264,"Ġfill":6265,"Ġconsistent":6266,"ÑĢ":6267,"Ġrising":6268,"Ġrow":6269,"Ġreceiving":6270,"Ġinvestors":6271,"Ġentered":6272,"ĠAsia":6273,"Ġ300":6274,"ideo":6275,"Ġcombination":6276,"Ġexistence":6277,"Ġbright":6278,"ĠMot":6279,"Ġrestaurant":6280,"Ġnative":6281,"Ġboys":6282,"SS":6283,"ĠTake":6284,"Ġscr":6285,"rich":6286,"Ġinput":6287,"Ġisland":6288,"Ġarticles":6289,"ĠYoung":6290,"Ġbutton":6291,"mitted":6292,"Ġheads":6293,"Ġsubscrib":6294,"Ġcreative":6295,"ĠContin":6296,"Ġstorage":6297,"Ġ48":6298,"stood":6299,"Ġcorrespond":6300,"Ġscored":6301,"Ġroughly":6302,"Ġsquare":6303,"Ġclasses":6304,"Ġhighlight":6305,"ĠFil":6306,"Ġresident":6307,"Ġsem":6308,"fortunately":6309,"ĠOld":6310,"alty":6311,"Ġunlikely":6312,"acle":6313,"Ġsav":6314,"ĠRights":6315,"Ġboss":6316,"edia":6317,"Ġcontest":6318,"Ġlie":6319,"Ġconsumer":6320,"Ġnetworks":6321,"icious":6322,"ĠGames":6323,"ĠYouTube":6324,"TS":6325,"ĠWomen":6326,"Ġlibrary":6327,"ĠVan":6328,"Ġfairly":6329,"ĠCharles":6330,"Ġwarning":6331,"Ġsucceed":6332,"Ġfunctions":6333,"Ġtemperature":6334,"Ġcolleagues":6335,"pan":6336,"Ġresc":6337,"PU":6338,"Ġlock":6339,"amin":6340,"ĠDu":6341,"Ġheavily":6342,"born":6343,"Ġsplit":6344,"ĠDavis":6345,"Ġsym":6346,"ician":6347,"greg":6348,"Ġparliament":6349,"ĠHolly":6350,"Ġ49":6351,"Ġhousehold":6352,"ĠIns":6353,"Ġsymbol":6354,"cho":6355,"Ġdeaths":6356,"arden":6357,"Ġstring":6358,"Ġanywhere":6359,"Ġprohib":6360,"omin":6361,"ĠWild":6362,"oked":6363,"ĠDie":6364,"ĠMax":6365,"Ġprotests":6366,"iques":6367,"Ġcurrency":6368,"Ġplot":6369,"Ġyounger":6370,"Ġtargets":6371,"Ġdefined":6372,"ĠMic":6373,"Ġimportance":6374,"Ġtow":6375,"Ġbreaking":6376,"Ġbike":6377,"Ġzero":6378,"Ġexpression":6379,"Ġmanage":6380,"Ġmetal":6381,"Ġrally":6382,"ĠPutin":6383,"ican":6384,"onna":6385,"Ġclassic":6386,"Ġlinks":6387,"Ġfraud":6388,"Ġbug":6389,"Ġcere":6390,"Ġsnow":6391,"Ġstores":6392,"Ġreplaced":6393,"ĠKevin":6394,"hetic":6395,"Ġempt":6396,"Ġdoctors":6397,"Im":6398,"Ġshif":6399,"Ġnav":6400,"Ġbuying":6401,"edd":6402,"Ã³":6403,"ĠChild":6404,"Ar":6405,"Ġmarketing":6406,"def":6407,"Ġfacility":6408,"Ġblow":6409,"Ġregulations":6410,"Ġsomewhat":6411,"Ġwaste":6412,"ĠStephen":6413,"Ġfavour":6414,"ĠWay":6415,"Ġillust":6416,"Ġconfront":6417,"Ġopposite":6418,"andal":6419,"Ġ34":6420,"ĠOF":6421,"west":6422,"Ġallegedly":6423,"Ġlaugh":6424,"Al":6425,"Ġschol":6426,"Ġessential":6427,"Ġpromise":6428,"Ġholds":6429,"ĠMat":6430,"Ġflat":6431,"ml":6432,"roit":6433,"uzz":6434,"Ġcampus":6435,"Ġversions":6436,"Ġopponent":6437,"ĠJesus":6438,"ĠCast":6439,"agan":6440,"Ġmotion":6441,"ĠTay":6442,"ocket":6443,"',":6444,"ĠDefense":6445,"Ġmoments":6446,"Ã¶":6447,"twitter":6448,"ĠBat":6449,"Ġhardware":6450,"ĠTit":6451,"inem":6452,"Ġvice":6453,"power":6454,"ĠCruz":6455,"Ġevolution":6456,"Ġadults":6457,"ĠCIA":6458,"Ġrelevant":6459,"ĠBrad":6460,"Ġrum":6461,"ĠArch":6462,"ena":6463,"Ġbag":6464,"xy":6465,"Ġsees":6466,"Ġhat":6467,"Ġtom":6468,"ĠPan":6469,"ĠSoviet":6470,"ĠIP":6471,"How":6472,"ĠNY":6473,"olve":6474,"ĠEnergy":6475,"ĠPalestinian":6476,"Ġchain":6477,"ĠItal":6478,"esc":6479,"Ġhoping":6480,"Ġclosely":6481,"Ġharder":6482,"Ġfewer":6483,"ĠValley":6484,"Ġbon":6485,"Ġsick":6486,"ĠArizona":6487,"Ġdownt":6488,"ĠLord":6489,"Ġindustrial":6490,"Ġacts":6491,"Ġvolunte":6492,"Ġsyn":6493,"Ġreturns":6494,"ĠStand":6495,"OC":6496,"ta":6497,"dis":6498,"ĠTal":6499,"Ġintention":6500,"chen":6501,"Ġmechanism":6502,"ĠRet":6503,"Bl":6504,"Ġacknowled":6505,"Ġparticipants":6506,"game":6507,"Ġmine":6508,"Ġcustomer":6509,"ensus":6510,"Ġfashion":6511,"Ġdivision":6512,"ship":6513,"Ġsquad":6514,"gas":6515,"erry":6516,"Ġisol":6517,"Ġemotional":6518,"ĠJord":6519,"ĠSC":6520,"Ġimmediate":6521,"Ġflu":6522,"Ġhur":6523,"Ġgrown":6524,"IF":6525,"Ġextent":6526,"Ġcircumstances":6527,"78":6528,"ulous":6529,"Ġexperim":6530,"ellect":6531,"Ġtournament":6532,"oma":6533,"ologist":6534,"vin":6535,"To":6536,"iger":6537,"erves":6538,"ï¿":6539,"Ġsuffering":6540,"Con":6541,"ĠWat":6542,"Ġexcellent":6543,"atell":6544,"Ġtermin":6545,"Ġdetailed":6546,"Ġwins":6547,"ĠDaniel":6548,"va":6549,"efully":6550,"nic":6551,"ĠCatholic":6552,"Ġcycle":6553,"Ġdescribe":6554,"All":6555,"ocratic":6556,"68":6557,"kel":6558,"Ġwave":6559,"ĠJava":6560,"ĠFort":6561,"ĠPy":6562,"ĠClass":6563,"Ġcheap":6564,"ĠDam":6565,"Ġcrazy":6566,"Ġancient":6567,"Ġrelationships":6568,"certain":6569,"Ġlies":6570,"Ġcarrying":6571,"Ġfundamental":6572,"Ġkinds":6573,"Ġpip":6574,"Ġtiny":6575,"Ġimmigrants":6576,"friend":6577,"Ġunus":6578,"Ġguide":6579,"Ġfeatured":6580,"Ã¼":6581,"Ġdecline":6582,"ĠCamer":6583,"ii":6584,"Ġskill":6585,"ĠMiller":6586,"Cl":6587,"bar":6588,"Ġearned":6589,"Ġauthors":6590,"Ġstrange":6591,"Ġcompetitive":6592,"Ġtrick":6593,"nam":6594,"08":6595,"Ġinstru":6596,"Ġartists":6597,"Ġacting":6598,"str":6599,"Ġefficient":6600,"Ġformed":6601,"Ġcert":6602,"name":6603,"Ġembr":6604,"utch":6605,"mission":6606,"Ġpushing":6607,"ĠStory":6608,"chers":6609,"ĠPS":6610,"otal":6611,"Ġmanner":6612,"ockey":6613,"awa":6614,"style":6615,"Ġregional":6616,"Ġsharing":6617,"bel":6618,"Ġsigning":6619,"ĠInvest":6620,"Ġ75":6621,"Ġupdated":6622,"Ġcomfortable":6623,"ĠWars":6624,"Ġreferred":6625,"Ġfrequently":6626,"Ġowned":6627,"Ġcontroversial":6628,"Ġring":6629,"Ġwire":6630,"ĠEnd":6631,"ĠBas":6632,"FP":6633,"uated":6634,"Ġalongside":6635,"Ġrepeatedly":6636,"anish":6637,"ĠWilson":6638,"ĊĠĊĠĊĠĊĠĊĠĊĠĊĠĊ":6639,"Ġhotel":6640,"Ġmouth":6641,"ĠNASA":6642,"She":6643,"Ġcommitment":6644,"Ġmeat":6645,"hus":6646,"Ġattempted":6647,"Ġdu":6648,"Ġcolumn":6649,"umber":6650,"ĠFinally":6651,"Ġegg":6652,"rome":6653,"Ġupcoming":6654,"ĠReal":6655,"Ġurban":6656,"weight":6657,"Ð¾Ð":6658,"Ġfemin":6659,"Ġsentence":6660,"Ġrealized":6661,"Ġschedule":6662,"uable":6663,"Ġintent":6664,"ora":6665,"Ġdepth":6666,"Ġdedicated":6667,"iveness":6668,"Ġsuicide":6669,"Ġstruck":6670,"foot":6671,"Ġkit":6672,"ĠÎ":6673,"Ġliqu":6674,"anes":6675,"ï¿½":6676,"Ġpregn":6677,"Ġinspired":6678,"iami":6679,"Ġbat":6680,"rive":6681,"Ġuniverse":6682,"rison":6683,"Ġwalked":6684,"ceived":6685,"ographic":6686,"Ġtargeted":6687,"Ġmainstream":6688,"Ġdesk":6689,"Ġpled":6690,"ko":6691,"ĠLove":6692,"izz":6693,"Ġusual":6694,"Ġjourney":6695,"Ġmedic":6696,"Ġopponents":6697,"Ġassets":6698,"Ġagenda":6699,"Ġorders":6700,"Ġcausing":6701,"Ġvirtual":6702,"Ġnewslet":6703,"ĠLand":6704,"Ġreput":6705,"Ġserving":6706,"Ġsister":6707,"Ġstudio":6708,"Ġchannel":6709,"Ġprotected":6710,"ĠEp":6711,"Ġsurveillance":6712,"Ġwatched":6713,"Ġchairman":6714,"Ġoverwhel":6715,"Ġcoffee":6716,"Ġsurrounding":6717,"ugh":6718,"ĠDun":6719,"Ġsand":6720,"Ġlatter":6721,"ĠTurn":6722,"adel":6723,"Ġliterally":6724,"Ġobserved":6725,"Ġsubsid":6726,"ĠInf":6727,"Ġhall":6728,"Ġposts":6729,"ĠDid":6730,"aze":6731,"azi":6732,"Ġtort":6733,"Ġknowing":6734,"ati":6735,"Ġteachers":6736,"Ġstream":6737,"ĠWin":6738,"ĠSk":6739,"ĠDetroit":6740,"luding":6741,"comm":6742,"Ġwinter":6743,"ĠFord":6744,"Ġbattery":6745,"ĠCheck":6746,"Ġfasc":6747,"Ġprecise":6748,"gor":6749,"ĠAmong":6750,"09":6751,"Ġapproval":6752,"Ġking":6753,"Ġrape":6754,"Ġdeeply":6755,"Ġsending":6756,"phy":6757,"Ġfixed":6758,"Ġsimpl":6759,"ĠBrian":6760,"ORE":6761,"Ġcommunication":6762,"Ġwal":6763,"%)":6764,"Ġcongress":6765,"Ġdealing":6766,"ingu":6767,"Ġaside":6768,"rence":6769,"Ġfolks":6770,"Ġnarr":6771,"iciency":6772,"Ġremote":6773,"ĠAdam":6774,"ipl":6775,"ĠShare":6776,"Ġnoticed":6777,"Ġ1970":6778,"Ġexciting":6779,"Ġpassion":6780,"dit":6781,"sex":6782,"print":6783,"Ġbasket":6784,"Ġproperties":6785,"Ġforth":6786,"ĠJr":6787,"avor":6788,"Ġvolume":6789,"Ġsky":6790,"Pro":6791,"sole":6792,"American":6793,"Ġalive":6794,"Ġrisks":6795,"Ġrequirements":6796,"Ġcrash":6797,"boy":6798,"rors":6799,"Ġexplore":6800,"Ġrefugees":6801,"ĠKn":6802,"Ġneut":6803,"67":6804,"Ġsweet":6805,"ĠSpecial":6806,"DS":6807,"ĠMS":6808,"Ġwake":6809,"Ġexhib":6810,"ĠGall":6811,"ĠOrgan":6812,"ĠConf":6813,"Ġunknown":6814,"arn":6815,"acc":6816,"Ġanyway":6817,"ĠAdminist":6818,"Ġdiet":6819,"acking":6820,"ĠLight":6821,"ulture":6822,"rations":6823,"Ġdefeat":6824,"ensity":6825,"Ġheight":6826,"Ġtested":6827,"Ġreward":6828,"ĠItaly":6829,"woman":6830,"abis":6831,"Ġpromised":6832,"Ġunemploy":6833,"ĠRog":6834,"pool":6835,"Ġgang":6836,"Ġdomin":6837,"gery":6838,"Ġeating":6839,"Ġgap":6840,"Ġmistake":6841,"Ġinvolving":6842,"Ġattacked":6843,"Ġwest":6844,"Ġdestroyed":6845,"onymous":6846,"Ġlocations":6847,"Ġwelcome":6848,"Ġphenomen":6849,"allas":6850,"Ġblame":6851,"ĠHollywood":6852,"Ġselection":6853,"ĠWater":6854,"Ġwage":6855,"oming":6856,"alle":6857,"Ġputs":6858,"Ġproperly":6859,"Ġproof":6860,"Ġextended":6861,"ixt":6862,"ĠCam":6863,"ĠGeorgia":6864,"Ġsuddenly":6865,"Ġimpressive":6866,"Ġapproximately":6867,"ua":6868,"ĠClick":6869,"Ġmatches":6870,"ums":6871,"Ġsample":6872,"ĠNight":6873,"apse":6874,"Ġterritory":6875,"ĠSteven":6876,"ĠJordan":6877,"oration":6878,"Ġconver":6879,"htt":6880,"ĠCompany":6881,"Ġdry":6882,"Ġnorthern":6883,"UR":6884,"Ġsustain":6885,"ĠAR":6886,"Ġwid":6887,"ĠMiami":6888,"anges":6889,"Ġdiscover":6890,"Ġprotesters":6891,"âĢĻ.":6892,"po":6893,"Ġslowly":6894,"ĠTest":6895,"stone":6896,"Ġpal":6897,"ĠBell":6898,"Ġmerely":6899,"ĠUnfortunately":6900,"Ġpromote":6901,"Ġfranchise":6902,"Ġterrorism":6903,"lv":6904,"ocation":6905,"Ġmaximum":6906,"ĠSpanish":6907,"Ġlicense":6908,"Ġchose":6909,"ĠLabor":6910,"Ġ39":6911,"Ġtypical":6912,"Ġsho":6913,"Ġteacher":6914,"Ġfuck":6915,"Ġselected":6916,"Ġrequests":6917,"04":6918,"ĠAgency":6919,"ĠDark":6920,"Ġdiagn":6921,"ĠSociety":6922,"ĠDig":6923,"Ġshel":6924,"owered":6925,"Ġoblig":6926,"Ġmoder":6927,"ether":6928,"59":6929,"Ġnarrow":6930,"Ġdisag":6931,"obile":6932,"At":6933,"Ġtheme":6934,"ĠCat":6935,"ĠLew":6936,"Ġeast":6937,"ĠKey":6938,"verty":6939,"ĠUt":6940,"dro":6941,"Ġretire":6942,"itarian":6943,"Ġworried":6944,"ĠCall":6945,"Ġrecognize":6946,"Ġassume":6947,"inson":6948,"ĠNetwork":6949,"ĠVis":6950,"aser":6951,"Ġsupports":6952,"ĠAh":6953,"Ġtopic":6954,"fire":6955,"ao":6956,"ĠGi":6957,"asks":6958,"Ġrub":6959,"Ġdeals":6960,"you":6961,"oster":6962,"Ġpoverty":6963,"Ġabortion":6964,"Ġprote":6965,"Ġadapt":6966,"07":6967,"Ġlikes":6968,"ĠIrish":6969,"tle":6970,"ĠThus":6971,"Ġnomine":6972,"ĠNick":6973,"Ġallies":6974,"Ġfacilities":6975,"ĠAttorney":6976,"ĠJersey":6977,"ĠMoore":6978,"Ġarguments":6979,"ĠVictor":6980,"ĠBru":6981,"ĠCD":6982,"Ġunderstood":6983,"pes":6984,"ĠWhich":6985,"Ġformat":6986,"Ġcontrolled":6987,"axy":6988,"Ġped":6989,"ayers":6990,"raid":6991,"ĠDisney":6992,"Ġfees":6993,"Ġconstant":6994,"Ġsole":6995,"Ġsomehow":6996,"ogan":6997,"ĠHun":6998,"celer":6999,"02":7000,"ads":7001,"Ġresistance":7002,"ĠDar":7003,"Ġhonor":7004,"onic":7005,"Ġdress":7006,"GBT":7007,"Ġcritics":7008,"list":7009,"Ġdrag":7010,"VER":7011,"Ġphase":7012,"ĠSn":7013,"Ġequival":7014,"Ġjournalists":7015,"Ġscheme":7016,"Ġregions":7017,"osis":7018,"Ġcommunications":7019,"ems":7020,"Ġvillage":7021,"gender":7022,"Ġstim":7023,"Ġbunch":7024,"Ġobtained":7025,"aug":7026,"Ġlimits":7027,"asts":7028,"Ġpersonally":7029,"Ġtransp":7030,"Ġpunish":7031,"Ġexposed":7032,"ĠAsian":7033,"ĠTurk":7034,"Ġevil":7035,"Ġthread":7036,"Ġchampion":7037,"ĠOper":7038,"lls":7039,"ĠNHL":7040,"Ġstrongly":7041,"Ġfalling":7042,"ĠSuch":7043,"Ġsomewhere":7044,"ĠOS":7045,"Ġdeck":7046,"redit":7047,"Ġcondem":7048,"ĠSea":7049,"Ġvacc":7050,"06":7051,"ĠSenator":7052,"ĠJoseph":7053,"Ġprofit":7054,"58":7055,"Ġescape":7056,"arity":7057,"Ġdefinition":7058,"Ġempty":7059,"cow":7060,"Ġharass":7061,"Ġcomparison":7062,"sters":7063,"orted":7064,"ĠTem":7065,"ĠFre":7066,"ĠCare":7067,"Ġpolls":7068,"ĠReview":7069,"Ġflex":7070,"ĠEduc":7071,"Ġmeetings":7072,"ĠJosh":7073,"Ġpic":7074,"Ġencourage":7075,"Photo":7076,"owa":7077,"Ġdatabase":7078,"NC":7079,"Ġwinner":7080,"ĠBusiness":7081,"Ġemissions":7082,"Ġtruck":7083,"alo":7084,"enders":7085,"Ġdecent":7086,"ĠNever":7087,"Ġcutting":7088,"Ġbear":7089,"Ġbid":7090,"iform":7091,"oric":7092,"pected":7093,"Ġsouthern":7094,"han":7095,"Ġcomprom":7096,"ĠColl":7097,"cers":7098,"ĠCross":7099,"Ġemployee":7100,"Ġtrees":7101,"Ġdesper":7102,"ĠDNA":7103,"ciples":7104,"zens":7105,"ura":7106,"Ġanx":7107,"nesota":7108,"Ġhits":7109,"Ġstronger":7110,"Ġgoods":7111,"intend":7112,"Ġgotten":7113,"Ġdirected":7114,"aire":7115,"ĠScotland":7116,"Ġpurposes":7117,"Ġideal":7118,"ĠNations":7119,"Ġdeleg":7120,"ĠCivil":7121,"ĠIndeed":7122,"Ġ42":7123,"Ġinqu":7124,"ĠHas":7125,"Ġclaiming":7126,"igation":7127,"ĠAcadem":7128,"post":7129,"ĠId":7130,"Ġbench":7131,"57":7132,"mo":7133,"ĠRun":7134,"98":7135,"Ġintellect":7136,"ivery":7137,"Ġfinds":7138,"Ġsoul":7139,"Ġchosen":7140,"ser":7141,"Ġfifth":7142,"Ġofficially":7143,"Ġfold":7144,"rary":7145,"Ġicon":7146,"ĠSource":7147,"Ġelectricity":7148,"Ġunw":7149,"Our":7150,"Ġdeveloper":7151,"Ġdriven":7152,"ĠServices":7153,"ĠCome":7154,"Ġextensive":7155,"Ġstretch":7156,"Ġamounts":7157,"Ġreveal":7158,"ĪĴ":7159,"iner":7160,"ĠHot":7161,"Ġties":7162,"icken":7163,"One":7164,"Ġdrawn":7165,"ĠOs":7166,"Ġruled":7167,"Ġincl":7168,"essed":7169,"inations":7170,"ĠAnth":7171,"Ġsight":7172,"Ġpayments":7173,"Ġthreatened":7174,"asters":7175,"ĠTony":7176,"Ġending":7177,"Ġretain":7178,"ĠTaylor":7179,"sea":7180,"Ġreasonable":7181,"Ġdogs":7182,"eping":7183,"Ġcolon":7184,"Ġparam":7185,"ĠForeign":7186,"Ġdistinct":7187,"Ġspin":7188,"Ġrejected":7189,"Ġperfectly":7190,"wan":7191,"Ġaspects":7192,"ĠDallas":7193,"Ġcaptured":7194,"ĠSpain":7195,"ĠProgram":7196,"Ġsomebody":7197,"owed":7198,"Ġanswers":7199,"Ġengage":7200,"ĠKelly":7201,"Ġconstantly":7202,"Ġprimarily":7203,"Ġtrading":7204,"Ġfighters":7205,"Ġble":7206,"03":7207,"ĠSouthern":7208,"Ġrig":7209,"ĠItalian":7210,"Ġseats":7211,"Ġfields":7212,"regon":7213,"EW":7214,"Ġchoices":7215,"Ġhouses":7216,"Ġboot":7217,"Ġpod":7218,"ĠMarc":7219,"Ġparking":7220,"Ġanymore":7221,"Ġtank":7222,"TH":7223,"Ġflying":7224,"tes":7225,"Ġestimates":7226,"ras":7227,"Ġrival":7228,"Ġconstit":7229,"Ġsolutions":7230,"ĠMinnesota":7231,"Ġtechnologies":7232,"zy":7233,"ĠNBC":7234,"Un":7235,"irms":7236,"otes":7237,"ĠDead":7238,"Ġregularly":7239,"Ġelsewhere":7240,"Ġcourts":7241,"Ġresulting":7242,"fast":7243,"Ġ%":7244,"Ġpayment":7245,"ĠUlt":7246,"Ġactor":7247,"Ġnobody":7248,"Ġbrew":7249,"Ġcontem":7250,"Ġemployment":7251,"Ġnarrative":7252,"Ġoutcome":7253,"Ġencoun":7254,"Ġexists":7255,"Ġawesome":7256,"ĠSP":7257,"apes":7258,"Ġprovince":7259,"</":7260,"vy":7261,"ĠChampionship":7262,"ĠRay":7263,"ĠBowl":7264,"Ġprofile":7265,"Ġkeeps":7266,"Ġcontrols":7267,"isan":7268,"Ġcomponents":7269,"hips":7270,"Ġmixed":7271,"rehens":7272,"Ġletters":7273,"rett":7274,"Ġcontributed":7275,"Ġsignal":7276,"ĠOrig":7277,"Ġ55":7278,"Ġmurd":7279,"Ġmayor":7280,"Ġworldwide":7281,"lder":7282,"ĠMake":7283,"Ġapartment":7284,"Ġsituations":7285,"otten":7286,"Ġincredible":7287,"agram":7288,"mod":7289,"Ġfounder":7290,"Donald":7291,">>":7292,"Ġconcluded":7293,"ĠHistory":7294,"Ġbaseball":7295,"ĠLo":7296,"âĢĺ":7297,"earing":7298,"ĠFood":7299,"Ġclients":7300,"Ġenemies":7301,"ĠConstitution":7302,"ĠFull":7303,"Ġcoalition":7304,"Ġbills":7305,"ĠPay":7306,"Ġatmosphere":7307,"icer":7308,"Ġweird":7309,"ĠIT":7310,"Ġunp":7311,"Ġkil":7312,"Ġloan":7313,"Ġcrucial":7314,"Ġcontinuing":7315,"emen":7316,"Ġupper":7317,"Ġregistered":7318,"ĠMcG":7319,"Ġaccurate":7320,"Ġincredibly":7321,"Ġdemands":7322,"Ġinformed":7323,"Ġfeedback":7324,"ĠMajor":7325,"inity":7326,"Ġenthus":7327,"Ġtied":7328,"ĠFoot":7329,"rates":7330,"ĠStart":7331,"ĠRoman":7332,"Ġconscious":7333,"Ġdrinking":7334,"........":7335,"Ġassistant":7336,"Ġreporter":7337,"Ġcategory":7338,"Ġangry":7339,"ĠSaf":7340,"Ġgenerate":7341,"Ġproved":7342,"Ġstead":7343,"Ġ($":7344,"Ġterrible":7345,"Ġstuck":7346,"With":7347,"Ġroutine":7348,"ali":7349,"mont":7350,"Ġexplanation":7351,"Ġconven":7352,"69":7353,"ĠBalt":7354,"Ġticket":7355,"ilarly":7356,"Ġimper":7357,"ĠGreg":7358,"ĠGlobal":7359,"inding":7360,"car":7361,".\"[":7362,"Ġinfect":7363,"ĠMu":7364,"Ġmachines":7365,"Ġdozen":7366,"Ġrus":7367,"300":7368,"sm":7369,"Ġreturning":7370,"lock":7371,"Ġraising":7372,"ba":7373,"Ġ64":7374,"Ġinnoc":7375,"CE":7376,"ker":7377,"iscal":7378,"Ġ65":7379,"Ġnewly":7380,"Ġaggressive":7381,"Ġwriters":7382,"onsin":7383,"Ġrepresented":7384,"acked":7385,"Ġconclusion":7386,"rage":7387,"Ġmanip":7388,"Ġrecovery":7389,"Ġexcess":7390,"sell":7391,"Ġpaint":7392,"ifer":7393,"Ġgaming":7394,"isconsin":7395,"ĠRick":7396,"Ġconsumption":7397,"ĠCH":7398,"ĠData":7399,"ĠGer":7400,"lights":7401,"Ġcompens":7402,"ĠHave":7403,"adelph":7404,"ĠParliament":7405,"Ġroot":7406,"Ġgro":7407,"Ġestate":7408,"Ġmyth":7409,"Ġpenalty":7410,"Ex":7411,"lers":7412,"Ġdollar":7413,"ĠLinux":7414,"Ġprogramming":7415,"Ġroster":7416,"Ġorganized":7417,"imp":7418,"bal":7419,"iana":7420,"ĠOregon":7421,"Ġcapture":7422,"Ġconspir":7423,"Ġcomplaint":7424,"ĠPacific":7425,"ĠHom":7426,"ĠAsh":7427,"anchester":7428,"Ġcomplicated":7429,"Ġtall":7430,"ĠLive":7431,"Ġsatell":7432,"Ġgranted":7433,"ifications":7434,"ĠMoscow":7435,"anny":7436,"ĠFollowing":7437,"Ġmagic":7438,"rypt":7439,"Ġchances":7440,"Ġassistance":7441,"Ġcounty":7442,"Ġ1999":7443,"Ġplastic":7444,"ĠBull":7445,"Ġsympt":7446,"ĠSever":7447,"Ġpilot":7448,"Ġnut":7449,"Ġaudio":7450,"ĠJason":7451,"Ġhabit":7452,"Ġok":7453,"Ġbitcoin":7454,"elect":7455,"ima":7456,"Ġshares":7457,"ML":7458,"adelphia":7459,"âĸ":7460,"Ġtherap":7461,"Ġsuccessfully":7462,"ĠNation":7463,"Ġiron":7464,"star":7465,"rating":7466,"Ġtechniques":7467,"ĠKent":7468,"uan":7469,"Ġlawmakers":7470,"ĠHenry":7471,"ĠZeal":7472,"gorith":7473,"hent":7474,"Ġveteran":7475,"actions":7476,"there":7477,"ez":7478,"ĠSeries":7479,"Ġautomatically":7480,"Ġdegrees":7481,"ĠFC":7482,"Ġanticip":7483,"ĠLGBT":7484,"rete":7485,"ĠMid":7486,"Ġscenes":7487,"Ġru":7488,"Ġindex":7489,"Ġextract":7490,"Ġpin":7491,"ĠJudge":7492,"Ġengaged":7493,"MP":7494,"Ġoperate":7495,"ĠAS":7496,"ĠESP":7497,"itals":7498,"Ġaimed":7499,"ĠHard":7500,"Ġtaught":7501,"ĠIowa":7502,"aron":7503,"Ġblocks":7504,"Ġphr":7505,"Ġsurvive":7506,"Ġteaching":7507,"Ġpermanent":7508,"Ġads":7509,"idency":7510,"Ġinstalled":7511,"inder":7512,"Ġtitles":7513,"itar":7514,"Ġmonit":7515,"chain":7516,"ĠSnow":7517,"Ġsolve":7518,"ĠDevelopment":7519,"ĠJac":7520,"Ġattended":7521,"Ġwestern":7522,"Ġextrem":7523,"aed":7524,"Ġmarked":7525,"ĠNorthern":7526,"LC":7527,"ĠViet":7528,"ĠReport":7529,"Ġacademic":7530,"Ġaccomp":7531,"ĠEastern":7532,"da":7533,"ĠNob":7534,"Ġrating":7535,"ye":7536,"lan":7537,"Ġcup":7538,"ĠFred":7539,"Ġvaluable":7540,"ĠDoes":7541,"ĠAlab":7542,"rific":7543,"Ġvulnerable":7544,"Ġhidden":7545,"ĠWisconsin":7546,"Ġtaste":7547,"%.":7548,"Ġuncertain":7549,"))":7550,"Ġlawyers":7551,"Ġfake":7552,"Ġ44":7553,"Ġenable":7554,"Ġworker":7555,"Ġbom":7556,"era":7557,"Ġdepending":7558,"Ġprivile":7559,"ĠâĢĻ":7560,"ĠCoast":7561,"Ġregardless":7562,"Ġdict":7563,"ibilities":7564,"Ġcollected":7565,"ĠUse":7566,"Ġchampionship":7567,"Ġpace":7568,"ĠMoh":7569,"Ġpasses":7570,"ĠHor":7571,"Ġdowntown":7572,"Ġafraid":7573,"Ġoverse":7574,"Ġvisited":7575,"uine":7576,"Ġinspir":7577,"Ġcable":7578,"Be":7579,"ĠKurd":7580,"Ġrecording":7581,"ĠGreek":7582,"Ġsufficient":7583,"Ġwarming":7584,"ĠArm":7585,"Ġadvis":7586,"Ġreputation":7587,"ĠThrough":7588,"ĠKir":7589,"Ġsurgery":7590,"Ġtracks":7591,"56":7592,"Ġbes":7593,"Ġelite":7594,"ashes":7595,"========":7596,"ĠAvenue":7597,"Ġdisaster":7598,"Ġenjoyed":7599,"Ġelev":7600,"Ġthin":7601,"Ġequivalent":7602,"Ġcomic":7603,"aturally":7604,"Ġexposure":7605,"ĠRand":7606,"Ġapolog":7607,"Ġracial":7608,"Ġbusy":7609,"Ġprinciples":7610,"ĠPolicy":7611,"Ġcrypt":7612,"etary":7613,"ĠOK":7614,"Ġphones":7615,"Ġgenerated":7616,"ĠProfessor":7617,"Ġ47":7618,"Ġspr":7619,"ĠPhiladelphia":7620,"Ġprocesses":7621,"Ġportion":7622,"Ġprominent":7623,"Ġtroub":7624,"ĠWithout":7625,"ĠOak":7626,"Ġintense":7627,"Ġpersonnel":7628,"Ġnegotiations":7629,"athy":7630,"Ġgrant":7631,"Ġentit":7632,"Ġduty":7633,"Ġmainly":7634,"month":7635,"iro":7636,"Ġgall":7637,"Ġ400":7638,"Ġdefence":7639,"ĠUsing":7640,"Ġresulted":7641,"Ġfunny":7642,"quarters":7643,"Ġextension":7644,"ĠFund":7645,"active":7646,"Ġmail":7647,"Ġpounds":7648,"ules":7649,"ĠManchester":7650,"mann":7651,"prise":7652,"bro":7653,"ĠHT":7654,"ãĢ":7655,"ĠSH":7656,"Oh":7657,"Ġunusual":7658,"Ġemerged":7659,"âĢĻ,":7660,"Ġdescribes":7661,"fall":7662,"Ġbrut":7663,"Ġpatterns":7664,"Ġengineering":7665,"ria":7666,"Ġtur":7667,"ĠList":7668,"Ġadopted":7669,"EA":7670,"Ġeverywhere":7671,"Ġcompete":7672,"wo":7673,"Ġblind":7674,"ĠNavy":7675,"iler":7676,"MS":7677,"ĠMir":7678,"gun":7679,"Ġfought":7680,"ĠHit":7681,"ĠPoint":7682,"Ġdiscipl":7683,"upid":7684,"ĠHarry":7685,"Ġpossession":7686,"Ġbrowser":7687,"icate":7688,"Ġtaxp":7689,"Ġhadn":7690,"ĠZealand":7691,"Ġmedium":7692,"world":7693,"ĠBry":7694,"ĠAlabama":7695,"Ġfeelings":7696,"front":7697,"Ġcorruption":7698,"cling":7699,"antic":7700,"ATE":7701,"Ġexplicit":7702,"rep":7703,"Ġpropag":7704,"cles":7705,"Ġsanctions":7706,"scape":7707,"Ġcited":7708,"rell":7709,"Ġstations":7710,"Ġthick":7711,"Ġcontracts":7712,"Ġenorm":7713,"ĠRoyal":7714,"ĠBuild":7715,"Ġrarely":7716,"ĠMayor":7717,"Ġrecru":7718,"ĠNC":7719,"aun":7720,"Ġminority":7721,"Ġrecip":7722,"Ġexpectations":7723,"Ġinev":7724,"Ġcameras":7725,"89":7726,"herent":7727,"pread":7728,"ĠMusic":7729,"Ġshortly":7730,"writ":7731,"viously":7732,"orough":7733,"ĠVideo":7734,"Ġsup":7735,"86":7736,"idelines":7737,"Ġstrict":7738,"ĠPremier":7739,"istent":7740,"ifies":7741,"Ġsharp":7742,"ĠFair":7743,"Ġthousand":7744,"mal":7745,"Ġho":7746,"Ġfinance":7747,"ĠEducation":7748,"Ġfirms":7749,"Ġtor":7750,"ĠReuters":7751,"Ġscenario":7752,"ĠRos":7753,"text":7754,"ikes":7755,"Ġpermission":7756,"Ġimplementation":7757,"HS":7758,"Ġvisible":7759,"ĠAmendment":7760,"Ġmel":7761,"Ġ41":7762,"Ġlights":7763,"54":7764,"Ġ150":7765,"ĠHay":7766,"inking":7767,"ilton":7768,"Ġparticipate":7769,"Ġadvertising":7770,"Ġloud":7771,"Ġpriority":7772,"Ġwing":7773,"making":7774,"Ġplug":7775,"Ġju":7776,"igg":7777,"ĠSir":7778,"Ġacceler":7779,"eland":7780,"ĠPack":7781,"Ġven":7782,"ĠSometimes":7783,"obs":7784,"Ġphotograph":7785,"ĠGiven":7786,"ĠAtlanta":7787,"Ġlosses":7788,"azz":7789,"olt":7790,"ĠNic":7791,"ĠIndepend":7792,"Ġbridge":7793,"ĠStat":7794,"Ġaffili":7795,"ĠCre":7796,"ogen":7797,"ĠLittle":7798,"Ġcreates":7799,"Ġhistoric":7800,"Ġshock":7801,"ni":7802,"Ġstrikes":7803,"Ġlaid":7804,"ĠPen":7805,"ĠExt":7806,"Ġdozens":7807,"ĠEs":7808,"Ġveget":7809,"Ġtag":7810,"Ġcomputers":7811,"Getty":7812,"Ġ43":7813,"Ġobst":7814,"Ġyield":7815,"ogether":7816,"Ġairport":7817,"Ġinterface":7818,"ĠRose":7819,"osexual":7820,"52":7821,"ĠSat":7822,"athered":7823,"Ġfounded":7824,"Ġclubs":7825,"Ġcounsel":7826,"ĠLind":7827,"log":7828,"Ġbehalf":7829,"Ġscoring":7830,"abs":7831,"asion":7832,"aska":7833,"Ġagric":7834,"Ġwonderful":7835,"arsh":7836,"Ġformal":7837,"wr":7838,"Ġalgorith":7839,"core":7840,"Ġstun":7841,"Ġfee":7842,"izon":7843,"Ġgained":7844,"Ġprinciple":7845,"Ġwww":7846,"ĠSeveral":7847,"xic":7848,"Ġepisodes":7849,"Ġfault":7850,"Ġtoler":7851,"ĠLuc":7852,"Ġbasketball":7853,"Ġcomponent":7854,"ĠSeason":7855,"found":7856,"Ġgenuine":7857,"ĠWH":7858,"Ġmanufacturing":7859,"ĠMarket":7860,"Ġpump":7861,"UL":7862,"cr":7863,"ĠHead":7864,"ĠRadio":7865,"ĠKingdom":7866,"Ġuncom":7867,"Ġestablishment":7868,"ĠRus":7869,"Ġridic":7870,"Ġcyber":7871,"weet":7872,"ĠField":7873,"ĠAdministration":7874,"ĠCO":7875,"ĠTurkish":7876,"Ġrelief":7877,"ounced":7878,"profit":7879,"orne":7880,"Ġgift":7881,"Ġphilosophy":7882,"ĠMatthew":7883,"Ġmagn":7884,"ĠMcCain":7885,"Ġstable":7886,"Ġuniform":7887,"Ġhole":7888,"Ġsaved":7889,"auc":7890,"enth":7891,"ded":7892,"imore":7893,"etime":7894,"umer":7895,"this":7896,"Ġ1960":7897,"lete":7898,"aus":7899,"olis":7900,"ĠScient":7901,"mate":7902,"Ġdrawing":7903,"Ġfoundation":7904,"Ġexception":7905,"Ġjournalist":7906,"ĠInformation":7907,"Ġstadium":7908,"ĠLy":7909,"rators":7910,"ilipp":7911,"rative":7912,"who":7913,"Ġwheel":7914,"Ġ1998":7915,"ĠVR":7916,"Ġspark":7917,"Ġheaded":7918,"53":7919,"Ġstruggling":7920,"ĠFed":7921,"bell":7922,"Ġcrop":7923,"Ġedition":7924,"Ġfootage":7925,"Ġindicate":7926,"Ġrecognized":7927,"Ġcannabis":7928,"Ġdoors":7929,"Ġbanned":7930,"Ġ->":7931,"Man":7932,"Ġlegend":7933,"ĠConference":7934,"Ġrely":7935,"she":7936,"ĠDiego":7937,"Ġprofession":7938,"Ġroles":7939,"iel":7940,"Ġbeliefs":7941,"Ġsynt":7942,"Ġplate":7943,"ĠRelated":7944,"Ġ46":7945,"uer":7946,"ĠESPN":7947,"Ġstab":7948,"amber":7949,"ĠRen":7950,"portion":7951,"Ġcontaining":7952,"Ġbacked":7953,"Ġwithdraw":7954,"idespread":7955,"ĠABC":7956,"Ġneutral":7957,"Ġdinner":7958,"eman":7959,"ĠAND":7960,"Ġships":7961,"Ġliked":7962,"Ġneighb":7963,"oured":7964,"ĠPatrick":7965,"ĠCirc":7966,"ĠLink":7967,"Ġentering":7968,"iy":7969,"igen":7970,"ĠAcademy":7971,"ĠIce":7972,"ja":7973,"Ġproducer":7974,"Ġcha":7975,"Every":7976,"Ġhang":7977,"Ġriver":7978,"ystem":7979,"Ġachieved":7980,"Ġgonna":7981,"ĠGov":7982,"Ġdeliber":7983,"Ġflaw":7984,"Ġmovements":7985,"::":7986,"oen":7987,"Ġtackle":7988,"teen":7989,"ulating":7990,"++":7991,"ĠCentre":7992,"Ġreduction":7993,"51":7994,"ĠUFC":7995,"Ġwalls":7996,"Ġhired":7997,"Ġfarmers":7998,"ĠJay":7999,"Ġarrange":8000,"ĠKat":8001,"ĠBernie":8002,"BO":8003,"Ġfinger":8004,"Ġdestruction":8005,"ĠWhether":8006,"burgh":8007,"etts":8008,"ĠSS":8009,"ĠNAT":8010,"rous":8011,"ĠAnthony":8012,"Ġinterviews":8013,"esy":8014,"Ġbath":8015,"Ġnominee":8016,"Ġlanguages":8017,"Image":8018,"________________":8019,"sylv":8020,"ĠSet":8021,"ĠEmail":8022,"Ġbarely":8023,"ĠKansas":8024,"ĠOnt":8025,"By":8026,"Ġdiscrimination":8027,"ĠCommunity":8028,"Ġaver":8029,"ĠCurrent":8030,"ca":8031,"ĠTenn":8032,"Ġstructures":8033,"Ġproven":8034,"Ġ2019":8035,"ĠMah":8036,"Ġforever":8037,"Ġincent":8038,"interest":8039,"CS":8040,"Pe":8041,"Ġdelivery":8042,"aching":8043,"400":8044,"ĠChristians":8045,"ĠDivision":8046,"Ġconvin":8047,"ĠBattle":8048,"Ġprocessing":8049,"Ġcontained":8050,"ked":8051,"ĠTri":8052,"away":8053,"Ġchallenging":8054,"ĠCook":8055,"ĠON":8056,"97":8057,"Ġupset":8058,"ĠPot":8059,"riers":8060,"Ġconvicted":8061,"Ġunex":8062,"Ġocean":8063,"Ġren":8064,"ĠMedical":8065,"Ġrose":8066,"Ġproducing":8067,"Ġtechnique":8068,"ĠCameron":8069,"olen":8070,"ami":8071,"ĠWalker":8072,"ĠCore":8073,"Ġrestrictions":8074,"Ġborrow":8075,"uce":8076,"Ġhitting":8077,"usive":8078,"EP":8079,"Ġretired":8080,"Ġintellectual":8081,"Ġillness":8082,"Ġdescription":8083,"Ġham":8084,"ĠPennsylv":8085,"Ġutil":8086,"ĠAllen":8087,"abinet":8088,"Ġasks":8089,"ĠBrew":8090,"Ġelectronic":8091,"Ġindicated":8092,"sa":8093,"Ġhide":8094,"%,":8095,"Ġsmooth":8096,"amsung":8097,"ĠAp":8098,"Ġrapidly":8099,"RS":8100,"ĠAle":8101,"ĠCost":8102,"Ġcorporations":8103,"ĠAnton":8104,"Ġreviews":8105,"yard":8106,"Ġsuggesting":8107,"Ġflash":8108,"ĠHell":8109,"Ġbegun":8110,"ĠPerson":8111,"Ġexclusive":8112,"Ġnotion":8113,"Ġbra":8114,"Ġbranch":8115,"ferences":8116,"ologists":8117,"Ġexternal":8118,"Ġrecognition":8119,"ĠBall":8120,"Ġnormally":8121,"ĠTown":8122,"Ġperpet":8123,"Ġequally":8124,"ĠConservative":8125,"Ġwidespread":8126,"Ġloyal":8127,"ĠHaving":8128,"lessly":8129,"engers":8130,"Ġtickets":8131,"87":8132,"ĠFamily":8133,"ĠBeach":8134,"Ġ00":8135,"ouver":8136,"ho":8137,"iti":8138,"Ġlistening":8139,"Ġshit":8140,"ĠPop":8141,"ĠRa":8142,"ĠHD":8143,"Ġreaching":8144,"ĠNOT":8145,"Ġcontribute":8146,"ĠSpring":8147,"Ġwebsites":8148,"udes":8149,"Ġfriendly":8150,"Ġgrass":8151,"onc":8152,"ĠJun":8153,"page":8154,"ĊĠĊĠĊĠĊĠĊĠĊĠĊĠĊĠ":8155,"uma":8156,"imm":8157,"Ġinvent":8158,"Ġrepresentative":8159,"allel":8160,"Ġcollapse":8161,"ione":8162,"Ġrobot":8163,"then":8164,"gener":8165,"Ġscream":8166,"ĠAlbert":8167,"ĠAction":8168,"achus":8169,"ĠPennsylvania":8170,"Ġmo":8171,"Ġsettlement":8172,"Ġprogressive":8173,"enny":8174,"Ġhardly":8175,"ĠArabia":8176,"Ġcampaigns":8177,"Ġarray":8178,"rik":8179,"usted":8180,"ĠLatin":8181,"arrass":8182,"Ġpractical":8183,"rical":8184,"Ġviewers":8185,"Ġterrorists":8186,"Ġwelf":8187,"Ġprepare":8188,"Ġbail":8189,"ĠAustin":8190,"Ġcarefully":8191,"sels":8192,"Ġsmoke":8193,"Ġreducing":8194,"ĠStone":8195,"ĠEnvironment":8196,"Ġfrag":8197,"Ġexceed":8198,"appy":8199,"tering":8200,"ĠWas":8201,"elf":8202,"Ġunclear":8203,"thon":8204,"ĠNSA":8205,"een":8206,"96":8207,"Ġwelfare":8208,"Ġhook":8209,"Ġethnic":8210,"Ġoverwhelming":8211,"Ġminds":8212,"Ġtail":8213,"Ġsensitive":8214,"Ġ~":8215,"Ġinitiative":8216,"Ġrespectively":8217,"ĠCBS":8218,"owing":8219,"isp":8220,"nedy":8221,"veland":8222,"ĠBrother":8223,"ĠSquare":8224,"lad":8225,"Ġracist":8226,"Ġrecover":8227,"ĠLater":8228,"ĠSanta":8229,"Ġassociation":8230,"Ġdeputy":8231,"ĠPass":8232,"Ġinvolvement":8233,"Ġfiscal":8234,"ĠRoss":8235,"ĠAnderson":8236,"ancouver":8237,"Ġthrown":8238,"Ġ?":8239,"Ġlists":8240,"rolled":8241,"Ġconvinced":8242,"igrant":8243,"Ġmilk":8244,"PG":8245,"Ġfeaturing":8246,"cription":8247,"umes":8248,"ĠRoy":8249,"uties":8250,"Ġdevast":8251,"Ġvital":8252,"ĠMinistry":8253,"ĠGolden":8254,"ifest":8255,"bn":8256,"Ġelig":8257,"Ġconnections":8258,"ĠBaltimore":8259,"Ġvary":8260,"jo":8261,"ĠHo":8262,"anna":8263,"AG":8264,"fr":8265,"85":8266,"ĠKeep":8267,"Not":8268,"bec":8269,"ecut":8270,"ĠPhilipp":8271,"Ġframework":8272,"ĠPent":8273,"ĠConnect":8274,"heast":8275,"ĠXbox":8276,"rator":8277,"Ġdeeper":8278,"ĠQueen":8279,"Ġstatistics":8280,"Ġfantasy":8281,"Ġinvited":8282,"ĠMuseum":8283,"Ġdefine":8284,"ĠIII":8285,"dem":8286,"Ġcos":8287,"Ġimprovements":8288,"Ġinvestigate":8289,"Ġunemployment":8290,"Ġremem":8291,"Ġbehaviour":8292,"Ġstrategic":8293,"Ġwine":8294,"Ġmenu":8295,"ĠMORE":8296,"PM":8297,"Ġjoining":8298,"Ġanybody":8299,"Ġ1996":8300,"Ġsugar":8301,"Ġcomplaints":8302,"Ġluck":8303,"achusetts":8304,"ĠBon":8305,"Ġconstitutional":8306,"ĠLim":8307,"ĠGreece":8308,"ĠAud":8309,"iversary":8310,"Ġindependence":8311,"Ġscores":8312,"Ġwars":8313,"Ġanger":8314,"Ġscreens":8315,"ĠBad":8316,"Ġsubjects":8317,"ĠWW":8318,"EST":8319,"Ġnoise":8320,"pload":8321,"Ġscholars":8322,"worth":8323,"ĠBudd":8324,"Ġroads":8325,"ĠGun":8326,"Ġraw":8327,"Ġjury":8328,"ĠTro":8329,"Ġfiction":8330,"from":8331,"ĠYeah":8332,"Ġtouchdown":8333,"ouch":8334,"Ġcitizen":8335,"ĠEarlier":8336,"Ġownership":8337,"Ġtrained":8338,"Ġfailing":8339,"RC":8340,"Ġgear":8341,"ĠChair":8342,"Ġalien":8343,"ĠProv":8344,"osit":8345,"Ġdiscovery":8346,"Ġlobby":8347,"ĠBroad":8348,"ĠSony":8349,"ihad":8350,"inois":8351,"Ġgathered":8352,"ĠLiver":8353,"Ġimplemented":8354,"oding":8355,"Ġcontroversy":8356,"Ġinject":8357,"Ġcomprehens":8358,"Ġfears":8359,"ĠPlus":8360,"Ġwages":8361,"Ġregister":8362,"ĠSamsung":8363,"Ġscandal":8364,"Ġlicens":8365,"icking":8366,"ĠKennedy":8367,"Ġfab":8368,"Ġdemocratic":8369,"ĠiP":8370,"Ġserves":8371,"ĠHoward":8372,"Ġcaptain":8373,"Ġovert":8374,"Ġcollective":8375,"ĠSus":8376,"ĠPo":8377,"Ġtip":8378,"ĠForm":8379,"Ġultimate":8380,"ĠControl":8381,"Ġsoph":8382,"Ġincorpor":8383,"Ġdisagree":8384,"Ġstupid":8385,"mad":8386,"ĠLewis":8387,"Ġneighbour":8388,"Ġpeak":8389,"Ġprosec":8390,"Ġtransgender":8391,"ref":8392,"ĠDeath":8393,"Ġtemporary":8394,"Ġ1997":8395,"Ġreferring":8396,"Ġ52":8397,"Ġversus":8398,"Ġhandful":8399,"ĠVegas":8400,"ĠMain":8401,"ĠExper":8402,"icket":8403,"Ġlegs":8404,"ĠDave":8405,"EG":8406,"ĠHarris":8407,"RI":8408,"Ġawareness":8409,"Ġrecommended":8410,"senal":8411,"ĠGuardian":8412,"UN":8413,"Ġsymptoms":8414,"Ġreven":8415,"ĠSix":8416,"Ġcasual":8417,"Ġsin":8418,"Ġplatforms":8419,"Ġreprodu":8420,"Ġtasks":8421,"Ġrural":8422,"74":8423,"Ġtestim":8424,"mary":8425,"Ġremarks":8426,"arry":8427,"Ġdynamic":8428,"ĠMassachusetts":8429,"ĠIranian":8430,"Ġattempting":8431,"Ġaccus":8432,"ĠFreedom":8433,"angel":8434,"Ġattacking":8435,"ĠColumbia":8436,"Ġheading":8437,"Ġtone":8438,"cific":8439,"Ġdiscussions":8440,"\")":8441,"Ġsuffer":8442,"ĠEngine":8443,"Ġvisitors":8444,"Ġregulation":8445,"Ġlayer":8446,"ĠPitt":8447,"ĠVancouver":8448,"aret":8449,"hour":8450,"Ġsamples":8451,"stract":8452,"Ġspaces":8453,"'.":8454,"Ġingred":8455,"aning":8456,"Ġestimate":8457,"Ġcivilians":8458,"Ġlogic":8459,"Ġexpanded":8460,"ĠBa":8461,"ĠGaza":8462,"ĠâĤ¬":8463,"yer":8464,"ĠAPI":8465,"Ġpoly":8466,"acon":8467,"Ġignore":8468,"Ġpublication":8469,"ĠPrice":8470,"phones":8471,"uros":8472,"Ġtheat":8473,"ĠExpl":8474,"Ġextend":8475,"ĠLow":8476,"Ġliquid":8477,"Ġgenetic":8478,"Ġattached":8479,"Ġsettings":8480,"ĠAst":8481,"aka":8482,"ĠCleveland":8483,"Ġhypot":8484,"Ġneck":8485,"Ġeastern":8486,"Ġdispl":8487,"Ġgrounds":8488,"itionally":8489,"ĠiOS":8490,"Ġbrill":8491,"Ġsorry":8492,"Ġpurchased":8493,"ĠOtt":8494,"Ġenormous":8495,"76":8496,"ĠAdv":8497,"esh":8498,"bi":8499,"ĠGetty":8500,"including":8501,"Ġentertainment":8502,"cience":8503,"pat":8504,"ĠRevolution":8505,"Ġaffairs":8506,"Ġresource":8507,"ictions":8508,"Ġadmit":8509,"Ġsuspected":8510,"Ġfactory":8511,"Ġtweeted":8512,"Ġranked":8513,"Ġrecall":8514,"Ġholiday":8515,"agg":8516,"Ġhorse":8517,"Ġbrothers":8518,"Ġactors":8519,"Ġstake":8520,"à¤":8521,"Ġviewed":8522,"Ġlegitimate":8523,"Ġintervention":8524,"Ġimprovement":8525,"Ġrational":8526,"Ġ_":8527,"ĠHop":8528,"ĠStadium":8529,"ĠLas":8530,"ĠDesign":8531,"aying":8532,"Ġraces":8533,"ĠBang":8534,"Ġactivist":8535,"lah":8536,"raph":8537,"ĠLyn":8538,"Ġcro":8539,"ĠAge":8540,"intendo":8541,"ĠJam":8542,"Ġouts":8543,"ĠLA":8544,"Ġseemingly":8545,"Ġinvolves":8546,"ultural":8547,"Ġopinions":8548,"ĠIllinois":8549,"Ġpresum":8550,"repre":8551,"ommod":8552,"Ġhumanity":8553,"ĠHon":8554,"case":8555,"Ġfallen":8556,"ĠâĢĿ":8557,"Ġinvestigating":8558,"Ġcoaches":8559,"Ġdramatic":8560,"Ġembarrass":8561,"iry":8562,"Ġinvestigators":8563,"Ġrook":8564,"Ġsubstantial":8565,"oval":8566,"Ġsalary":8567,"Ġdiversity":8568,"otype":8569,"Ġforest":8570,"Ġabsence":8571,"Ġcovers":8572,"Ġboat":8573,"arms":8574,"Ġtomorrow":8575,"ĠNorm":8576,"Ġgam":8577,"Ġreferend":8578,"geon":8579,"Ġmedicine":8580,"Ġloans":8581,"Ġfulf":8582,"Ġoffices":8583,".-":8584,"ĠUC":8585,"Ġsuspended":8586,"Ġadvocates":8587,"Ġmad":8588,"Ġje":8589,"Ġstayed":8590,"Ġkm":8591,"ĠProp":8592,"ĠIntelligence":8593,"Ġmonitor":8594,"Ġconspiracy":8595,"ĠHospital":8596,"Ġproviders":8597,"iability":8598,"Ġcogn":8599,"Ġceleb":8600,"Ġchapter":8601,"reprene":8602,"ĠMill":8603,"Ġpapers":8604,"Ġresign":8605,"Ġjur":8606,"FF":8607,"dri":8608,"ĠFall":8609,"Ġbars":8610,"inch":8611,"ĠSure":8612,"Ġovers":8613,"ĠBuff":8614,"App":8615,"ective":8616,"Ġ51":8617,"xit":8618,"dy":8619,"Script":8620,"Ġcareful":8621,"Ġamid":8622,"Ġbureau":8623,"ĠIraqi":8624,"ĠLine":8625,"Ġfoss":8626,"wered":8627,"Ġporn":8628,"Ġauthent":8629,"Ġdisrupt":8630,"âĢĶâĢĶâĢĶâĢĶ":8631,"ĠBelow":8632,"ĠChel":8633,"Ġpreced":8634,"Ġcoc":8635,"72":8636,"Ġconsistently":8637,"Ġtransportation":8638,"Ġshr":8639,"Ġdepends":8640,"Ġthrowing":8641,"cover":8642,"claim":8643,"Ġcolors":8644,"Ġaddressed":8645,"ammed":8646,"rets":8647,"ÂĴ":8648,"Ġpersonality":8649,"Ġmining":8650,"rance":8651,"ĠPrince":8652,"Ð»":8653,"ĠHa":8654,"uction":8655,"Ġattitude":8656,"vard":8657,"Ġhanded":8658,"Ġmissile":8659,"Ġreads":8660,"Ġpetition":8661,"Ġinflation":8662,"Ġclothes":8663,"ipal":8664,"type":8665,"ĠMarvel":8666,"Ġmountain":8667,"Ġnoting":8668,"Ġsurf":8669,"ĠCopy":8670,"Ġvirtually":8671,"Ġfruit":8672,"These":8673,"Well":8674,"ĠFormer":8675,"ĠJustin":8676,"ĠFootball":8677,"ĠFix":8678,"ĠUnlike":8679,"Ġconversations":8680,"Ġchat":8681,"ĠCode":8682,"ĠEvent":8683,"Ġsteel":8684,"inf":8685,"Ġmos":8686,"Ġconsole":8687,"iences":8688,"Ġwarrant":8689,"Ġspeaks":8690,"ĠCommon":8691,"ĠTour":8692,"Ġconce":8693,"ĠShort":8694,"Ġprofits":8695,"ĠUpdate":8696,"!)":8697,"Ġlowest":8698,"ĠNATO":8699,"Ġgains":8700,"PC":8701,"ĠMoon":8702,"Ġmic":8703,"ĠCapt":8704,"umin":8705,"ĠMaster":8706,"Ġshoulder":8707,"ila":8708,"Ġguest":8709,"des":8710,"Ġhorror":8711,"Ġclosing":8712,"Ġfantastic":8713,"maker":8714,"Ġtries":8715,"ĠCredit":8716,"plete":8717,"hot":8718,"Ġastron":8719,"ĠMexican":8720,"keep":8721,"ĠPhotos":8722,"Ġspiritual":8723,"Ġappreciate":8724,"Ġreader":8725,"ivals":8726,"Ġwrest":8727,"ĠPatri":8728,"ĠUr":8729,"flix":8730,"Ġcontributions":8731,"Ġincidents":8732,"ĠCreat":8733,"Ġaccommod":8734,"plate":8735,"Ġstone":8736,"Ġhandling":8737,"ĠMarsh":8738,"ĠAbb":8739,"Ġprotocol":8740,"Ġguarantee":8741,"Ġmarks":8742,"Do":8743,"zed":8744,"Ġdepression":8745,"eding":8746,"Ġtea":8747,"\".[":8748,"Ġvoter":8749,"Ġhint":8750,"ropri":8751,"Ġdrew":8752,"Ġdance":8753,"Ġ1995":8754,"scale":8755,"Ġphotograp":8756,"uits":8757,"amac":8758,"Ġrhet":8759,"Ġsubsequent":8760,"Ġballot":8761,"Ġmaps":8762,"EE":8763,"unicip":8764,"ĠNon":8765,"Ġranks":8766,"ĠMrs":8767,"Ġencouraged":8768,"Ġinner":8769,"ordon":8770,"Ġlucky":8771,"Ġswing":8772,"Ġspoken":8773,"ĠLiverpool":8774,"uted":8775,"serv":8776,"aval":8777,"Ġpromises":8778,"Ġtrem":8779,"Ġbacter":8780,"unes":8781,"Ġcovering":8782,"Ġlands":8783,"ĠHind":8784,"ĠAlexander":8785,"Ġdivided":8786,"ĠIndiana":8787,"ĠDeb":8788,"Ġinnovation":8789,"Ġjudges":8790,"Ġgrav":8791,"Ġbuff":8792,"Ġbrown":8793,"Ġinsist":8794,"Ġshout":8795,"Ġpremium":8796,"ĠTen":8797,"ĠFront":8798,"rient":8799,"ported":8800,"itage":8801,"Ġchecks":8802,"ĠDenver":8803,"Ġmusical":8804,"ounce":8805,"rec":8806,"Ġportray":8807,"Ġthrew":8808,"Ġimproving":8809,"Ġextraord":8810,"ĠFinal":8811,"ĠFive":8812,"Ġrevel":8813,"ĠCorpor":8814,"Ġdistributed":8815,"Ġefficiency":8816,"Ġsilver":8817,"ĠEag":8818,"Ġdrama":8819,"itter":8820,"pa":8821,"Ġmistakes":8822,"ĠTechnology":8823,"annels":8824,"abeth":8825,"Ġreplacement":8826,"ĠEqu":8827,"Ġlocked":8828,"ĠPortland":8829,"ĠUnt":8830,"sl":8831,"Ġtemperatures":8832,"yo":8833,"pled":8834,"Ġspokesperson":8835,"Ġcust":8836,"Ġacknowledged":8837,"ĠTrib":8838,"79":8839,"ĠAssociated":8840,"ĠSarah":8841,"Ġrom":8842,"Ġjoke":8843,"ington":8844,"Ġlying":8845,"Why":8846,"ĠCooper":8847,"Ġresponses":8848,"Ġcomedy":8849,"ĠRoberts":8850,"Ġdump":8851,"argo":8852,"Ġprotecting":8853,"ĠRather":8854,"Ġsoil":8855,"Ġgal":8856,"ĠNintendo":8857,"Ġbreaks":8858,"Ġyellow":8859,"ĠAk":8860,"Ġbarrel":8861,"aping":8862,"Ġliterature":8863,"Ġhomeless":8864,"Ġinstrument":8865,"Ġlets":8866,"Ġlegacy":8867,"ĠDO":8868,"Ġreferendum":8869,"####":8870,"ĠKong":8871,"amacare":8872,"ieties":8873,"ĠTes":8874,"Ġjoy":8875,"Ġabandoned":8876,"heim":8877,"ĠLeft":8878,"ĠTed":8879,"backs":8880,"ĠBase":8881,"ĠDream":8882,"ĠUtah":8883,"pie":8884,"Ġscan":8885,"ijing":8886,"Ġvirus":8887,"ĠBra":8888,"Ġpassengers":8889,"erted":8890,"Ġ(âĢľ":8891,"Ġordinary":8892,"dated":8893,"ogs":8894,"Ġmoon":8895,"Ġfestival":8896,"inction":8897,"ĠSweden":8898,"ĠOntario":8899,"FA":8900,"Ġcommonly":8901,"xx":8902,"ĠCro":8903,"Ġblast":8904,"Ġdemonstrated":8905,"hesis":8906,"Ġtwenty":8907,"ĠJonathan":8908,"Ġcopies":8909,"Ġexit":8910,"Ġignored":8911,"ira":8912,"Ġdiverse":8913,"Ġstolen":8914,"Ġ1994":8915,"ĠAtlantic":8916,"Ġtape":8917,"Ġnomination":8918,"ĠEmpire":8919,"assador":8920,"ĠMach":8921,"itary":8922,"oded":8923,"Ġfunded":8924,"Ġassert":8925,"Ġmidfield":8926,"Ġfalls":8927,"Ġgrid":8928,"ĠLear":8929,"ĠAI":8930,"Ġrif":8931,"Ġnaturally":8932,"800":8933,"Ġhelpful":8934,"Ġacquired":8935,"Ġles":8936,"Ġrear":8937,"Trump":8938,"Ġscope":8939,"Ġcompe":8940,"Ġstudied":8941,"Ġupgrade":8942,"ĠEff":8943,"ĠGirl":8944,"Ġdad":8945,"ĠNone":8946,"ĠWarren":8947,"ĠLiberal":8948,"lahoma":8949,"esty":8950,"Pl":8951,"iley":8952,"Ġbub":8953,"Ġmeasured":8954,"63":8955,"AY":8956,"ĠRuby":8957,"fund":8958,"Ġtransactions":8959,"Ġsty":8960,"Ġcounts":8961,"acket":8962,"Ġarrive":8963,"aware":8964,"Ġmarch":8965,"Ġauto":8966,"Ġpartnership":8967,"Ġmonitoring":8968,"comes":8969,"ĠHur":8970,"Ġinsisted":8971,"Ġsymp":8972,"VE":8973,"Ġheadquarters":8974,"Ġstages":8975,"ĠGalaxy":8976,"ĠAli":8977,"Ġdeficit":8978,"Ġreplied":8979,"ĠBeck":8980,"Ġcapabilities":8981,"iate":8982,"Ġratio":8983,"ocument":8984,"ĠKar":8985,"Ġskept":8986,"Ġfro":8987,"ĠBureau":8988,"Ġreceiver":8989,"Ġrepresenting":8990,"Ġclock":8991,"Ġprotein":8992,"hop":8993,"Ġmathem":8994,"Ġrender":8995,"Ġsupplies":8996,"Ġtracking":8997,"ctic":8998,"Ġusage":8999,"ĠSilver":9000,"Ġax":9001,"Ġdistract":9002,"Ġperforming":9003,"ĠAward":9004,"high":9005,"Ġunions":9006,"Ġracism":9007,"Ġguitar":9008,"ĠVill":9009,"shire":9010,"Ġconservatives":9011,"RL":9012,"ĠGraham":9013,"Ġuniversities":9014,"Ġassessment":9015,"\">":9016,"Ġproposals":9017,"Ġplain":9018,"ĠArticle":9019,"ĠHold":9020,"ais":9021,"ĠSpeaking":9022,"Ġtie":9023,"Ġequality":9024,"Ġaccomplish":9025,"aeda":9026,"Ġcriticized":9027,"Ġhoped":9028,"Ġwaters":9029,"Ġtrave":9030,"61":9031,"bridge":9032,"ĠEliz":9033,"zing":9034,"Ġconcrete":9035,"Ġconventional":9036,"Ġ2020":9037,"ĠEdward":9038,"Ġdomain":9039,"Ġwarn":9040,"Ġparallel":9041,"ĠIndust":9042,"encing":9043,"ji":9044,"PP":9045,"Ġbeauty":9046,"UST":9047,"cut":9048,"Ġshopping":9049,"ĠCow":9050,"ĠYOU":9051,"Ġramp":9052,"har":9053,"Ġletting":9054,"Ġappointed":9055,"Ġprogramme":9056,"ped":9057,"Go":9058,"ecutive":9059,"Ġexch":9060,"door":9061,"73":9062,"Ġreliable":9063,"eries":9064,"Ġinequ":9065,"ught":9066,"Ġmargin":9067,"pton":9068,"Ġintroduction":9069,"ĠPict":9070,"??":9071,"ĠOlympic":9072,"Ġabsor":9073,"usalem":9074,"Ġdust":9075,"ĠBeijing":9076,"ĠTech":9077,"ĠBloom":9078,"62":9079,"Ġdismissed":9080,"ĠChelsea":9081,"crib":9082,"ĠGovernor":9083,"Ġabroad":9084,"ĠFigure":9085,"ĠEst":9086,"mat":9087,"iano":9088,"Ġcance":9089,"Ġves":9090,"ĠCS":9091,"Ġartific":9092,"Ġneuro":9093,"Ġvisiting":9094,"Ġappearances":9095,"olph":9096,"dney":9097,"Ġlandscape":9098,"fol":9099,"ĠLes":9100,"archy":9101,"Ġclassified":9102,"ĠMaryland":9103,"mony":9104,"Ġdrove":9105,"theless":9106,"Ġtrigger":9107,"irts":9108,"AF":9109,"Ġrescue":9110,"Ġhyper":9111,"plus":9112,"ĠTele":9113,"ĠWolf":9114,"Ġentitled":9115,"Ġjun":9116,"Ġveterans":9117,"ĠJere":9118,"enez":9119,"Ġhung":9120,"Ġpresidency":9121,"Ġbread":9122,"ĠOklahoma":9123,"Ġmuseum":9124,"ĠBud":9125,"Ġpatch":9126,"omes":9127,"conf":9128,"ĠSean":9129,"ultane":9130,"made":9131,"ĠHu":9132,"Ġtransit":9133,"ĠBelg":9134,"People":9135,"Ġ53":9136,"ĠSom":9137,"Ġurged":9138,"Ġblocked":9139,"Ġhockey":9140,"Ġsenator":9141,"Ġcenters":9142,"Ġpopulations":9143,"Ġcongressional":9144,"Ġdub":9145,"ĠSab":9146,"Ġspokeswoman":9147,"ĠNetflix":9148,"ĠIron":9149,"Ġassign":9150,"ika":9151,"ĠDer":9152,"Ġpredicted":9153,"Ġwhenever":9154,"Ġrocket":9155,"Ġpolitically":9156,"rooms":9157,"Ġfiring":9158,"aga":9159,"ĠPD":9160,"Ġclar":9161,"isk":9162,"iamond":9163,"Ġcig":9164,"ĠChildren":9165,"Ġwider":9166,"Ġtargeting":9167,"ĠDutch":9168,"ĠBruce":9169,"Ġsequence":9170,"ĠEver":9171,"ĠCarter":9172,"Ġsalt":9173,"Ġbreath":9174,"ĠHarvard":9175,"92":9176,"Ġrequested":9177,"ĠMess":9178,"Ġsurvival":9179,"eters":9180,"Ġdates":9181,"Ġswim":9182,"ĠBible":9183,"Ġtestimony":9184,"ĠLeon":9185,"jud":9186,"ĠBridge":9187,"Ġpersons":9188,"ĠEarly":9189,"bow":9190,"Ġpursue":9191,"Ġdocumentary":9192,"only":9193,"Ġapproached":9194,"Ġcompare":9195,"Ġquote":9196,"Ġmembership":9197,"acco":9198,"ĠHamilton":9199,"Ġmole":9200,"Ġmac":9201,"Ġdiscour":9202,"Ġrepresentatives":9203,"resident":9204,"Ġemployed":9205,"Ġtactics":9206,"Ġsoccer":9207,"press":9208,"600":9209,"Ġbrilliant":9210,"Ġpopularity":9211,"ĠMcK":9212,"olves":9213,"Ġpig":9214,"********":9215,"Ġviolation":9216,"ĠEveryone":9217,"Ġtips":9218,"ĠMagic":9219,"ĠCho":9220,"ĠRepresent":9221,"ĠJerusalem":9222,"isons":9223,"Ġcontrad":9224,"Ġburden":9225,"Ġintroduce":9226,"Ġshadow":9227,"ĠObamacare":9228,"ĠAndre":9229,"Star":9230,"berry":9231,"ela":9232,"Ġsatellite":9233,"Ġtoxic":9234,"Ġdisorder":9235,"Äĥ":9236,"orous":9237,"Ġmonthly":9238,"ĠVice":9239,"ĠTherefore":9240,"ĠBi":9241,"ĠGary":9242,"Ġ95":9243,"Ġphrase":9244,"Ġfighter":9245,"ĠCra":9246,"through":9247,"Ġbanking":9248,"Ġrestaurants":9249,"Ġbonus":9250,"Ġthorough":9251,"Ġsaving":9252,"ĠTotal":9253,"Ġdesigns":9254,"Ġprisoners":9255,"ctr":9256,"ĠPriv":9257,"ĠMult":9258,"ĠEth":9259,"Ġobjective":9260,"ested":9261,"Ġretirement":9262,"Ġacid":9263,"Ġhosp":9264,"erts":9265,"ĠUber":9266,"Ġfocusing":9267,"Ġpipeline":9268,"Ġentreprene":9269,"Ġrush":9270,"Ġunexpected":9271,"Ġexperiments":9272,"rapped":9273,"uper":9274,"Ġwedd":9275,"atar":9276,"ĠAz":9277,"ĠMuch":9278,"Ġgenerations":9279,"ĠFriend":9280,"ĠLt":9281,"ounding":9282,"CA":9283,"Ġchannels":9284,"ocolate":9285,"Ġprepar":9286,"Ġproducers":9287,"Ġbutt":9288,"Ġforcing":9289,"Ġscientist":9290,"aver":9291,"Ġforecast":9292,"Ġcelebrate":9293,"Ġservers":9294,"break":9295,"ĠArk":9296,"ĠMoreover":9297,"Ġbab":9298,"Ġabilities":9299,"ĠAnna":9300,"Ġloose":9301,"Sp":9302,"Ġkeys":9303,"Ġcul":9304,"fare":9305,"Ġanxiety":9306,"Ġdemanding":9307,"Ġtab":9308,"ouri":9309,"Ġdeny":9310,"ĠCapital":9311,"Ġoverseas":9312,"afe":9313,"Ġsettled":9314,"ederation":9315,"ĠCustom":9316,"ĠReddit":9317,"Ġinvestigations":9318,"Ġchildhood":9319,"ĠScottish":9320,"Ġpreparing":9321,"Ġactively":9322,"Ġargues":9323,"ĠGT":9324,"ĠTennes":9325,"held":9326,"Ġunpre":9327,"Ġphenomenon":9328,"emed":9329,"ĠQuest":9330,"Can":9331,"mans":9332,"ĠVietnam":9333,"BM":9334,"Ġuniversal":9335,"Ġstability":9336,"Ġweekly":9337,"duction":9338,"ĠMorgan":9339,"ĠBerlin":9340,"don":9341,"elson":9342,"opher":9343,"mers":9344,"Ġmaintained":9345,"Ġokay":9346,"oenix":9347,"trans":9348,"ĠBoe":9349,"Ġ54":9350,"Ġflags":9351,"Ġinnocent":9352,"Ġshame":9353,"ĠFal":9354,"Ġwealthy":9355,"Ġfool":9356,"ĠSupport":9357,"Ġ**":9358,"Â°":9359,"ĠCrime":9360,"Ġweigh":9361,"ĠBal":9362,"Ġrooms":9363,"minute":9364,"Ġcircle":9365,"asty":9366,"Ġmini":9367,"Ġencounter":9368,"Ġreleases":9369,"Ġdifferently":9370,"ahu":9371,"Ġarguing":9372,"Ġsurely":9373,"Ġtens":9374,"Ġexha":9375,"ĠLeader":9376,"Ġrounds":9377,"Ġ1992":9378,"Ø§":9379,"Ġspots":9380,"orious":9381,"ennis":9382,"Ġanniversary":9383,"âĢ¦âĢ¦":9384,"ois":9385,"Ġsecondary":9386,"ĠSav":9387,"mind":9388,"Ġlunch":9389,"Ġhealthcare":9390,"Ġprovision":9391,"ĠSound":9392,"ompson":9393,"Ġsavings":9394,"irlf":9395,"Ġsilence":9396,"oret":9397,"ĠWr":9398,"Ġtitled":9399,"Ġsmoking":9400,"Ġaer":9401,"Ġlegislative":9402,"ĠYemen":9403,"HT":9404,"agic":9405,"93":9406,"Ġreveals":9407,"icism":9408,"ĠLam":9409,"94":9410,"Ġsubmitted":9411,"Ġrelax":9412,"enter":9413,"ĠPalestinians":9414,"Ġtonight":9415,"Ġbroader":9416,"pha":9417,"Ġlanding":9418,"Ġhydro":9419,"ĠTrade":9420,"SL":9421,"Ġsmartphone":9422,"ĠGulf":9423,"irlfriend":9424,"Ġfate":9425,"rection":9426,"Ġquestioned":9427,"abet":9428,"Ġsmell":9429,"Ġmit":9430,"ĠHong":9431,"Ġalarm":9432,"ĠPH":9433,"ĠShould":9434,"html":9435,"Ġfur":9436,"Ġdeadly":9437,"ĠOpp":9438,"ĠWould":9439,"ĠBatman":9440,"tenance":9441,"Ġroof":9442,"Ġsorts":9443,"Ġwindows":9444,"ĠâĪĴ":9445,"Ġoutrage":9446,"Ġodds":9447,"Ġquoted":9448,"ĠRoll":9449,"aa":9450,"Ġharassment":9451,"Ġfing":9452,"Ġratings":9453,"Ġreverse":9454,"ĠOthers":9455,"Ġerrors":9456,"Ġchest":9457,"71":9458,"even":9459,"Ġaffordable":9460,"Ġmortg":9461,"AND":9462,"Ġdelic":9463,"olds":9464,"Ġgraduate":9465,"Ġpron":9466,"agh":9467,"lee":9468,"Ġcivilian":9469,"Ġgent":9470,"walk":9471,"Ġsear":9472,"ĠBeing":9473,"Ġreforms":9474,"onder":9475,"Ġconsent":9476,"Ġsevent":9477,"king":9478,"Ġ120":9479,"Ġthreatening":9480,"alia":9481,"ĠSydney":9482,"Ġprosecutors":9483,"Ġimportantly":9484,"isa":9485,"ĠPage":9486,"Ġpropaganda":9487,"Ġstored":9488,"Ġadventure":9489,"ĠCrit":9490,"Ġinstructions":9491,"Ġhal":9492,"ĠKick":9493,"bered":9494,"ĠKnow":9495,"Ġcalm":9496,"ĠMarx":9497,"ĠCA":9498,"Ġprecisely":9499,"Ġtorture":9500,"Ġstriking":9501,"Ġcomprehensive":9502,"Ġceremony":9503,"lined":9504,"they":9505,"ĠSon":9506,"Ġpuzz":9507,"Ġstruggled":9508,"Ġpossess":9509,"Ġpersu":9510,"ĠElizabeth":9511,"VD":9512,"Ġawarded":9513,"Ġshield":9514,"Ġintim":9515,"ses":9516,"Ġchicken":9517,"ĠInstagram":9518,"Ġages":9519,"Ġbias":9520,"Ġ!":9521,"Ġvoices":9522,"ĠLi":9523,"Ġdying":9524,"acts":9525,"Ġbirds":9526,"Ġpicks":9527,"Now":9528,"ĠPA":9529,"bits":9530,"Ġconsideration":9531,"Ġburning":9532,"Ġkilomet":9533,"Ġdemonstrate":9534,"Ġborders":9535,"iev":9536,"ethe":9537,"Ġwaves":9538,"Ġpointing":9539,"ĠMichel":9540,"ailed":9541,"Ġstreaming":9542,"Ġtremend":9543,"Ġdifficulty":9544,"atern":9545,"ĠMurray":9546,"Ġcooperation":9547,"iki":9548,"ĠClark":9549,"ĠBox":9550,"aria":9551,"Ġdeserve":9552,"ĠStore":9553,"Ġtrillion":9554,"ĠCould":9555,"ĠTok":9556,"Ġrookie":9557,"Ġexecution":9558,"div":9559,"uten":9560,"Ġprocedure":9561,"ĠSud":9562,"asant":9563,"ĠTax":9564,"Ġassass":9565,"Ġsimultane":9566,"Ġstaying":9567,"Ġnewsletter":9568,"Ġdialogue":9569,"Ġsemi":9570,"erg":9571,"ishop":9572,"izer":9573,"ĠTai":9574,"Some":9575,"ierce":9576,"ĠBrexit":9577,"Ġcream":9578,"itol":9579,"Ġdistingu":9580,"ĠHart":9581,"portation":9582,"Ġarchitecture":9583,"Ġautonom":9584,"After":9585,"ĠHand":9586,"Ġassumed":9587,"Ġstepped":9588,"Ġcategories":9589,"Ġjudgment":9590,"Ġanalyst":9591,"Ġ58":9592,"hatt":9593,"Ġpromising":9594,"ĠAssembly":9595,"Ġconsensus":9596,"asury":9597,"ĠStaff":9598,"Ġdrives":9599,"ĠOakland":9600,"ĠManagement":9601,"ĠCharlie":9602,"Ġphysically":9603,"Ġ1993":9604,"Ġrepeat":9605,"ds":9606,"ĠSimon":9607,"Ġplayoffs":9608,"Ġgif":9609,"ĠComey":9610,"Ġans":9611,"Ġgreatly":9612,"Ġwhereas":9613,"Ġcow":9614,"Ġstrategies":9615,"Ġstem":9616,"Ġwanting":9617,"organ":9618,"ÃĤÃĥÃĤÃĥÃĤÃĥÃĤÃĥ":9619,"Ġimplications":9620,"ĠGil":9621,"igious":9622,"holders":9623,"Ġhighlights":9624,"ĠJenn":9625,"scribe":9626,"bury":9627,"Ġele":9628,"ceptions":9629,"Ġinches":9630,"ĠThompson":9631,"ĠThink":9632,"ĠNev":9633,"ĠLibya":9634,"was":9635,"ĠGO":9636,"omy":9637,"Ġassigned":9638,"cedented":9639,"apolis":9640,"Ġexecutives":9641,"ĠHad":9642,"Ġalter":9643,"orship":9644,"etch":9645,"omed":9646,"->":9647,"party":9648,"Ġformation":9649,"Ġsmile":9650,"Ġfrequency":9651,"Ġdefeated":9652,"Ġsuperior":9653,"Ġcontribution":9654,"Ġremarkable":9655,"Ġ56":9656,"aders":9657,"sect":9658,"ĠLocal":9659,"itual":9660,"ĠVik":9661,"ĠJean":9662,"ĠAccess":9663,"Ġopens":9664,"Ġemerging":9665,"http":9666,"ĠGordon":9667,"Ġaccessible":9668,"step":9669,"yes":9670,"ributes":9671,"Ġcoinc":9672,"ĠFestival":9673,"rif":9674,"Ġcontacted":9675,"after":9676,"Ġwounded":9677,"ĠTennessee":9678,"akh":9679,"ĠOfficial":9680,"Ġ99":9681,"Ġdispute":9682,"ĠPsych":9683,"Ġhosted":9684,"ĠMit":9685,"Ġmeaningful":9686,"Ġmanaging":9687,"ĠCaptain":9688,"Ġparticipation":9689,"Ġnic":9690,"ĠIntel":9691,"igate":9692,"Ġblank":9693,"stal":9694,"Hz":9695,"Ġdrone":9696,"Ġ1950":9697,"Ġindicates":9698,"ĠThings":9699,"cest":9700,"Ġcompeting":9701,"Ġdonations":9702,"inator":9703,"iffs":9704,"Ġrevers":9705,"ĠExecutive":9706,"Ġease":9707,"umble":9708,"Ġministry":9709,"Qu":9710,"aration":9711,"ĠAffairs":9712,"Ġcenturies":9713,"Ġmemories":9714,"Ġclothing":9715,"Ġnin":9716,"ĠSU":9717,"Ġpromoting":9718,"ĠBow":9719,"Ġtrials":9720,"Ġarbit":9721,"Ġknee":9722,"ĠCON":9723,"ĠDownload":9724,"icity":9725,"Ġgross":9726,"TP":9727,"ĠPentagon":9728,"Ġathletes":9729,"Ġopenly":9730,"rac":9731,"Ġpassage":9732,"Ġbin":9733,"Ġclinical":9734,"Ġinfo":9735,"Ġendorse":9736,"84":9737,"Ġriding":9738,"ĠHawai":9739,"Ġguidelines":9740,"Ġmanifest":9741,"Ġrecipe":9742,"race":9743,"ĠOcc":9744,"child":9745,"lla":9746,"Ġ250":9747,"Ġinvestments":9748,"bu":9749,"Ġenthusi":9750,"Ġinspect":9751,"Ġtired":9752,"ĠHoll":9753,"aved":9754,"ĠCase":9755,"Ġpharm":9756,"Ġlegally":9757,"vertisements":9758,"âĢĲ":9759,"Ġsubstance":9760,"Ġsuspects":9761,"Ġfacilit":9762,"Ġna":9763,"Ġdating":9764,"Ġeligible":9765,"Ġenhance":9766,"ĠOnline":9767,"ĠRemember":9768,"js":9769,"CO":9770,"eria":9771,"Ġgrade":9772,"ova":9773,"ĠDur":9774,"Ġtransaction":9775,"ĠPlayer":9776,"Ġdamaged":9777,"ito":9778,"ĠRest":9779,"ĠRussell":9780,"Ġfossil":9781,"Ġcustody":9782,"ĠDigital":9783,"Ġspell":9784,"Ġpoison":9785,"Ġmood":9786,"ĠStation":9787,"annon":9788,"Ġlux":9789,"Ġmemo":9790,"Ġtherapy":9791,"NS":9792,"Ġdivor":9793,"Ġtap":9794,"ĠMLS":9795,"Ġgate":9796,"aki":9797,"Ġbattles":9798,"Ġaged":9799,"issue":9800,"Ġhip":9801,"Ġdefending":9802,"Ġdish":9803,"Yes":9804,"Ġcharity":9805,"ĠThird":9806,"ĠAdditionally":9807,"Ġeducational":9808,"Ġstudying":9809,"Ġracing":9810,"Ġperceived":9811,"ĠÂ©":9812,"Ġmuscle":9813,"Ġspectrum":9814,"Ġbowl":9815,"Ġaddresses":9816,"Ġseed":9817,"Ġstere":9818,"achel":9819,"Ġpresentation":9820,"ĠStew":9821,"oz":9822,"author":9823,"Ġexpanding":9824,"ĠFurthermore":9825,"ĠAlan":9826,"TER":9827,"ĠDisc":9828,"ĠUntil":9829,"Ġmanagers":9830,"ĠImm":9831,"ĠWales":9832,"ĠHeart":9833,"ĠHarper":9834,"oln":9835,"Ġbacking":9836,"Ġtables":9837,"ĠAssad":9838,"Ġdiscussing":9839,"osa":9840,"Ġlapt":9841,"Ind":9842,"Ġ(\"":9843,"2016":9844,"Ġbot":9845,"vision":9846,"Ġpicking":9847,"Ġtheories":9848,"Ġmodule":9849,"Ġkitchen":9850,"Ġhopefully":9851,"itudes":9852,"Ġmissions":9853,"Ġdominant":9854,"ĠZe":9855,"Ġvig":9856,"Ġfollowers":9857,"week":9858,"Ġglad":9859,"Ġpocket":9860,"riors":9861,"Ġtons":9862,"Ġcapitalism":9863,"ĠDragon":9864,"ĠBM":9865,"Ġunderlying":9866,"Ġcounterpart":9867,"odox":9868,"Ġimpression":9869,"Ġecho":9870,"watch":9871,"base":9872,"orable":9873,"ĠPitts":9874,"acher":9875,"Ġdiscount":9876,"Ġnerv":9877,"Ġsed":9878,"math":9879,"gus":9880,"Ġdiseases":9881,"osystem":9882,"Ġstops":9883,"ĠKentucky":9884,"Ġfoods":9885,"ĠPhill":9886,"Ġindustries":9887,"gered":9888,"ĠTable":9889,"Ġgathering":9890,"assy":9891,"alysis":9892,"Ġcompat":9893,"player":9894,"Ġbottle":9895,"Ġshipping":9896,"igenous":9897,"Ġsurviv":9898,"ĠEconomic":9899,"iture":9900,"Ġunfair":9901,"Ġrecruit":9902,"Ġbeings":9903,"Ġcoaching":9904,"Ġfundra":9905,"ateral":9906,"ĠSa":9907,"Ġtiming":9908,"Ġshell":9909,"Ġhelic":9910,"Ġorganic":9911,"hard":9912,"ogy":9913,"Ġarrival":9914,"Ġgraphics":9915,"ĠPers":9916,"build":9917,"Ġscrut":9918,"Ob":9919,"Ġbow":9920,"Ġbeach":9921,"ĠCole":9922,"Ġvariable":9923,"Ġobsc":9924,"lando":9925,"ĠKu":9926,"Ġcreatures":9927,"market":9928,"ylum":9929,"Ġfled":9930,"ptions":9931,"ĠOx":9932,"ĠBurn":9933,"Ġinstitution":9934,"Ġeager":9935,"\":\"":9936,"ĠBol":9937,"ALL":9938,"Ġtut":9939,"Ġprocedures":9940,"Ġexplaining":9941,"Ġcrus":9942,"Ġhire":9943,"ĠKhan":9944,"Ã¢":9945,"iac":9946,"Ġroy":9947,"left":9948,"Just":9949,"die":9950,"Ġhospitals":9951,"enezuel":9952,"roph":9953,"ĠAndy":9954,"ĠHal":9955,"ĠFant":9956,"Ġsetup":9957,"Ġ57":9958,"Up":9959,"Ġsignature":9960,"Ġpunishment":9961,"ĠYan":9962,"ĠRef":9963,"83":9964,"Ġanswered":9965,"Ġarr":9966,"atively":9967,"Ġregulatory":9968,"Ġrecre":9969,"Ġstance":9970,"Ġsovere":9971,"Ġrhetoric":9972,"De":9973,"Ġpulling":9974,"Ġpreferred":9975,"Ġinsult":9976,"ĠGro":9977,"Ġengineers":9978,"Ġmath":9979,"Ġdies":9980,"Ġrebels":9981,"ĠTR":9982,"Ġpermit":9983,"Ġrequirement":9984,"ĠBul":9985,"ĠPhoenix":9986,"Ġtrends":9987,"ĠDelhi":9988,"agger":9989,"Ã±":9990,"Ðº":9991,"Ġacknowledge":9992,"Ġhelicop":9993,"Ġbeating":9994,"Ġtopics":9995,"quest":9996,"alties":9997,"ĠDod":9998,"arre":9999,"Ġpill":10000,"Ġlad":10001,"ls":10002,"91":10003,"Ad":10004,"Ġmerch":10005,"Ñĥ":10006,"Ġgenes":10007,"unicipal":10008,"Ġsearching":10009,"Ġinteraction":10010,"Ġovercome":10011,"Ġloop":10012,"emic":10013,"Ġbadly":10014,"ĠOrder":10015,"Ġsixth":10016,"Ġeveryday":10017,"Ġ1991":10018,"Ġprincipal":10019,"Ġperiods":10020,"izza":10021,"Ġpsychological":10022,"Ġrend":10023,"kee":10024,"Ġstatist":10025,"Ġadviser":10026,"Ġsignals":10027,"gence":10028,"Ġcommander":10029,"Ġsentenced":10030,"ĠDick":10031,"Ġbillions":10032,"Ġcler":10033,"Ġoutlets":10034,"Ġgenre":10035,"ĠArsenal":10036,"Ġlineup":10037,"Ġundert":10038,"Cont":10039,"Ġspeaker":10040,"Ġsections":10041,"Ġoccurs":10042,"Ġpollution":10043,"Ġgig":10044,"mic":10045,"section":10046,"oca":10047,"brid":10048,"Ġexport":10049,"Ġescal":10050,"Ġblockchain":10051,"Ġ85":10052,"Ġconvince":10053,"ĠCL":10054,"Ġrequiring":10055,"Ġloves":10056,"ĠNothing":10057,"arency":10058,"eness":10059,"ĠDE":10060,"Ġshoes":10061,"rix":10062,"Ġsegment":10063,"Ġhomosexual":10064,"grade":10065,"Ġtweets":10066,"Ġunprecedented":10067,"ĠMontreal":10068,"Ġinstant":10069,"Ġcorrupt":10070,"ĠAaron":10071,"Ġpartly":10072,"Reuters":10073,"Ġcollaps":10074,"Ġeconomics":10075,"Ġarts":10076,"Ġlect":10077,"olving":10078,"Ġbutter":10079,"news":10080,"Ġspan":10081,"netic":10082,"cott":10083,"Ġtempor":10084,"Ġremoval":10085,"ĠBrooklyn":10086,"van":10087,"2014":10088,"Ġattractive":10089,"Ġbold":10090,"Ġciting":10091,"Ġmigrants":10092,"Ġ).":10093,"ĠBan":10094,"Ġvend":10095,"oli":10096,"Ġapproaches":10097,"Ġconcepts":10098,"Ġcarries":10099,"ĠMove":10100,"Ġcompensation":10101,"Ġcock":10102,"Ġbullet":10103,"ĠEPA":10104,"ĠGDP":10105,"Ġengineer":10106,"Ġsheet":10107,"Ġelder":10108,"Ġweakness":10109,"Ġextraordinary":10110,"Ġgrap":10111,"ĠReagan":10112,"Ġeggs":10113,"alling":10114,"Ġfabric":10115,"aya":10116,"ĠLog":10117,"ĠVenezuel":10118,"Ġamendment":10119,"ðŁ":10120,"2015":10121,"Ġupload":10122,"Ġfrequent":10123,"angle":10124,"Ġperception":10125,"Ġridiculous":10126,"ĠFind":10127,"\",\"":10128,"ĠJeremy":10129,"Ġroots":10130,"ĠWord":10131,"Ġrolling":10132,"ĠHan":10133,"check":10134,"OK":10135,"Ġgene":10136,"Ġposting":10137,"hr":10138,"Ġeliminate":10139,"Ġinstances":10140,"ĠDoctor":10141,"ĠJavaScript":10142,"Ġfo":10143,"ĠCC":10144,"ĠBarb":10145,"ĠOcean":10146,"ele":10147,"ĠAntonio":10148,"Ġsits":10149,"ĠFuture":10150,"istol":10151,"Ġinvasion":10152,"owski":10153,"ĠChange":10154,"olar":10155,"ĠType":10156,"Ġmaintenance":10157,"Ġarc":10158,"Ġdeadline":10159,"Ġconstitu":10160,"Ġmice":10161,"ĠET":10162,"Ġtalented":10163,"sub":10164,"ĠTesla":10165,"Ġmask":10166,"Ġunve":10167,"82":10168,"isdom":10169,"ĠEverything":10170,"necess":10171,"ixture":10172,"ĠMetro":10173,"Ġcolour":10174,"Ġpublishing":10175,"Ġnotable":10176,"Ġdramatically":10177,"eared":10178,"oting":10179,"ĠIM":10180,"ĠMarine":10181,"Ġparad":10182,"Ġdisplayed":10183,"opp":10184,"Ġbene":10185,"ĠWrit":10186,"rowing":10187,"Ġcontemporary":10188,"Ġaims":10189,"Ġmystery":10190,"Ġutility":10191,"ĠTrust":10192,"Ġcomics":10193,"Ġcorrectly":10194,"ĠCraig":10195,"Ġcamps":10196,"Ġbuck":10197,"Ġfunctional":10198,"screen":10199,"ĠChannel":10200,"Ġanalysts":10201,"ĠLevel":10202,"Ġinquiry":10203,"Ġinsight":10204,"ĠKl":10205,"Ġencouraging":10206,"ĠCR":10207,"ĠCB":10208,"Ġdreams":10209,"Ġlabour":10210,"VP":10211,"onz":10212,"Ġprize":10213,"ĠContinue":10214,"Ġassociate":10215,"Ġneighbors":10216,"Ġrecommendations":10217,"iban":10218,"Ġcheaper":10219,"ĠCoal":10220,"Ġlift":10221,"Ġcollaboration":10222,"Ġgest":10223,"Ġfatal":10224,"Ġdeployed":10225,"Ġcommunicate":10226,"ĠConvention":10227,"vi":10228,"Ġreserved":10229,"ĠIndependent":10230,"ĠMissouri":10231,"ĠArgent":10232,"Ġmanufacturers":10233,"ĠEditor":10234,"const":10235,"ĠEnt":10236,"Ġdisappointed":10237,"Ġdiplomatic":10238,"Ġprompted":10239,"Ġdistur":10240,"ĠOR":10241,"Ġtraged":10242,"Ġrepair":10243,"oga":10244,"ĠBes":10245,"incoln":10246,"Ġemployers":10247,"elle":10248,"estyle":10249,"Ġintr":10250,"Ġinterviewed":10251,"wa":10252,"ighth":10253,"Ġdemanded":10254,"cur":10255,"ĠNS":10256,"Ġlanded":10257,"Ġmoderate":10258,"Ġheroes":10259,"apore":10260,"ĠAuthority":10261,"Ġnose":10262,"ĠReserve":10263,"cor":10264,"Ġfights":10265,"Ġviolations":10266,"Ġcouples":10267,"arget":10268,"Ġseized":10269,"ĠSD":10270,"Ġsessions":10271,"Ġcoup":10272,"Ġingredients":10273,"Ġexplosion":10274,"Ġknock":10275,"81":10276,"ĠFA":10277,"Ġanonymous":10278,"Ġprospects":10279,"instein":10280,"Ġoccasionally":10281,"Ġsubsc":10282,"Ġinequality":10283,"arted":10284,"Ġcens":10285,"Ġpleased":10286,"Ġcognitive":10287,"Ġemp":10288,"Ġaccompan":10289,"Ġrepresentation":10290,"mir":10291,"ĠMun":10292,"Os":10293,"unity":10294,"ĠAdams":10295,"Ġmodified":10296,"Ġpunch":10297,"PL":10298,"Ġartificial":10299,"ĠVen":10300,"Ġbirthday":10301,"Ġ</":10302,"Ġresolve":10303,"Ġbiological":10304,"Ġconstitution":10305,"ĠPlace":10306,"ĠHitler":10307,"Ġguests":10308,"throp":10309,"cour":10310,"ĠStandard":10311,"Ġlessons":10312,"Ġexclud":10313,"ĠOrlando":10314,"Ġconsciousness":10315,"Ġirre":10316,"ĠPittsburgh":10317,"Ġ72":10318,"ĠModel":10319,"Ġecosystem":10320,"Ġintellig":10321,"inally":10322,"Ġoppose":10323,"ĠSteel":10324,"Ġowns":10325,"ĠLibrary":10326,"ricane":10327,"ĠNevada":10328,"Ġdrunk":10329,"ĠRaj":10330,"Ġbell":10331,"ipedia":10332,"Ġadequ":10333,"ĠPope":10334,"Ġtowns":10335,"pg":10336,"ĠArea":10337,"ĠWright":10338,"ĠPubl":10339,"iens":10340,"ixon":10341,"Ġadopt":10342,"Ġperformances":10343,"ĠChristopher":10344,"istant":10345,"Ġdesigner":10346,"ĠOfficer":10347,"ĠSheriff":10348,"will":10349,"Ġterr":10350,"Ġpregnant":10351,"wich":10352,"ĠIndones":10353,"Ġvolunteers":10354,"hist":10355,"Ġlifetime":10356,"acre":10357,"Ġhanging":10358,"ĠRome":10359,"Ġdefender":10360,"ĠPerry":10361,"leans":10362,"Ġrelation":10363,"Ġemotions":10364,"rank":10365,"Ġlogo":10366,"250":10367,"ĠProtection":10368,"ĠBor":10369,"Ġasset":10370,"ibl":10371,"agen":10372,"Ġmaintaining":10373,"Ġlibr":10374,"ĠTel":10375,"ĠStudies":10376,"Ġstimul":10377,"ĠFilm":10378,"ĠNO":10379,"ĠMountain":10380,"Ġcheese":10381,"ĠGh":10382,"Ġimposed":10383,"ĠMail":10384,"Ġpa":10385,"ulty":10386,"ĠInterest":10387,"ĠTs":10388,"Ġshirt":10389,"ĠEve":10390,"ĠGill":10391,"ĠPortug":10392,"isition":10393,"ials":10394,"Ġsoldier":10395,"endar":10396,"ILL":10397,"Ġclip":10398,"ĠEb":10399,"Ġabstract":10400,"ĠProduct":10401,"vo":10402,"Ġbands":10403,"ikh":10404,"ĠLeban":10405,"Ġprofessionals":10406,"ĠDuke":10407,"Ġconfused":10408,"Ġmilitants":10409,"ĠComb":10410,"Ġswit":10411,"Ġgirlfriend":10412,"Ġstamp":10413,"Ġwedding":10414,"Ġtraveling":10415,"Ġjumped":10416,"ĠNear":10417,"Ġ600":10418,"Ġlesson":10419,"ĠRobinson":10420,"ĠCapitol":10421,"umph":10422,"Ġshocked":10423,"ailable":10424,"Ġaccum":10425,"Ġnurs":10426,"Ġunderground":10427,"Ġstro":10428,"Ġboxes":10429,"ĠMap":10430,"acles":10431,"Ġstack":10432,"hattan":10433,"AB":10434,"Ġrecalled":10435,"Ġguid":10436,"gets":10437,"Ġinterior":10438,"Ġisolated":10439,"vernment":10440,"appropri":10441,"ĠName":10442,"Ġconfiguration":10443,"rying":10444,"Ġnod":10445,"Ġopposing":10446,"Ġvocal":10447,"ĠSpir":10448,"Ġexisted":10449,"ĠHoly":10450,"Ġconcerning":10451,"ĠBand":10452,"GE":10453,"human":10454,"Ġannoy":10455,"Ġadvocate":10456,"Ġpm":10457,"Ã§":10458,"election":10459,"has":10460,"ĠStewart":10461,"Ġcreature":10462,"Ġsurrounded":10463,"awks":10464,"dr":10465,"Ġsne":10466,"starter":10467,"Ġvert":10468,"Ġ1989":10469,"Ġpodcast":10470,"Ġdescribing":10471,"Ġsubur":10472,"ĠOrleans":10473,"Ġforum":10474,"Ġquit":10475,"Ġjihad":10476,"Ġminimal":10477,"ĠMarg":10478,"ĠFR":10479,"ĠVar":10480,"Int":10481,"Ġsummit":10482,"Ġinspiration":10483,"Ġmile":10484,"Ġsilent":10485,"owned":10486,"ĠPant":10487,"Ġdesperate":10488,"ĠHamp":10489,"Ġvoid":10490,"Ġbrutal":10491,"Ġintegration":10492,"ĠGriff":10493,"Ġutter":10494,"Ġinherent":10495,"bourne":10496,"Ġrefers":10497,"150":10498,"Ġkicked":10499,"orge":10500,"Ġchoosing":10501,"ĠMother":10502,"ĠVlad":10503,"Ġreferences":10504,"ĠAren":10505,"ĠResp":10506,"Ġyeah":10507,"Ġpeaceful":10508,"gate":10509,"abe":10510,"ĠRs":10511,"tra":10512,"ĠLincoln":10513,"ĠGib":10514,"Ġholes":10515,"Ġintegrity":10516,"(\"":10517,"hero":10518,"Ġthro":10519,"Ġorganisation":10520,"ĠBlood":10521,"Ġyell":10522,"Ġideology":10523,"Ġ62":10524,"ĠSubscribe":10525,"Ġdesktop":10526,"Ġcredits":10527,"Ġfleet":10528,"ĠUb":10529,"pack":10530,"Ġregistration":10531,"Ġcompr":10532,"Ġelectoral":10533,"Ġburied":10534,"Ġmomentum":10535,"Ġbankrupt":10536,"Ġstruggles":10537,"Ġsuspic":10538,"ĠED":10539,"Ġembrace":10540,"Ġevident":10541,"ĠEntertain":10542,"Ġteammates":10543,"ĠAlliance":10544,"Ġmeal":10545,"father":10546,"ĠHung":10547,"Ġeuro":10548,"Ġrefuse":10549,"Ġancest":10550,"Ġsubmit":10551,"ĠTreasury":10552,"Ġprobe":10553,"ĠSingapore":10554,"Ġsustainable":10555,"Ġknife":10556,"Ġteeth":10557,"books":10558,"Ġathe":10559,"rock":10560,"Ġexpense":10561,"Ġjer":10562,"Ġwondering":10563,"imize":10564,"Ġdual":10565,"Ġpromotion":10566,"Ġnervous":10567,"Ġbombs":10568,"ĠCars":10569,"pen":10570,"Ġscar":10571,"ĠUkrainian":10572,"Ġacceptable":10573,"Ġrefugee":10574,"Ġbird":10575,"Ġ59":10576,"Ġguards":10577,"ĠSoft":10578,"Ġconvert":10579,"ĠWithin":10580,"ĠOil":10581,"hire":10582,"While":10583,"Ġsubscribe":10584,"Fi":10585,"TR":10586,"bound":10587,"Ġpride":10588,"Ġremoving":10589,"Ġclosest":10590,"atus":10591,"ĠUnivers":10592,"Ġexpenses":10593,"HA":10594,"utter":10595,"Ġprofound":10596,"ĠNazi":10597,"istle":10598,"ĠFOR":10599,"income":10600,"Let":10601,"Ġflour":10602,"Ġdominated":10603,"dict":10604,"Ġstating":10605,"ĠTam":10606,"cal":10607,"Ġelectron":10608,"ĠEmer":10609,"ĠManhattan":10610,"Ġoccasional":10611,"Ġjustify":10612,"Ġdelight":10613,"Ġbriefly":10614,"inge":10615,"ĠChairman":10616,"ĠWarner":10617,"Ġcompromise":10618,"Ġassembly":10619,"chell":10620,"aro":10621,"Ġcharacteristics":10622,"Ġengaging":10623,"ĠKings":10624,"ĠKr":10625,"Ġexclusively":10626,"some":10627,"ĠJane":10628,"strong":10629,"ĠCas":10630,"Ġconsiderable":10631,"bes":10632,"âĸĪ":10633,"ĠUSB":10634,"Ġsurvived":10635,"ĠClimate":10636,"Ġjournalism":10637,"ĠJerry":10638,"Ġtremendous":10639,"Ġinterpretation":10640,"Ġexecuted":10641,"Ġdonors":10642,"ĠÂ±":10643,"Ġbreast":10644,"UC":10645,"ĠCommand":10646,"grad":10647,"ĠDrug":10648,"Ġloaded":10649,"eling":10650,"Ġmonster":10651,"ĠPoll":10652,"ĠCPU":10653,"stop":10654,"omic":10655,"Ġprost":10656,"Ġkeyboard":10657,"ocated":10658,"otte":10659,"ĠBC":10660,"Ġsubsequently":10661,"UM":10662,"Ġdisappear":10663,"Ġflee":10664,"oker":10665,"ĠGiants":10666,"TON":10667,"Ġharsh":10668,"Ġcontrary":10669,"Ġconfusion":10670,"Ġoutcomes":10671,"Ġsophistic":10672,"ĠEdit":10673,"Ġchaos":10674,"ĠSection":10675,"Ġprinted":10676,"ĠOsc":10677,"Ġsteady":10678,"Ġ66":10679,"Ġengines":10680,"Ġobser":10681,"Ġreserv":10682,"cop":10683,"ĠNether":10684,"ĠNi":10685,"Ġministers":10686,"ĠPoland":10687,"Ġspo":10688,"Ġrobust":10689,"orneys":10690,"ĠTrue":10691,"ĠMario":10692,"Ġlobb":10693,"security":10694,"attered":10695,"ĠDal":10696,"Ġspeakers":10697,"ĠTaliban":10698,"Ġcertific":10699,".]":10700,"Ġgameplay":10701,"Ġdistricts":10702,"elve":10703,"ĠMississ":10704,"Me":10705,"Ġfel":10706,"Ġroutes":10707,"Ġsexually":10708,"Ġmirror":10709,"ĠTower":10710,"Ġcurious":10711,"Ġconcert":10712,"ĠVin":10713,"Ġasylum":10714,"Ġspeculation":10715,"Ġproportion":10716,"lihood":10717,"Ġphysics":10718,"ĠFather":10719,"ĠOttawa":10720,"good":10721,"ĠCopyright":10722,"Ġchip":10723,"Ġattending":10724,"ben":10725,"Ġbrands":10726,"NBC":10727,"Ġpir":10728,"Ġrevolutionary":10729,"Ġfails":10730,"reck":10731,"ĠGrant":10732,"Station":10733,"Ġhiring":10734,"Ġpatent":10735,"immer":10736,"ester":10737,"via":10738,"Ġgri":10739,"Ġlin":10740,"}}":10741,"apper":10742,"wind":10743,"ĠDak":10744,"ĠHug":10745,"cap":10746,"Ġ800":10747,"âĶ":10748,"Ġcabinet":10749,"ĠRound":10750,"QL":10751,"mble":10752,"Ġchronic":10753,"Ġcriminals":10754,"Ġpassenger":10755,"Ġpackages":10756,"EX":10757,"Ġnowhere":10758,"ĠSEC":10759,"Ġdeemed":10760,"Ġembed":10761,"enh":10762,"ĠDa":10763,"Ġwitnesses":10764,"ĠMPs":10765,"leep":10766,"ĠEdition":10767,"Ġchallenged":10768,"ï¼":10769,"ĠEntertainment":10770,"--------------------------------":10771,"ĠVo":10772,"ĠNiger":10773,"ĠCold":10774,"Ġstrengthen":10775,"Se":10776,"ĠWinter":10777,"ĠBased":10778,"Ġcinem":10779,"ĠHans":10780,"ifier":10781,"ĠDeep":10782,"ĠSche":10783,"adi":10784,"Ġpresents":10785,"Ã¨":10786,"Ġda":10787,"Ġalert":10788,"Ġendors":10789,"ĠSN":10790,"Ġfert":10791,"amous":10792,"Ġoxy":10793,"Ġcharging":10794,"Ġdropping":10795,"ĠJimmy":10796,"Ġnu":10797,"Ġjuris":10798,"Ġevac":10799,"Ġguaranteed":10800,"Ġcorrel":10801,"mented":10802,"Ġavo":10803,"Ġfigured":10804,"ateful":10805,"Ġassemb":10806,"ernand":10807,"Ġpacked":10808,"ĠNelson":10809,"ĠPhys":10810,"Ġleaked":10811,"oub":10812,"ĠStock":10813,"Ġ63":10814,"rc":10815,"Ġsuspension":10816,"ping":10817,"ĠFlash":10818,"anim":10819,"Ġhosts":10820,"Ġproduces":10821,"lu":10822,"Ġmathemat":10823,"white":10824,"DR":10825,"vas":10826,"ĠAbu":10827,"ophob":10828,"ĠWi":10829,"Ġdefended":10830,"ardo":10831,"ĠBuy":10832,"ĠAbd":10833,"reshold":10834,"Ġattracted":10835,"ĠNich":10836,"Ġslot":10837,"Ġchecking":10838,"Ã³n":10839,"ĠFO":10840,"user":10841,"ĠMind":10842,"Ġhunting":10843,"Ġengagement":10844,"Ġstatic":10845,"Ġdevelopments":10846,"Ġpleasure":10847,"Ġepic":10848,"ĠRussians":10849,"Ġsimultaneously":10850,"Ġtear":10851,"Ġwet":10852,"Ġcaps":10853,"ishers":10854,"graph":10855,"ĠOverall":10856,"Ġpatri":10857,"tarian":10858,"Ġresearcher":10859,"ĠQueens":10860,"thood":10861,"Ġblocking":10862,"Ġrepeal":10863,"nan":10864,"ĠFact":10865,"Ġintegrated":10866,"ĠGard":10867,"aste":10868,"ART":10869,"rics":10870,"Ġbacteria":10871,"ĠCanadians":10872,"Ġangle":10873,"Ġboom":10874,"Ġrecovered":10875,"Ġenact":10876,"adesh":10877,"May":10878,"Ġexamine":10879,"ĠPa":10880,"imir":10881,"Ġvariables":10882,"merce":10883,"Ġjunior":10884,"Äģ":10885,"Ġcycl":10886,"lynn":10887,"Ġsolo":10888,"Ġflavor":10889,"ĠKa":10890,"Ġlane":10891,"KE":10892,"Ġbits":10893,"inst":10894,"gged":10895,"Ġbombing":10896,"ĠVictoria":10897,"ĠFinancial":10898,"Ġdependent":10899,"Rep":10900,"Ġvit":10901,"Ġfingers":10902,"ĠHIV":10903,"izarre":10904,"ATCH":10905,"ĠSnowden":10906,"Ġeditorial":10907,"Ġtaxpayers":10908,"Ġagreements":10909,"Ġric":10910,"ĠDate":10911,"BN":10912,"dam":10913,"Ġradiation":10914,"Ġhouseholds":10915,"thodox":10916,"Ġsurprisingly":10917,"ĠModern":10918,"Ġflights":10919,"low":10920,"gal":10921,"ĠEgyptian":10922,"Ġraises":10923,"thur":10924,"Ġorient":10925,"700":10926,"Ġpublish":10927,"uter":10928,"ormal":10929,"Ġimpacts":10930,"ĠBir":10931,"Ġbacks":10932,"ERE":10933,"ĠWy":10934,"oned":10935,"Ġblamed":10936,"Ġinher":10937,"oft":10938,"Ġdecrease":10939,"ĠBlake":10940,"Ġforgotten":10941,"Ġscared":10942,"ĠStanford":10943,"erent":10944,"Ġexpects":10945,"Ġconsecut":10946,"ui":10947,"Ġenabled":10948,"ĠLarry":10949,"Ġmotivated":10950,"Ġaccuracy":10951,"Ne":10952,"Ġproductive":10953,"Ġalliance":10954,"nie":10955,"Ġunnecess":10956,"Ġburned":10957,"Ġintimid":10958,"Ġkiller":10959,"ĠSport":10960,"Ġcontinu":10961,"bian":10962,"ĠModi":10963,"Ġvent":10964,"ĠLouisiana":10965,"Ġrestore":10966,"ĠRubio":10967,"Ġtower":10968,"Ġbarg":10969,"ĠOlympics":10970,"ĠAlaska":10971,"limited":10972,"Ġranking":10973,"ĠVery":10974,"Ġaccord":10975,"Ġlos":10976,"Ġtanks":10977,"Ġinfluenced":10978,"Ġidentical":10979,"ĠSin":10980,"etheless":10981,"Ġignor":10982,"ressing":10983,"âĢ¦.":10984,"ĠNik":10985,"Ġcourage":10986,"Ġoccasion":10987,"Ġflav":10988,"Ġcourtesy":10989,"Ġexpecting":10990,"terror":10991,"Ġreass":10992,"Ġoccupied":10993,"Ġventure":10994,"iere":10995,"ĠPear":10996,"dep":10997,"gly":10998,"looking":10999,"ĠRangers":11000,"Ġpy":11001,"Ġhub":11002,"Ġexplicitly":11003,"ĠStanley":11004,"Ġcriteria":11005,"Ġdesp":11006,"Ġqualified":11007,"inite":11008,"Ġinevitable":11009,"riminal":11010,"icked":11011,"ĠMalays":11012,"Ġ`":11013,"ĠSummer":11014,"Ġvisits":11015,"Ġdistribut":11016,"iden":11017,"Ġanimation":11018,"ulse":11019,"Ġshops":11020,"ĠFif":11021,"ĠiPad":11022,"Ġevolved":11023,"ĠCloud":11024,"Ġtransferred":11025,"Ġtrailer":11026,"ahoo":11027,"Ġsenators":11028,"ĠManning":11029,"wed":11030,"Ġconflicts":11031,"Ġfunctionality":11032,"ippi":11033,"Ġchecked":11034,"ĠFight":11035,"Ġreleasing":11036,"ixel":11037,"Ġtelephone":11038,"Ġnationwide":11039,"iar":11040,"Ġuncertainty":11041,"achment":11042,"ĠCaption":11043,"ĠTalk":11044,"vol":11045,"Ġdeparture":11046,"forward":11047,"Ġpromoted":11048,"ĠBlock":11049,"Ġorganis":11050,"Ġoutf":11051,"ĠMedicaid":11052,"Ġchocolate":11053,"vation":11054,"ĠCitiz":11055,"Ġpolitician":11056,"Ġbelt":11057,"ĠTokyo":11058,"Ġinaug":11059,"ĠProm":11060,"large":11061,"ĠCorp":11062,"rition":11063,"Ġbabies":11064,"Ġmeters":11065,"olid":11066,"zone":11067,"ĠNature":11068,"ĠFle":11069,"Ġstats":11070,"Ġscrew":11071,"ĠHamas":11072,"Ġimprison":11073,"Ġearthqu":11074,"Ġdiver":11075,"ĠCollins":11076,"Ġtransparency":11077,"Ġapplies":11078,"uating":11079,"Ġinvestigated":11080,"Ġrebuild":11081,"leading":11082,"Ġally":11083,"untu":11084,"ĠNetherlands":11085,"aco":11086,"Ġwise":11087,"Ġmodest":11088,"ĠKal":11089,"Ġprivilege":11090,"Ġpainting":11091,"Ġsinger":11092,"agine":11093,"Ġbases":11094,"Ġprovider":11095,"Ġ67":11096,"Ġjet":11097,"Ġsolely":11098,"Ġbol":11099,"Ġtent":11100,"FO":11101,"may":11102,"uz":11103,"ĠBeh":11104,"onduct":11105,"Ġkiss":11106,"Ġconcentration":11107,"Ġuncomfort":11108,"reek":11109,"ĠForest":11110,"Ġreluct":11111,"ĠLad":11112,"card":11113,"Ġvolunt":11114,"breaking":11115,"ollar":11116,"ĠSmall":11117,"~~":11118,"Ġballs":11119,"ĠPython":11120,"Ġ61":11121,"Ġformula":11122,"Ġvoc":11123,"keley":11124,"ĠPlayStation":11125,"rifice":11126,"Ġought":11127,"ĠWayne":11128,"Ġinfection":11129,"Ġtheft":11130,"Ġheadlines":11131,"erald":11132,"JP":11133,"imb":11134,"Ġdimin":11135,"Ġorbit":11136,"ĠChron":11137,"Ġsake":11138,"Ġentrance":11139,"ĠLuke":11140,"Ġinvested":11141,"Ġalgorithm":11142,"ĠHampshire":11143,"Ġoverl":11144,"Ġimpressed":11145,"leted":11146,"Res":11147,"Ġdisabled":11148,"Ġhandled":11149,"Ġlifestyle":11150,"olas":11151,"ĠSmart":11152,"ĠMand":11153,"Ġmart":11154,"izations":11155,"ĠMedicare":11156,"ĠBuilding":11157,"Ġregarded":11158,"oup":11159,"Ġinfluential":11160,"Ġpoet":11161,"Ġâĸ":11162,"ĠEC":11163,"Ġpassword":11164,"Ġlens":11165,"amine":11166,"rike":11167,"ĠSM":11168,"Ġfilter":11169,"ĠTrek":11170,"Ġinsur":11171,"ĠToy":11172,"ista":11173,"ĠLaur":11174,"Ġsimilarly":11175,"Ġanalys":11176,"offs":11177,"Ġinbox":11178,"Ġconsecutive":11179,"ĠCorporation":11180,"orate":11181,"ĠOrganization":11182,"Ġchips":11183,"Ġstrip":11184,"ilation":11185,"Ġprovisions":11186,"ĠNash":11187,"tery":11188,"uther":11189,"ĠQual":11190,"Ġdestination":11191,"?âĢĻ":11192,"ampa":11193,"Ġbulk":11194,"Ġsuck":11195,"Ġcolleg":11196,"Ġprosecutor":11197,"ÙĦ":11198,"ĠSteam":11199,"Ġbone":11200,"anguage":11201,"ĠMorm":11202,"Col":11203,"ĠAFP":11204,"Ġabsurd":11205,"Ġaccepting":11206,"Ġgym":11207,"Ġprosecution":11208,"ĠRonald":11209,"being":11210,"block":11211,"?)":11212,"idal":11213,"Ġimmune":11214,"ĠKnight":11215,"ĠInn":11216,"ĠPhilippines":11217,"Ġguidance":11218,"overs":11219,"ante":11220,"Ġdestro":11221,"df":11222,"Ġtears":11223,"olitan":11224,"ĠChampions":11225,"ding":11226,"Ġantib":11227,"ESS":11228,"Ġoperated":11229,"ĠMcDonald":11230,"Ġlean":11231,"Ġrolled":11232,"Ġinex":11233,"ĠEnvironmental":11234,"Ġoperator":11235,"town":11236,").[":11237,"ĠRT":11238,"rah":11239,"Ġreck":11240,"ĠNa":11241,"Ġlaunching":11242,"Ġkeen":11243,"2013":11244,"Ġcomplained":11245,"Ġtragedy":11246,"Ġmales":11247,"Ġgarden":11248,"ĠPod":11249,"ĠImp":11250,"Ġpreserve":11251,"ĠRoger":11252,"âĢĿ)":11253,"ĠProgress":11254,"dog":11255,"ĠTan":11256,"ouses":11257,"Ġdetention":11258,"urches":11259,"Ġneur":11260,"Ġboards":11261,"ĠLooking":11262,"Ġsettle":11263,"Ġbother":11264,"ĠOw":11265,"iper":11266,"ĠYang":11267,"ĠSingh":11268,"vironments":11269,"Ġpolling":11270,"bitious":11271,"comp":11272,"ĠBetween":11273,"Ġ1000":11274,"Ġluxury":11275,"ĠMurphy":11276,"non":11277,"track":11278,"Ġsynd":11279,"armed":11280,"million":11281,"ĠMcCon":11282,"Ġemphasis":11283,"about":11284,"boys":11285,"llor":11286,"isms":11287,"Ġconviction":11288,"Ġbeneath":11289,"Ġcompelling":11290,"Ġbeta":11291,"oning":11292,"ĠWiki":11293,"Ġadap":11294,"CL":11295,"Ġfits":11296,"Ġawards":11297,"ĠNative":11298,"Ġgut":11299,"Ġfucking":11300,"Ġexcuse":11301,"such":11302,"Ġenfor":11303,"Ġelabor":11304,"Ġtheater":11305,"ĠPir":11306,"Ġkidn":11307,"Ġexamined":11308,"Ġmissiles":11309,"Ġphotographs":11310,"Ġparticipating":11311,"Ġsustained":11312,"citation":11313,"assion":11314,"Ġconsists":11315,"ĠBenn":11316,"friendly":11317,"ĠPeace":11318,"itement":11319,"Ġneighborhoods":11320,"Ġbump":11321,"ĠDrive":11322,"Ġresemb":11323,"Ġposter":11324,"Ġmandate":11325,"ĠKurdish":11326,"una":11327,"ĠDean":11328,"ĠAy":11329,"Ġshelter":11330,"Ġfed":11331,"Ġ68":11332,"Ġcircuit":11333,"ige":11334,"ĠRh":11335,"ĠComput":11336,"Ġoccasions":11337,"Ġrealistic":11338,"laim":11339,"ucker":11340,"Ġtrains":11341,"fish":11342,"Ġprojected":11343,"Ġmouse":11344,"bin":11345,"link":11346,"Ġbags":11347,"Ġentity":11348,"Ġreflects":11349,"Ġrecession":11350,"ĠIV":11351,"ĠSep":11352,"ĠAgainst":11353,"Ġtension":11354,"Ġleak":11355,"Ġaffects":11356,"Ġmanual":11357,"Ġaccusations":11358,"Ġsupposedly":11359,"Ġaccompanied":11360,"gov":11361,"Ġadvent":11362,"Ġsubtle":11363,"Ġpossibilities":11364,"Ġfer":11365,"usting":11366,"2017":11367,"ĠCry":11368,"ĠJess":11369,"Ġexperimental":11370,"Ġmm":11371,"Ġpose":11372,"Ġresidential":11373,"Ab":11374,"Ġstopping":11375,"Ġbackup":11376,"ĠMas":11377,"ĠJen":11378,"Ġseeks":11379,"ĠSac":11380,"ĠReds":11381,"istance":11382,"Ġsurge":11383,"ĠLess":11384,"Ġeru":11385,"ĠNap":11386,"Ġcooking":11387,"Ġsignificance":11388,"Ġinnovative":11389,"Ġpreventing":11390,"Ġdressed":11391,"ĠDomin":11392,"Ġdrum":11393,"Ġadvertisement":11394,"Ġinhab":11395,"iah":11396,"Ġrenewable":11397,"ĠCuba":11398,"bery":11399,"ugby":11400,"âĢ³":11401,"Ġdocumented":11402,"ĠBah":11403,"Or":11404,"Ġintrig":11405,"GA":11406,"ĠPatriots":11407,"Ġconstructed":11408,"Ġcops":11409,"Of":11410,"Ġinfant":11411,"ĠSide":11412,"Ġlayers":11413,"speed":11414,"century":11415,"Ġrhy":11416,"ĠPinterest":11417,"ĠWhit":11418,"Ġassists":11419,"Ġgolf":11420,"News":11421,"Ġwisdom":11422,"Ġoutstanding":11423,"Ġfavourite":11424,"Ġtheoret":11425,"Ġhes":11426,"ĠRow":11427,"Ġspeeds":11428,"ĠDor":11429,"Ġcoin":11430,"Ġlongtime":11431,"ĠBlu":11432,"former":11433,"Ġfut":11434,"ĠDVD":11435,"wall":11436,"ĠAnti":11437,"Ġoldest":11438,"Ġbeaten":11439,"Ġpainful":11440,"anyahu":11441,"ĠTaiwan":11442,"ĠFun":11443,"Ġsecular":11444,"ĠCommons":11445,"Ġdocumentation":11446,"words":11447,"Ġoccupation":11448,"ilst":11449,"mart":11450,"iox":11451,"ĠMotor":11452,"ĠGre":11453,"ĠNEW":11454,"ĠSE":11455,"Ġfinishing":11456,"ĠTell":11457,"ĠReid":11458,"Ġcontroller":11459,"ĠAsked":11460,"Ġtraded":11461,"thal":11462,"Ġpolar":11463,"function":11464,"Ġreviewed":11465,"Ġpanels":11466,"Ġwireless":11467,"Ġmysterious":11468,"Ġglobe":11469,"ĠHeat":11470,"Ġpraised":11471,"Ġiconic":11472,"ĠAirport":11473,"Ġiter":11474,"rons":11475,"itty":11476,"Ġinteractions":11477,"Ġliberty":11478,"incial":11479,"Ġcleared":11480,"ĠIan":11481,"Ġ1988":11482,"ĠPlayers":11483,"ĠAlong":11484,"uy":11485,"Ġtorn":11486,"oop":11487,"Ġspotted":11488,"Ġtrips":11489,"ĠBab":11490,"ĠPel":11491,"IO":11492,"ĠPur":11493,"Ġawful":11494,"ĠOrange":11495,"Ġbicy":11496,"Ġther":11497,"ĠHTML":11498,"ĠBeyond":11499,"From":11500,"ĠMississippi":11501,"ĠWard":11502,"ĠHann":11503,"Ġwalks":11504,"ĠMagazine":11505,"Ġsurre":11506,"Ġautomatic":11507,"Ġdirty":11508,"EMENT":11509,"ĠLen":11510,"ĠGab":11511,"ĠFergus":11512,"Ġcrossed":11513,"Ġrevenues":11514,"ĠJacob":11515,"Ġcrossing":11516,"uke":11517,"Ġhosting":11518,"ĠKy":11519,"Ġcontainer":11520,"ppers":11521,"Ġfishing":11522,"ĠChall":11523,"ĠStorm":11524,"Ġbip":11525,"ĠMitchell":11526,"Ġalign":11527,"Ġthreshold":11528,"ĠSwedish":11529,"ĠSessions":11530,"Ġresort":11531,"âĤ¬":11532,"Ġsteal":11533,"Ġenvironments":11534,"ĠMA":11535,"SC":11536,"arts":11537,"ĠManager":11538,"stra":11539,"Ġanch":11540,"Ġproductivity":11541,"kind":11542,"ects":11543,"DC":11544,"ĠRap":11545,"seless":11546,"Ġdisplays":11547,"Ġearnings":11548,"arded":11549,"Ġranging":11550,"Ġoperators":11551,"Ġdealt":11552,"ĠKas":11553,"Ġbizarre":11554,"Ġburst":11555,"2012":11556,"ĠMadrid":11557,"ĠLady":11558,"ĠSpeaker":11559,"Ġlady":11560,"Ġmortgage":11561,"iated":11562,"otion":11563,"ĠGene":11564,"Ġriders":11565,"uels":11566,"first":11567,"fers":11568,"MAN":11569,"Ġfiling":11570,"Ġconvenient":11571,"ĠWel":11572,"Ġtoss":11573,"ĠHunter":11574,"Ġ360":11575,"aments":11576,"Ġrobots":11577,"Ġconverted":11578,"ĠNaz":11579,"Ġunfortunately":11580,"neg":11581,"sk":11582,"Ġjurisd":11583,"isive":11584,"Ġgraphic":11585,"Ġslide":11586,"Ġadministrative":11587,"ĠTodd":11588,"ĠFlynn":11589,"TE":11590,"obb":11591,"Ġcreator":11592,"charg":11593,"ĠQuebec":11594,"Ġpour":11595,"ĠHuff":11596,"Ġlibraries":11597,"Ġmothers":11598,"ĠBenj":11599,"ocial":11600,"Ġtale":11601,"Ġdevastating":11602,"Ġcalculated":11603,"ĠAmb":11604,"ĠBeat":11605,"Ġearning":11606,"ching":11607,"Ġdoctr":11608,"Ġmurdered":11609,"Ġregret":11610,"Ġpredec":11611,"cular":11612,"iors":11613,"Ġhiding":11614,"Ġaddressing":11615,"Ġreserve":11616,"ĠChrome":11617,"mons":11618,"beat":11619,"arios":11620,"test":11621,"Ġattorneys":11622,"Ġspray":11623,"ĠMarshall":11624,"ĠSafety":11625,"Ġreflected":11626,"celona":11627,"Ġovernight":11628,"shore":11629,"Ġdrops":11630,"Ġambitious":11631,"Ġ1984":11632,"uably":11633,"Ġrewards":11634,"Ġrestricted":11635,"Ġsleeping":11636,"opt":11637,"ND":11638,"ĠLions":11639,"UD":11640,"Ġappearing":11641,"ĠEagles":11642,"Ġexploit":11643,"Ġsafely":11644,"ĠGa":11645,"ĠCampbell":11646,"ĠDom":11647,"ĠSwit":11648,"Ġnewsletters":11649,"Ġmunicipal":11650,"encer":11651,"named":11652,"owder":11653,"isting":11654,"ĠCos":11655,"ĠNetanyahu":11656,"ĠVladimir":11657,"Ġwore":11658,"Ġindication":11659,"kward":11660,"arma":11661,"ASH":11662,"Ġviewing":11663,"Ġuncomfortable":11664,"ailing":11665,"ĠBrandon":11666,"Ġcompetitors":11667,"Ġscrutiny":11668,"Ġamongst":11669,"ĠWatson":11670,"Ġcoins":11671,"Ġwhis":11672,"Ġcombine":11673,"Ġarrests":11674,"Ġadoption":11675,"ĠLawrence":11676,"uj":11677,"ĠLie":11678,"Ġavailability":11679,"map":11680,"alid":11681,"ĠBerkeley":11682,"ĠCongressional":11683,"ĠPrint":11684,"Ġlimitations":11685,"Ġcurve":11686,"ĠEX":11687,"Ġrelie":11688,"ĠBaker":11689,"ĠSad":11690,"Ġseeds":11691,"Ġnewspapers":11692,"Ġdepartments":11693,"Ġcomplexity":11694,"Ġpeer":11695,"ques":11696,"Ġrivals":11697,"Ġmeets":11698,"Ġduties":11699,"Ġsons":11700,"ĠKyle":11701,"acies":11702,"Ġdelayed":11703,"bus":11704,"government":11705,"ĠPosts":11706,"Ġpublisher":11707,"ĠKickstarter":11708,"Ġwinners":11709,"arians":11710,"Ġexploring":11711,"ĠBL":11712,"mid":11713,"avery":11714,"Ġcommod":11715,"ĠText":11716,"profile":11717,"Ġpregnancy":11718,"Ġmisc":11719,"Ġpreparation":11720,"Ġintelligent":11721,"Ġcollecting":11722,"Ġsophisticated":11723,"Ġtoug":11724,"rot":11725,"ĠCa":11726,"Ġinterven":11727,"Ġpension":11728,"winning":11729,"ĠMelbourne":11730,"Ġ76":11731,"Ġnights":11732,"count":11733,"Ġhorrible":11734,"Ġdesert":11735,"Ġbuilds":11736,"Ġtu":11737,"Ġreign":11738,"Ġrebel":11739,"ĠDraft":11740,"Ġemployer":11741,"XX":11742,"Ġbeef":11743,"cat":11744,"size":11745,"Ġindu":11746,"ĠMcM":11747,"ĠMobile":11748,"Ġanonym":11749,"Ġorange":11750,"Ġ1986":11751,"Ġprayer":11752,"Ġcelebrated":11753,"Ġritual":11754,"ĠFederation":11755,"Ġabund":11756,"Ġacted":11757,"obby":11758,"ĠSaint":11759,"Ġcorn":11760,"Ġviable":11761,"Ġcease":11762,"Ġseparated":11763,"Ġthemes":11764,"ĠParker":11765,"Ġdeserves":11766,"Ġtissue":11767,"Ġrelatives":11768,"bet":11769,"Ġsuggestions":11770,"Ġradar":11771,"Ġparameters":11772,"Ġdelegates":11773,"ernel":11774,"TO":11775,"athon":11776,"agu":11777,"Ġcarrier":11778,"accept":11779,"ocur":11780,"err":11781,"Russ":11782,".),":11783,"ĠMom":11784,"Ġcourses":11785,"two":11786,"ĠArts":11787,"ĠBrand":11788,"ĠChristianity":11789,"Ġchemicals":11790,"Ps":11791,"Ġmechanisms":11792,"Ġmeanwhile":11793,"burn":11794,"Ġdetained":11795,"SU":11796,"Ġstir":11797,"ĠCommissioner":11798,"ĠExpress":11799,"Ġquietly":11800,"Ġpsychiat":11801,"Ġoxygen":11802,"Ġlighting":11803,"cre":11804,"Ġcommands":11805,"ĠDJ":11806,"Ġcaution":11807,"arer":11808,"ĠFerguson":11809,"Ġfirearms":11810,"ĠLaure":11811,"ĠCoalition":11812,"Ġworlds":11813,"bably":11814,"Ġfet":11815,"Ġpending":11816,"Ġstartup":11817,"Ġfundament":11818,"oyd":11819,"SE":11820,"ĠAwards":11821,"Ġequipped":11822,"ugs":11823,"Ġaspir":11824,"rior":11825,"ĠBloomberg":11826,"Ġgradually":11827,"Ġbugs":11828,"ĠCurrently":11829,"ersion":11830,"Ġensuring":11831,"rencies":11832,"ICE":11833,"Ġdebates":11834,"Ġgentle":11835,"Ġremembered":11836,"Ġambassador":11837,"Ġnotably":11838,"Ġcave":11839,"Ġwitnessed":11840,"Ġcatast":11841,"ĠArena":11842,"omach":11843,"âĶĢ":11844,"ĠBart":11845,"Ġtob":11846,"Ġdelivering":11847,"Ġfires":11848,"natural":11849,"Ġtends":11850,"ATED":11851,"Ġchamber":11852,"quer":11853,"ĠSoon":11854,"Ġinstallation":11855,"isode":11856,"ĠLegisl":11857,"SD":11858,"ĠStein":11859,"Ġcountless":11860,"dev":11861,"Ġcommentary":11862,"ĠFro":11863,"ĠAdvertisements":11864,"ĠRy":11865,"Ñı":11866,"Ð²":11867,"Ġtranslation":11868,"ĠCOM":11869,"Ġ''":11870,"ĠMorris":11871,"piece":11872,"Ġgrants":11873,"uh":11874,"emit":11875,"Ġforb":11876,"Ġdemonstration":11877,"ĠIC":11878,"Ġvenue":11879,"Ġoffseason":11880,"oda":11881,"ĠSong":11882,"Co":11883,"Ġpledge":11884,"Ġunl":11885,"ĠHend":11886,"founder":11887,"Ġmigration":11888,"Ass":11889,"Ġpricing":11890,"Ġtempt":11891,"Ġviolated":11892,"Ġlogical":11893,"Ġverify":11894,"Ġgrave":11895,"ĠRain":11896,"Ġquestioning":11897,"Ġimpose":11898,"Name":11899,"ĠHus":11900,"Ġdiscipline":11901,"Ġactress":11902,"omer":11903,"Ġpartially":11904,"Ġsummary":11905,"pot":11906,"Ġgolden":11907,"ĠSimilarly":11908,"ĠCorps":11909,"Ġ01":11910,"Ġadj":11911,"Ġhappiness":11912,"lesh":11913,"ĠCampaign":11914,"Ġtum":11915,"shot":11916,"Ġcruel":11917,"ĠObviously":11918,"Ġannually":11919,"Ġghost":11920,"Ġfrustration":11921,"outing":11922,"IST":11923,"Ġreplacing":11924,"Ġcomed":11925,"ĠKerry":11926,"fi":11927,"Ġexploration":11928,"Ġdemo":11929,"Ġbonds":11930,"Ġsizes":11931,"uates":11932,"Ġincorrect":11933,"Ġarena":11934,"ATION":11935,"ĠMov":11936,"Ġhighlighted":11937,"ĠNatural":11938,"ĠBarcelona":11939,"Ã¥":11940,"oples":11941,"Ġstyles":11942,"ĠBenjamin":11943,"Ġdisappeared":11944,"Ġwound":11945,"arently":11946,"Ġpoorly":11947,"Ġfurn":11948,"Ġdrinks":11949,"Ġpreview":11950,"ĠKarl":11951,"ĠHP":11952,"Ġdesignated":11953,"Ġprevented":11954,"gments":11955,"Ġalike":11956,"ĠSenior":11957,"ĠNat":11958,"Ġtechnological":11959,"ori":11960,"ĠEvans":11961,"ĠRoc":11962,"ĠUI":11963,"ĠRegard":11964,"Ġendless":11965,"Ġpraise":11966,"orical":11967,"Ġprol":11968,"oday":11969,"Ġtransmission":11970,"Ġstarter":11971,"rint":11972,"Ġmarginal":11973,"fs":11974,"Ġconced":11975,"Ġenterprise":11976,"ĠHawaii":11977,"Ġsupporter":11978,"Sc":11979,"Ġpermitted":11980,"py":11981,"Ġhunt":11982,"onda":11983,"ĠNevertheless":11984,"formance":11985,"ĠFarm":11986,"string":11987,"ected":11988,"Ġhonestly":11989,"Ġprosper":11990,"ols":11991,"ĠBE":11992,"ĠCut":11993,"bie":11994,"ĠMcConnell":11995,"Ġclimb":11996,"ĠNCAA":11997,"Ġplanes":11998,"Ġcultiv":11999,"ĠForces":12000,"Ġprotections":12001,"Ġcomplain":12002,"ĠPrior":12003,"ĠBond":12004,"Ġlaptop":12005,"ĠElection":12006,"ĠHotel":12007,"/.":12008,"urities":12009,"ĠMoney":12010,"di":12011,"Ġobservations":12012,"Ġfascinating":12013,"aucus":12014,"ĠDakota":12015,"ĠBarry":12016,"udeau":12017,"Ġcontents":12018,"ttes":12019,"ĠRecords":12020,"Ġaltogether":12021,"Ġsuggestion":12022,"Ġparks":12023,"Ġbubble":12024,"Ġbathroom":12025,"ĠDog":12026,"Ġdil":12027,"rait":12028,"ĠRice":12029,"ĠDoug":12030,"rin":12031,"Ġinstantly":12032,"ologically":12033,"ĊĠĊĠĊĠĊĠĊĠĊĠĊĠĊĠĊĠĊ":12034,"ĠWhatever":12035,"Ġtablet":12036,"Ġelectrical":12037,"Ġfaculty":12038,"Ġrecept":12039,"Ġappointment":12040,"Ġpatrol":12041,"ierre":12042,"Ġcitizenship":12043,"commun":12044,"Ġdamn":12045,"anches":12046,"Ġagriculture":12047,"Ġ);":12048,"open":12049,"Ġstunning":12050,"Ġ700":12051,"ridge":12052,"ĠPolitical":12053,"hill":12054,"Ġpowered":12055,"Ġcous":12056,"version":12057,"Ġcrown":12058,"Ġvaccine":12059,"ĠOxford":12060,"ĠHide":12061,"Ġanarch":12062,"DAY":12063,"ĠMitt":12064,"Ġreactions":12065,"ECT":12066,"ĠTreat":12067,"ĠIndians":12068,"Ġsacrifice":12069,"ims":12070,"Ġdrones":12071,"ĠNeed":12072,"ĠTerry":12073,"ĠChance":12074,"Leaks":12075,"Ġcapability":12076,"Ġsupplement":12077,"En":12078,"Ġflew":12079,"Ġ69":12080,"appropriate":12081,"ĠHispan":12082,"Ġgreet":12083,"FS":12084,"Ġmakers":12085,"Ġ^":12086,"requ":12087,"Ġaccomplished":12088,"Ġtoll":12089,"Ġash":12090,"ĠSomething":12091,"Ġweaken":12092,"Ġstressed":12093,"orer":12094,"Ð¼":12095,"ĠAbbott":12096,"pling":12097,"Ġethics":12098,"las":12099,"Ġhearts":12100,"uccess":12101,"Ġessay":12102,"ĠEss":12103,"ĠJe":12104,"Ġrice":12105,"ĠEmb":12106,"oj":12107,"ĠKit":12108,"Ġdrafted":12109,"pin":12110,"Ġtrucks":12111,"Ġcelebration":12112,"Ġtobacco":12113,"polit":12114,"Ġarguably":12115,"ĠSwiss":12116,"Ġadvised":12117,"Ġbuyers":12118,"Ġassumption":12119,"Ġcircles":12120,"Ġdevoted":12121,"emin":12122,"Ġmetaph":12123,"ĠBrus":12124,"Fig":12125,"ĠPosted":12126,"Ġsinging":12127,"Ġmountains":12128,"ĠMD":12129,"Ġepid":12130,"group":12131,"Ġscratch":12132,"Ġderived":12133,"Ġfract":12134,"Ġdecor":12135,"Ġdirectors":12136,"Ġseventh":12137,"ĠEventually":12138,"ĠAlt":12139,"ĠBuck":12140,"ĠTea":12141,"rup":12142,"Ġpressing":12143,"Ġawkward":12144,"itate":12145,"ĠSwitzer":12146,"ĠMilitary":12147,"aman":12148,"ĠPhilip":12149,"idth":12150,"ĠHum":12151,"ĠTemple":12152,"ĠBlog":12153,"Ġadvocacy":12154,"ĠKirk":12155,"Ġyard":12156,"ĠOccup":12157,"Ġboundaries":12158,"Mar":12159,"Ġ1979":12160,"Ġdepos":12161,"ĠKrist":12162,"flow":12163,"ĠFCC":12164,"oria":12165,"ĠDeputy":12166,"Ġshake":12167,"ĠInvestig":12168,"Ġcats":12169,"Ġrevealing":12170,"aughters":12171,"Ġtraveled":12172,"ĠCohen":12173,"ĠTun":12174,"ĠNotes":12175,"Ġhostile":12176,"Ġmechanics":12177,"ĠTampa":12178,"mn":12179,"Ġaudiences":12180,"Ġbund":12181,"Ġhistorically":12182,"Ġlineback":12183,"sur":12184,"ĠChap":12185,"Ġhaz":12186,"Ġspy":12187,"asted":12188,"ocus":12189,"Ġnode":12190,"jan":12191,"Ġapplying":12192,"ĠGray":12193,"Ġorientation":12194,"Ġlone":12195,"ĠAw":12196,"Ġ1987":12197,"Ġsuprem":12198,"Ġentities":12199,"ipher":12200,"Ġlyr":12201,"ĠTa":12202,"ĠWATCH":12203,"Ġconfirmation":12204,"ĠTry":12205,"ĠKeith":12206,"uez":12207,"ĠAB":12208,"itivity":12209,"ĠFried":12210,"ĠRio":12211,"gi":12212,"ĠRail":12213,"ĠTrudeau":12214,"ivan":12215,"ĠBeng":12216,"https":12217,"Ġsauce":12218,"ĠRaid":12219,"ults":12220,"ĠAround":12221,"Ġineff":12222,"Ġpainted":12223,"TIS":12224,"Ġrespective":12225,"data":12226,"mare":12227,"Ġshooter":12228,"mother":12229,"Ġfocuses":12230,"uming":12231,"Ġquantum":12232,"Ġunnecessary":12233,"ĠDub":12234,"ĠAnyone":12235,"Ġexpertise":12236,"atoes":12237,"code":12238,"Ġinterrupt":12239,"ĠBR":12240,"Ġshocking":12241,"ĠAlberta":12242,"gary":12243,"formed":12244,"Ġconclusions":12245,"atre":12246,"handed":12247,"file":12248,"Ġmotivation":12249,"Ġfrank":12250,"connect":12251,"Ġfrustrated":12252,"Ġpenalties":12253,"Ġmeth":12254,"ĠFixed":12255,"Ġillegally":12256,"ĠAlmost":12257,"Ġmandatory":12258,"rust":12259,"Ġduration":12260,"Ġstrongest":12261,"Ġ77":12262,"Ġtar":12263,"Ġacquisition":12264,"Ġtill":12265,"Ġcrops":12266,"Ġstomach":12267,"kes":12268,"mun":12269,"Ġunderstands":12270,"PI":12271,"âĦ":12272,"ĠChristie":12273,"Ġlongest":12274,"Ġprinting":12275,"?'":12276,"Ġdistinction":12277,"zes":12278,"leton":12279,"storm":12280,"minded":12281,"Ġintensity":12282,"Ġvague":12283,"Ġexperiencing":12284,"ĠInside":12285,"uerto":12286,"Ty":12287,"Ġenjoying":12288,"ĠWikipedia":12289,"matic":12290,"ĠMedicine":12291,"Ġconversion":12292,"ĠPed":12293,"Ġresponding":12294,"Ġbreach":12295,"Ġsword":12296,"stan":12297,"Ġoperates":12298,"Ġplacing":12299,"Ġceiling":12300,"Ġbears":12301,"km":12302,"Ġmild":12303,"à¸":12304,"Ġfeminist":12305,"prot":12306,"Ġhacking":12307,"Ġcoordinator":12308,"ĠDougl":12309,"ĠFranklin":12310,"liminary":12311,"vious":12312,"Ġcomputing":12313,"Ġsafer":12314,"half":12315,"Ġparticles":12316,"Ñĭ":12317,"Ġcontributing":12318,"Ġresur":12319,"Ġ73":12320,"ĠNeither":12321,"ĠMembers":12322,"Ġcounties":12323,"Ġachievement":12324,"Ġreceives":12325,"Ġcam":12326,"Ġqualify":12327,"Ġaddiction":12328,"otypes":12329,"Ġcomposition":12330,"Ġgrocer":12331,"Ġdensity":12332,"Ġbitter":12333,"Ġcalendar":12334,"Ġoversight":12335,"ĠDue":12336,"ĠReferences":12337,"Ġincomp":12338,"onia":12339,"Ġdivide":12340,"odge":12341,"ĠWant":12342,"Ġacceptance":12343,"Ġemerge":12344,"acular":12345,"agraph":12346,"Ġfastest":12347,"Ġgaining":12348,"uto":12349,"ĠFast":12350,"abling":12351,"irs":12352,"ĠArctic":12353,"ĠPok":12354,"Ġpedest":12355,"ryption":12356,"borne":12357,"utt":12358,"ĠNumber":12359,"comed":12360,"Ġscenarios":12361,"dec":12362,"ÂĶ":12363,"ĠSwitzerland":12364,"Ġcomposed":12365,"Ġ1985":12366,"Ġconservation":12367,"outheast":12368,"Ġdirections":12369,"Ġbio":12370,"Ġimperial":12371,"Ġdign":12372,"nor":12373,"Ġinvesting":12374,"ĠWorks":12375,"Ġdistant":12376,"Mus":12377,"verning":12378,"Ġoverd":12379,"Ġinsane":12380,"Ġrotation":12381,"ĠBuffalo":12382,"ĠSpeed":12383,"PDATE":12384,"Ġpriest":12385,"Ġlung":12386,"ĠMaine":12387,"Ġtransformation":12388,"ĠLock":12389,"Ġugly":12390,"Ġ==":12391,"Ġearl":12392,"mi":12393,"Ġheaven":12394,"Ġinitiatives":12395,"orient":12396,"bles":12397,"Ġmanufacturer":12398,"Ġexchanges":12399,"anded":12400,"Ġfilling":12401,"Ġdesired":12402,"Ġscary":12403,"western":12404,"Ġpor":12405,"Ġbalanced":12406,"Ġrespected":12407,"byn":12408,"Ġnull":12409,"story":12410,"Ġtune":12411,"WS":12412,"iments":12413,"ĠFiref":12414,"Ġpione":12415,"Ġcontrolling":12416,"Ġsentences":12417,"chron":12418,"ĠBesides":12419,"Ġtoile":12420,"ĠRogers":12421,"Ġserial":12422,"ortunate":12423,"ĠPrin":12424,"initely":12425,"ĠTyler":12426,"ĠChuck":12427,"ĠLynch":12428,"oa":12429,"Ġcontam":12430,"Ġ74":12431,"Ġmonetary":12432,"ulpt":12433,"Ġcondemned":12434,"acer":12435,"specific":12436,"Ġpopul":12437,"ĠDiff":12438,"ĠNeil":12439,"umbled":12440,"Ġwings":12441,"Ġtouched":12442,"Ġtunnel":12443,"ĠSusan":12444,"Ġshorter":12445,"ĠConservatives":12446,"Ġmamm":12447,"Ġprototype":12448,"Ġpeers":12449,"product":12450,"ĠNav":12451,"ĠFantasy":12452,"Ġchurches":12453,"Ġpink":12454,"Ġtutorial":12455,"Ġraid":12456,"Ġoperational":12457,"econom":12458,"ĠOscar":12459,"Ġ1930":12460,"ĠScar":12461,"lected":12462,"Ġbones":12463,"Ġcrowds":12464,"ĠSaints":12465,"Ġpanic":12466,"Ġreserves":12467,"valid":12468,"Ġrifle":12469,"Ġslavery":12470,"Ġcultures":12471,"Ġrocks":12472,"Ġresidence":12473,"Ġphilosoph":12474,"ĠFat":12475,"Ġ78":12476,"ĠFisher":12477,"ĠCircuit":12478,"ĠEV":12479,"zb":12480,"last":12481,"Ġtel":12482,"Ġtreating":12483,"Ġhumanitarian":12484,"ĠDest":12485,"tit":12486,"Ġpressed":12487,"guard":12488,"ACK":12489,"second":12490,"Ġanimated":12491,"Ġflexible":12492,"fix":12493,"Ġideological":12494,"Ġsecured":12495,"NG":12496,"Ġexplosive":12497,"ĠJets":12498,"Ġpays":12499,"Ġislands":12500,"Ġinfring":12501,"idding":12502,"Ġsubsidies":12503,"ĠDri":12504,"âĦ¢":12505,"boards":12506,"Ġnonprofit":12507,"ĠWWE":12508,"Ġanticipated":12509,"Ġagricultural":12510,"Ġfright":12511,"Ġlib":12512,"Ġformally":12513,"Ġhighway":12514,"ĠLuck":12515,"brew":12516,"Ġgreenhouse":12517,"ĠCand":12518,"ĠBh":12519,"Ġspacecraft":12520,"ĠBund":12521,"Ġcompletion":12522,"Ġnaked":12523,"ĠBrady":12524,"Ġworship":12525,"Ġfreely":12526,"Ġvolunteer":12527,"Ġheritage":12528,"drop":12529,"Ġears":12530,"Ġresigned":12531,"ĠEc":12532,"Ġacquire":12533,"ĠLiberty":12534,"ĠStre":12535,"Ġjokes":12536,"ĠCorn":12537,"ĠVenezuela":12538,"sign":12539,"ello":12540,"Ġjudicial":12541,"Ġrespondents":12542,"hol":12543,"Ġhier":12544,"Ġapprove":12545,"Ġlanes":12546,"Ġattributed":12547,"Ġattendance":12548,"UTERS":12549,"ĠPuerto":12550,"Ġinstruments":12551,"ĠChapter":12552,"roc":12553,"Ġconsequence":12554,"Ġsentiment":12555,"Ġsher":12556,"Ġpriorities":12557,"ĠSalt":12558,"Ġexem":12559,"ĠYahoo":12560,"Ġdifficulties":12561,"Ġtoken":12562,"icts":12563,"Ġturb":12564,"imens":12565,"ĠPartners":12566,"icut":12567,"Ġbuzz":12568,"('":12569,"Ġdispar":12570,"Ġconj":12571,"OG":12572,"Ġincons":12573,"ĠCentury":12574,"Ġparticipated":12575,"ĠArkansas":12576,"Ġdisclosure":12577,"atile":12578,"oard":12579,"sized":12580,"Ġchap":12581,"think":12582,"Ġelderly":12583,"ĠJu":12584,"Ġspreading":12585,"iary":12586,"rane":12587,"Hey":12588,"ilateral":12589,"Ġquotes":12590,"Ġcrude":12591,"();":12592,"ockets":12593,"Ġzomb":12594,"ĠMM":12595,"Ġworthy":12596,"Ġclever":12597,"Ġflexibility":12598,"ayed":12599,"Ġcake":12600,"Ġdeclare":12601,"chi":12602,"Ġappeals":12603,"Ġgrateful":12604,"ĠGPU":12605,"bart":12606,"iciary":12607,"izard":12608,"Ġreaches":12609,"ĠTurner":12610,"Ġexcitement":12611,"Ġexped":12612,"dale":12613,"ĠBou":12614,"supp":12615,"ĠHarvey":12616,"Am":12617,"ĠRobin":12618,"ĠAth":12619,"Ġ71":12620,"controlled":12621,"Ġrehab":12622,"Ġdesigners":12623,"ĠConsider":12624,"Ġaffair":12625,"Ġhatred":12626,"health":12627,"Ġadvantages":12628,"ĠHey":12629,"Ġdispos":12630,"Ġinstinct":12631,"ĠDanny":12632,"incinn":12633,"Ġconstrain":12634,"value":12635,"ĠMaria":12636,"ĠMorning":12637,"Ġzones":12638,"lli":12639,"ĠMcL":12640,"Ġrumors":12641,"Ġassuming":12642,"Ġlun":12643,"Ġbass":12644,"arettes":12645,"ĠFriends":12646,"Ġmechanical":12647,"Ġeconomies":12648,"ĠTig":12649,"ĠJake":12650,"erer":12651,"ĠCommunist":12652,"IE":12653,"Ġteenager":12654,"ĠContact":12655,"ĠColumbus":12656,"inging":12657,"ĠRank":12658,"charge":12659,"eller":12660,"eu":12661,"abetes":12662,"VERTIS":12663,"Ġwrapped":12664,"ĠSolar":12665,"Ġknocked":12666,"Ġreply":12667,"ĠREAD":12668,"ĠLucas":12669,"Ġsends":12670,"Ġcryptocur":12671,"ĠWikiLeaks":12672,"Ġdeliberately":12673,"NT":12674,"Ġmagical":12675,"Ġtensions":12676,"Ġinterrog":12677,"ĠMission":12678,"Ġrushed":12679,"ĠRodrig":12680,"ĠOliver":12681,"Ġresolved":12682,"Ġposed":12683,"orig":12684,"Ġalternatives":12685,"Ġrefusing":12686,"Ġannouncing":12687,"Ġprobability":12688,"Ġdeclaration":12689,"Ġlegendary":12690,"ĠDR":12691,"Ġharmful":12692,"Ġdetected":12693,"Ġ82":12694,"zo":12695,"Ġharvest":12696,"ĠRaven":12697,"Ġfluid":12698,"Ġ::":12699,"Ġpledged":12700,"Ġgrasp":12701,"ĠAMD":12702,"Ġviral":12703,"owell":12704,"because":12705,"ĠNorway":12706,"prising":12707,"ĠFel":12708,"Ġwelcomed":12709,"incinnati":12710,"orph":12711,"crat":12712,"ĠPap":12713,"ĠGarden":12714,"Ġfloating":12715,"itably":12716,"oons":12717,"Ġabsent":12718,"Ġidentifying":12719,"ousing":12720,"Ġtexts":12721,"Ġtriggered":12722,"Ġcondemn":12723,"Ġdisturbing":12724,"ĠThunder":12725,"Ġgrip":12726,"gs":12727,"Ð´":12728,"main":12729,"whe":12730,"gt":12731,"Ġfest":12732,"bage":12733,"Ġeditors":12734,"Ġtrapped":12735,"estone":12736,"Ġportfol":12737,"Ġtransparent":12738,"ĠTob":12739,"Ġabol":12740,"Ġequity":12741,"Ed":12742,"azy":12743,"Ġavoided":12744,"Ġsatisfied":12745,"Ġinhib":12746,"Ġhabits":12747,"ĠCorbyn":12748,"]:":12749,"Ġsuitable":12750,"Ġinterf":12751,"Ġreminded":12752,"Ġshifted":12753,"ĠReturn":12754,"ĠBrussels":12755,"Ġpreval":12756,"usters":12757,"Ġtendency":12758,"ĠWeiss":12759,"Ġarmor":12760,"Ġwhistle":12761,"Ġassured":12762,"ĠGuy":12763,"Ġhopeful":12764,"uri":12765,"ĠJefferson":12766,"Ġbreakfast":12767,"ĠPence":12768,"ĠPrinc":12769,"ĠÏ":12770,"ĠCass":12771,"ĠShan":12772,"ĠReading":12773,"ropolitan":12774,"keeper":12775,"ĠRC":12776,"Ġstocks":12777,"fig":12778,"Ġimmense":12779,"Ġindicating":12780,"atin":12781,"Ġinnings":12782,"Ġmutual":12783,"ĠMerkel":12784,"ĠCrown":12785,"abl":12786,"ĠImper":12787,"ocate":12788,"Ġtechnically":12789,"ĠPred":12790,"Ġsteep":12791,"ĠFDA":12792,"Ġbrains":12793,"ĠKam":12794,"Ġimagination":12795,"ĠElsa":12796,"Ġfare":12797,"Ġwidth":12798,"ĠArthur":12799,"ĠCharlotte":12800,"Ġdeployment":12801,"Ġoptimistic":12802,"Ġearliest":12803,"ĠLoad":12804,"llers":12805,"Ġthrows":12806,"Ġprovincial":12807,"Ġwaited":12808,"ĠCountry":12809,"ĠHolland":12810,"ĠMust":12811,"pace":12812,"ĠBears":12813,"Ġexcessive":12814,"ella":12815,"ĠAnim":12816,"powered":12817,"ĠIRS":12818,"Ġdeciding":12819,"Ġtemporarily":12820,"Ġpreserv":12821,"lash":12822,"Ġhybrid":12823,"Ġtrusted":12824,"fold":12825,"Ġdivorce":12826,"Ġmixture":12827,"hess":12828,"Ġcolleague":12829,"written":12830,"stock":12831,"never":12832,"Ġpresumably":12833,"ĠMadison":12834,"Ġft":12835,"Ġfitness":12836,"ĠWarriors":12837,"ĠAdded":12838,"Ġediting":12839,"ĠZh":12840,"Ġbeloved":12841,"Ġcompliance":12842,"Ġdefenders":12843,"Ġnick":12844,"beit":12845,"ĠCarson":12846,"Ġconducting":12847,"gregation":12848,"Ġrall":12849,"Ġcasting":12850,"Ġempire":12851,"acent":12852,"ĠNort":12853,"LY":12854,"ĠConnecticut":12855,"Ġminorities":12856,"ĠRoom":12857,"Ġsuppose":12858,"Ġheadline":12859,"Ġaest":12860,"Ġgrabbed":12861,"Ġfrozen":12862,"seud":12863,"Ġdose":12864,"abil":12865,"Ġbless":12866,"Ġvegan":12867,"Ġessence":12868,"Ġsocialist":12869,"iva":12870,"ĠGhost":12871,"Ġvel":12872,"Ġsocieties":12873,"Ġclicking":12874,"Ġreson":12875,"Ġlake":12876,"nered":12877,"ĠBooks":12878,"Ġchampions":12879,"Ġstructural":12880,"ĠThor":12881,"Ġpursuit":12882,"best":12883,"Ġparliamentary":12884,"Ġbuttons":12885,"Ġimmigrant":12886,"ĠJoy":12887,"gree":12888,"Ġwishes":12889,"ĠNin":12890,"ĠEmploy":12891,"Ġcolleges":12892,"somet":12893,"Ġwhites":12894,"Ġattitudes":12895,"Ġbarriers":12896,"Ġexports":12897,"ĠIslands":12898,"ĠPast":12899,"Ġsparked":12900,"ĠFab":12901,"ighed":12902,"Ġlifted":12903,"Ġsurvivors":12904,"Ġinfected":12905,"ĠBradley":12906,"Ġidentification":12907,"ĠMemorial":12908,"Post":12909,"ĠLiving":12910,"Ġì":12911,"Ġhumor":12912,"Ġfont":12913,"around":12914,"ĠIl":12915,"ĠGR":12916,"Ġtraditionally":12917,"Ġplanets":12918,"Ġbarrier":12919,"Ġsquee":12920,"Ġtourists":12921,"Ġpenet":12922,"Ġpurchases":12923,"Ġthereby":12924,"Ġcompos":12925,"esis":12926,"ctive":12927,"AV":12928,"ĠGuide":12929,"sky":12930,"Ġrecy":12931,"ĠCher":12932,"len":12933,"Ġmetab":12934,"ĠUbuntu":12935,"Ġlegislature":12936,"ĠPhone":12937,"Per":12938,"Ġfru":12939,"ĠSeven":12940,"ĠGallery":12941,"ĠAltern":12942,"Ġstrain":12943,"ĠJa":12944,"ĠClar":12945,"wal":12946,"Ġprocessor":12947,"ĠCincinnati":12948,"Ġdamaging":12949,"ĠAnne":12950,"Ġdecides":12951,"ĠPi":12952,"ĠStudio":12953,"ĠPrize":12954,"lly":12955,"Ġscrap":12956,"ĠBos":12957,"Ġdetain":12958,"Ġadmits":12959,"Ġurge":12960,"aukee":12961,"Ġeconomists":12962,"Ġapproaching":12963,"vals":12964,"Ġcartoon":12965,"Ġgrows":12966,"Ġtrop":12967,"otton":12968,"afi":12969,"Ġromantic":12970,"Ġauction":12971,"ĠMort":12972,"Ġnons":12973,"ructive":12974,"Ġhorm":12975,"ĠURL":12976,"ĠMC":12977,"ĠBY":12978,"master":12979,"---":12980,"oner":12981,"Ġtemplate":12982,"âĸĪâĸĪ":12983,"ĠAdvent":12984,"Ġethical":12985,"Ġmeantime":12986,"fil":12987,"Ġathletic":12988,"ĠØ":12989,"ationally":12990,"eor":12991,"Ġliberals":12992,"Ġpursuing":12993,"Ġreminder":12994,"GM":12995,"ĠCommunications":12996,"Ġdisg":12997,"ĠCambridge":12998,"ĠWR":12999,"tech":13000,"ĠPL":13001,"plex":13002,"rained":13003,"ski":13004,"start":13005,"ĠProfile":13006,"2011":13007,"Ġretreat":13008,"Ġ>>":13009,"tha":13010,"ĠUniverse":13011,"ĠVerizon":13012,"Ġverdict":13013,"IVE":13014,"Pal":13015,"Ġunity":13016,"ĠHunt":13017,"ĠPeters":13018,"Ġflip":13019,"ĠGlass":13020,"Ġ180":13021,"Ġundermine":13022,"ĠStars":13023,"Ġunfortunate":13024,"Ġembedded":13025,"ĠVermont":13026,"Ġsacrific":13027,"Ġobservation":13028,"Ġtang":13029,"Ġwallet":13030,"Ġsecrets":13031,"Ġhackers":13032,"ĠSW":13033,"ĠREUTERS":13034,"forcement":13035,"ĠGarc":13036,"Ġmasc":13037,"Ġpurely":13038,"Ġtong":13039,"Ġ88":13040,"actor":13041,"owners":13042,"ĠImagine":13043,"Ġdonated":13044,"tics":13045,"enna":13046,"Ġbreakdown":13047,"ĠEbola":13048,"Ã£":13049,"peror":13050,"Ġwinds":13051,"ĠMeet":13052,")|":13053,"Ġoffset":13054,"Ġexempt":13055,"ector":13056,"Ġfailures":13057,"Ġpreference":13058,"Ġcomply":13059,"Look":13060,"note":13061,"school":13062,"when":13063,"Ġpassionate":13064,"ĠUniversal":13065,"Ġlicensed":13066,"Ġemotion":13067,"Ġampl":13068,"ĠSave":13069,"Ġpermits":13070,"path":13071,"Ġwarnings":13072,"big":13073,"Ġexpend":13074,"ĠMuham":13075,"roller":13076,"Te":13077,"Ġeconomist":13078,"waukee":13079,"Ġrecount":13080,"visor":13081,"orses":13082,"ĠSpirit":13083,"media":13084,"Ġouter":13085,"tail":13086,"urred":13087,"izable":13088,"ÑĮ":13089,"ĠSelf":13090,"Ġvariation":13091,"quality":13092,"ĠPolish":13093,"ĠSerge":13094,"ĠBetter":13095,"Ġaccountable":13096,"backed":13097,"ĠIndonesia":13098,"Ġvertical":13099,"Ġbottles":13100,"ĠDNC":13101,"ĠCoach":13102,"var":13103,"ĠOd":13104,"Ġdraws":13105,"ĠKle":13106,"Ġ1982":13107,"Ġbatteries":13108,"Ġsensor":13109,"Ġ()":13110,"ĠRosen":13111,"five":13112,"ĠHindu":13113,"Ġexecute":13114,"Ġstabil":13115,"ĠGonz":13116,"ĠGlenn":13117,"ĠLeaf":13118,"olk":13119,"Ġsilly":13120,"Ġsequel":13121,"Ġscreening":13122,"Ġcomparing":13123,"pop":13124,"inates":13125,"ĠDouglas":13126,"Ġconclude":13127,"Ġsucceeded":13128,"urned":13129,"Any":13130,"110":13131,"ĠCM":13132,"Ġregulators":13133,"Ġlobbying":13134,"Ġarriving":13135,"Ġcheer":13136,"Ġdemol":13137,"ĠHub":13138,"Ġ1983":13139,"Ġfraction":13140,"Ġlaser":13141,"Ġgifts":13142,"ĠCu":13143,"VERTISEMENT":13144,"Ġaftermath":13145,"Ġwondered":13146,"lib":13147,"ĠRams":13148,"Ġhoney":13149,"Ġslave":13150,"ĠSay":13151,"ĠVirt":13152,"Ġdecreased":13153,"Ġunders":13154,"Ġcapitalist":13155,"Ġcounting":13156,"points":13157,"ĠPakistani":13158,"Ġcreep":13159,"Ġdys":13160,"ĠÂ·":13161,"Ġdisorders":13162,"Ġdestroying":13163,"Ġsued":13164,"Ġtreatments":13165,"ĠUpdated":13166,"ĠRecord":13167,"Ġdiagnosed":13168,"Even":13169,"ĠBelgium":13170,"Ġhill":13171,"Ġtragic":13172,"ĠDM":13173,"Ġfeeding":13174,"Ġdaughters":13175,"Ġlasted":13176,"Ġfinancing":13177,"anka":13178,"ĠCelt":13179,"Ġdonation":13180,"irable":13181,"Ġgoverning":13182,"ĠBash":13183,"Ġmasses":13184,"Ġreun":13185,"Ġreconst":13186,"ĠVeter":13187,"Ġfemales":13188,"Ġintentions":13189,"Ġadvances":13190,"isers":13191,"Net":13192,"Ġmillenn":13193,"Ġfence":13194,"Ġgenerous":13195,"Ġdece":13196,"ĠÐ¿":13197,"Ġcompound":13198,"Ġlacking":13199,"utical":13200,"Ġtrash":13201,"Ġinsect":13202,"ĠðŁ":13203,"Ġslower":13204,"Ġseparation":13205,"Sec":13206,"Ġlip":13207,"Ġedited":13208,"advant":13209,"Ġcorresponding":13210,"Ġrib":13211,"writer":13212,"haul":13213,"Ġmedian":13214,"rape":13215,"dig":13216,"ĠMember":13217,"acceptable":13218,"Ġdispro":13219,"px":13220,"ĠNobody":13221,"Ġtreaty":13222,"Ġunh":13223,"ĠÂĵ":13224,"Ġ02":13225,"ãģ®":13226,"ĠPhotograph":13227,"ussion":13228,"Ġcort":13229,"Ġcontacts":13230,"normal":13231,"giving":13232,"Ġmonop":13233,"Ġpizza":13234,"ĠMormon":13235,"Ġenhanced":13236,"Ġfarms":13237,"ĠJS":13238,"idays":13239,"ĠPick":13240,"Ġfierce":13241,"Ġhelicopter":13242,"itbart":13243,"Ġbeneficial":13244,"Ġawa":13245,"Ġcluster":13246,"shirt":13247,"Ġcub":13248,"Ġvillages":13249,"ĠNixon":13250,"ĠMethod":13251,"ĠShadow":13252,"ĠSor":13253,"arents":13254,"Ġretailers":13255,"arenthood":13256,"Ġtenure":13257,"ĠTitle":13258,"Ġcareers":13259,"Ġcollapsed":13260,"hal":13261,"Ġconsiders":13262,"ĠHalf":13263,"ĠFinance":13264,"Ġeleph":13265,"urse":13266,"Ġsuspicion":13267,"ĠColomb":13268,"John":13269,"Ġfeared":13270,"store":13271,"ĠStudios":13272,"Ġtransformed":13273,"Ġbeers":13274,"Ġstreak":13275,"Ġfounding":13276,"ĠJoh":13277,"ĠToo":13278,"Ġboring":13279,"ĠAmy":13280,"Ġtaxpayer":13281,"eded":13282,"Ġcommissioner":13283,"oni":13284,"ĠTheatre":13285,"ĠSciences":13286,"ĠPokÃ©":13287,"Ġisolation":13288,"angelical":13289,"Ġtraits":13290,"ĠCowboys":13291,"Ġencount":13292,"oler":13293,"ĠIslamist":13294,"ĠRelations":13295,"ĠSearch":13296,"Ġindict":13297,"Ġencountered":13298,"cribed":13299,"Ġinclusion":13300,"Ġsuspicious":13301,"gian":13302,"Ġsmugg":13303,"Ġthirty":13304,"Ġorganisations":13305,"Ġinterference":13306,"ĠQB":13307,"Ġdirectory":13308,"ĠMichelle":13309,"Ġsooner":13310,"Ġcleaning":13311,"ĠIsa":13312,"ĠIncre":13313,"umm":13314,"ĠRat":13315,"arest":13316,"Ġgravity":13317,"Ġdoubled":13318,"ĠBernard":13319,"================":13320,"ĠMason":13321,"Ġaging":13322,"President":13323,"mouth":13324,"ĠYears":13325,"CD":13326,"home":13327,"Ġcredibility":13328,"ĠLane":13329,"Ġagrees":13330,"ĠMaking":13331,"Ġbelieving":13332,"iph":13333,"ĠWorking":13334,"adows":13335,"Ġdumb":13336,"heric":13337,"Ġfiref":13338,"Ġcivilization":13339,"Ã©s":13340,"Ġkingdom":13341,"ĠHills":13342,"Ġmock":13343,"Ġfib":13344,"ĠGetting":13345,"Ġdenial":13346,"Ġobserve":13347,"Ġgrace":13348,"Ġsteam":13349,"Ġspawn":13350,"Ġstatistical":13351,"Ġnovels":13352,"cha":13353,"Ġleverage":13354,"Ġcontinuous":13355,"Ġbreathing":13356,"ĠJohnny":13357,"Ġoutright":13358,"Ġcompiled":13359,"Ġinvite":13360,"ĠLebanon":13361,"claimed":13362,"amps":13363,"ollah":13364,"Ġauthorized":13365,"ĠTD":13366,"ĠBB":13367,"ĠMarco":13368,"rien":13369,"ĠâĢľ[":13370,"Ġgamers":13371,"Ġboyfriend":13372,"ools":13373,"ĠKind":13374,"ĠMO":13375,"ĠSoftware":13376,"Ġaired":13377,"Ġhence":13378,"olo":13379,"Ġurging":13380,"Id":13381,"Ġpilots":13382,"Ġinstruction":13383,"Ġwarfare":13384,"Ġlau":13385,"Ġshifts":13386,"ĠArgentina":13387,"Ġmagnitude":13388,"Ġjustified":13389,"ĠJennifer":13390,"Ġeliminated":13391,"Ġinstitutional":13392,"Ġrecruiting":13393,"View":13394,"Ġeducated":13395,"ĠGay":13396,"Ġworkplace":13397,"direct":13398,"ĠMerc":13399,"Time":13400,"Ġglob":13401,"ĠBros":13402,"earchers":13403,"itative":13404,"plan":13405,"cend":13406,"Ġevaluate":13407,"Ġnan":13408,"Ġrhyth":13409,"Ġcodes":13410,"Ġtrafficking":13411,"UE":13412,"ĠBJP":13413,"Ġbranches":13414,"Ġroutinely":13415,"Ġlabels":13416,"Ġgenet":13417,"Ġenables":13418,"Ġsponsored":13419,"Ġlicensing":13420,"Ġpleaded":13421,"Ġdamages":13422,"Ġpartial":13423,"ĠAlf":13424,"ĠLisa":13425,"Ġwheels":13426,"ĠInv":13427,"ĠCond":13428,"Ġcrying":13429,"ĠHi":13430,"Ġwrestling":13431,"Ġrealm":13432,"Ġacres":13433,"ĠEither":13434,"Ġriot":13435,"ĠTill":13436,"ĠWalter":13437,"ĠSent":13438,"Mod":13439,"Ġcreators":13440,"ĠGates":13441,"Ġinvented":13442,"Ġ1920":13443,"ĠHat":13444,"Ġ110":13445,"igma":13446,"ĠAqu":13447,"ĠHem":13448,"Ġrushing":13449,"opard":13450,"Ġterminal":13451,"Ġsculpt":13452,"2010":13453,"essional":13454,"aceutical":13455,"stage":13456,"Ġorganizing":13457,"Ġincentives":13458,"Ġfirmly":13459,"astically":13460,"urable":13461,"driven":13462,"Ġtranslated":13463,"Ġdirt":13464,"source":13465,"coins":13466,"Ġconnecting":13467,"Ġdecks":13468,"aux":13469,"Book":13470,"Who":13471,"Å¡":13472,"Ġentrepreneurs":13473,"outube":13474,"ĠAve":13475,"Ġhypothesis":13476,"Ġultra":13477,"ĠSpider":13478,"Ġvisa":13479,"Ġincentive":13480,"Ġlayout":13481,"ĠInit":13482,"ĠES":13483,"aha":13484,"Ġscreaming":13485,"Ġvacation":13486,"Ġsolidarity":13487,"width":13488,"Ġcocaine":13489,"cker":13490,"Ġmidfielder":13491,"Ġmonsters":13492,"Ġlyrics":13493,"pur":13494,"ĠMilwaukee":13495,"Ġpeoples":13496,"illo":13497,"alog":13498,"Ġregards":13499,"aley":13500,"resa":13501,"Ġshar":13502,"Ġintroducing":13503,"Ġcomparable":13504,"Ġteens":13505,"Ġpreliminary":13506,"ĠViol":13507,"Cal":13508,"ĠBudget":13509,"Ġunveiled":13510,"Ġmentally":13511,"ĠImpro":13512,"Ġ79":13513,"lude":13514,"ĠOwn":13515,"Ġvibr":13516,"ĠJar":13517,"Ġarrangement":13518,"Ġunst":13519,"MB":13520,"ifting":13521,"cs":13522,"Ġtoy":13523,"engu":13524,"Ġappealing":13525,"Ġjumping":13526,"Ġpsychology":13527,"ĠWoman":13528,"Ġtouchdowns":13529,"feld":13530,"Ġgrain":13531,"Ġcommented":13532,"ĠNPR":13533,"ĠBrazilian":13534,"Ġbust":13535,"Ġfinan":13536,"Ġfuneral":13537,"ĠTravel":13538,"Ġproceedings":13539,"ĠNG":13540,"Ġadequate":13541,"Ġexceptions":13542,"ĠRah":13543,"Ġdetermination":13544,"reach":13545,"Last":13546,"Ġunrest":13547,"Ġshoulders":13548,"iots":13549,"Ġworkforce":13550,"ueller":13551,"ĠPT":13552,"ĠLED":13553,"ĠStudents":13554,"Over":13555,"Ġtraditions":13556,"ugged":13557,"Ġtrace":13558,".âĢľ":13559,"ĠHope":13560,"Ġ1981":13561,"Ġclimbing":13562,"ĠCarlos":13563,"Ġsnaps":13564,"ĠRace":13565,"Ġmarine":13566,"je":13567,"Ġconvinc":13568,"Ġcompassion":13569,"ordable":13570,"Ġaccurately":13571,"Ġsheer":13572,"Ġ84":13573,"Ġdivers":13574,"ĠGoldman":13575,"Ġcelebrity":13576,"Ġsweat":13577,"ĠBlues":13578,"umbling":13579,"Ġtriple":13580,"DB":13581,"Here":13582,"ĠServer":13583,"Ġmatching":13584,"iasm":13585,"Ġwildlife":13586,"Ġanime":13587,"Ġsectors":13588,"ĠBrooks":13589,"Ġwillingness":13590,"ĠBrun":13591,"Ġthreaten":13592,"Ġtwist":13593,"Ġtemple":13594,"anium":13595,"ĠLost":13596,"elta":13597,"ĠWonder":13598,"Ġpupp":13599,"oncos":13600,"Ġlikelihood":13601,"live":13602,"NET":13603,"Ġpaths":13604,"Ġcricket":13605,"affe":13606,"Ġcounted":13607,"Ġbetray":13608,"ĠSox":13609,"cca":13610,"ĠIss":13611,"ĠRic":13612,"ĠReed":13613,"Ġcounterparts":13614,"arthy":13615,"ulative":13616,"Ġinvestor":13617,"Ġlengthy":13618,"ĠDennis":13619,"ellar":13620,"ĠÂ»":13621,"ITY":13622,"ĠStop":13623,"Ġnegotiate":13624,"Ġprecious":13625,"erences":13626,"ĠPere":13627,"ĠBroncos":13628,"raham":13629,"Ġcents":13630,"ocker":13631,"Ġamend":13632,"Ġdescript":13633,"ublin":13634,"Ġshed":13635,"Ġavoiding":13636,"iking":13637,"ĠIde":13638,"Ġfict":13639,"Ġunch":13640,"ppy":13641,"Ġmagnetic":13642,"onnect":13643,"Ġdisappointing":13644,"ride":13645,"Ġcreativity":13646,"Ġjew":13647,"issa":13648,"Ġearthquake":13649,"ĠWorkers":13650,"Ġsmartphones":13651,"Ġestablishing":13652,"Ġdubbed":13653,"Ġmeals":13654,"Ġplaint":13655,"Ġ130":13656,"Ġshifting":13657,"ĠSel":13658,"table":13659,"Ġindirect":13660,"ĠQaeda":13661,"Ġalbums":13662,"occ":13663,"airy":13664,"Ġcod":13665,"ateur":13666,"image":13667,"ĠLtd":13668,"isible":13669,"ĠTransportation":13670,"oline":13671,".:":13672,"Ġ1967":13673,"Ġprohibited":13674,"Ġseverely":13675,"ĠÃĹ":13676,"ĠUser":13677,"Ġmotorcy":13678,"Ġfolder":13679,"ĠPAC":13680,"Ġdism":13681,"Ġspare":13682,"ĠTory":13683,"Ġoverlook":13684,"ĠBennett":13685,"ĠJuan":13686,"ĠSuperman":13687,"Ġendorsed":13688,"Ġsensors":13689,"Ġparagraph":13690,"Ġintu":13691,"Ġgenerating":13692,"ĠADVERTISEMENT":13693,"Ġaveraged":13694,"days":13695,"ĠSeah":13696,"ulum":13697,"Ġimplementing":13698,"lie":13699,"Ġrenewed":13700,"ĠObject":13701,"Ġaccounting":13702,"ĠHarrison":13703,"Ġox":13704,"ĠSpencer":13705,"uced":13706,"Us":13707,"Ġworn":13708,"Ġkills":13709,"have":13710,"Ġdivid":13711,"ĠRepresentatives":13712,"ĠMuhammad":13713,"ĠTruth":13714,"Ġconsumed":13715,"Ġmerc":13716,"ĠNex":13717,"ĠVA":13718,"Ġmusicians":13719,"ivic":13720,"Ġcertificate":13721,"Ġleagues":13722,"Ġmarry":13723,"Ġreflection":13724,"Ġimpress":13725,"ĠTribune":13726,"acker":13727,"itated":13728,"Ġwooden":13729,"ĠResources":13730,"rose":13731,"Ġindigenous":13732,"rer":13733,"Ġfilming":13734,"ĠDouble":13735,"Ġaccompany":13736,"Ġcorners":13737,"llo":13738,"Ġspecialist":13739,"pse":13740,"aku":13741,"Com":13742,"ĠSelect":13743,"ĠiT":13744,"Ġlawsuits":13745,"Ġ101":13746,"ĠCharg":13747,"bull":13748,"OST":13749,"acious":13750,"etta":13751,"Ġshaped":13752,"ĠShar":13753,"Ġbrave":13754,"ĠHighway":13755,"Ġvon":13756,"Ġproblematic":13757,"aghd":13758,"Ġ81":13759,"Ġescaped":13760,"Ġassumptions":13761,"See":13762,"Ġfolk":13763,"Ġorg":13764,"munition":13765,"ĠQuick":13766,"Ġsubscription":13767,"ĠPrim":13768,"Ġ1968":13769,"Ġinteractive":13770,"Ġtradem":13771,"ĠAld":13772,"Ġslip":13773,"Â®":13774,"Ġdiox":13775,"Ġreasoning":13776,"ĠPalestine":13777,"ĠUrban":13778,"Ġinmates":13779,"tic":13780,"inance":13781,"ĠShel":13782,"ĠAnaly":13783,"Ġinch":13784,"Ġliterary":13785,"ĠKel":13786,"Ġrecalls":13787,"zech":13788,"iang":13789,"ooting":13790,"Ġ1940":13791,"Today":13792,"ĠExchange":13793,"Ġye":13794,"ĠBuzz":13795,"Ġtriumph":13796,"ĠKoch":13797,"ĠArmen":13798,"Ġchains":13799,"Ġcra":13800,"Ġattacker":13801,"ĠClose":13802,"Ġlesser":13803,"ĠPas":13804,"ĠFL":13805,"Ġspecified":13806,"ahl":13807,"nik":13808,"ĠGate":13809,"Ġslaves":13810,"gel":13811,"aws":13812,"asm":13813,"Ġleaf":13814,"Ġaggression":13815,"ĠPalin":13816,"Ġbankruptcy":13817,"olphins":13818,"ulent":13819,"ocaly":13820,"Ġconsultant":13821,"Ġunderway":13822,"ĠCollect":13823,"ĠCalgary":13824,"Ġpowder":13825,"Ġaffecting":13826,"ugging":13827,"ĠAgree":13828,"ĠMovement":13829,"Ġdarkness":13830,"Ġhij":13831,"Ġroyal":13832,"Ġadaptation":13833,"Ġfarming":13834,"ĠEight":13835,"Åį":13836,"Ġholy":13837,"Ġwherever":13838,"ĠTerror":13839,"ocity":13840,"ĠStudy":13841,"Ġvulnerability":13842,"Ġfundraising":13843,"ĠGear":13844,"ĠElectric":13845,"ĠGermans":13846,"iosity":13847,"closure":13848,"ĠBilly":13849,"ĠSystems":13850,"ambling":13851,"Ġsail":13852,"Ġcontinent":13853,"IDS":13854,"orns":13855,"Ã£o":13856,"Ġwreck":13857,"Ġcompatible":13858,"iop":13859,"Ġhealing":13860,"Ġresume":13861,"Ġtimeline":13862,"Ġrelating":13863,"ĠWallace":13864,"Ġ__":13865,"Ġ83":13866,"ĠMMA":13867,"âĶĢâĶĢ":13868,"Ġesp":13869,"Ġpants":13870,"ĠBlair":13871,"ĠGive":13872,"ĠSoul":13873,"ĠNE":13874,"Ġtranscript":13875,"ĠOfficials":13876,"ĠEdwards":13877,"Ġdetection":13878,"ĠComics":13879,"Ġtub":13880,"wart":13881,"Ġmounted":13882,"kees":13883,"ĠPlanned":13884,"ĠCart":13885,"eches":13886,"Christ":13887,"ĠDenmark":13888,"ĠFile":13889,"iliation":13890,"ĠGMT":13891,"esity":13892,"Ġleather":13893,"ĠUnit":13894,"asi":13895,"Ġexhaust":13896,"Ġtatt":13897,"Ġcycling":13898,"Ġswimming":13899,"Ġpredictions":13900,"auer":13901,"than":13902,"ullivan":13903,"Ġdelays":13904,"Ġdemon":13905,"Ġstatue":13906,"Ġsheriff":13907,"ĠUpon":13908,"levant":13909,"Ġaudit":13910,"ignt":13911,"Ġoh":13912,"Ġsupportive":13913,"ĠHud":13914,"neath":13915,"ĠRou":13916,"Ġforming":13917,"ĠHockey":13918,"Ġmaker":13919,"Ġpurchasing":13920,"ĠSi":13921,"Ġbite":13922,"ĠZero":13923,"ĠOperation":13924,"Ġ***":13925,"cules":13926,"Ġswift":13927,"ĠAssistant":13928,"anto":13929,"Ġcrashed":13930,"Ġhed":13931,"Ġsuits":13932,"ĠAgr":13933,"Ġtrap":13934,"atherine":13935,"Ġfuels":13936,"Ġadmission":13937,"Ġgods":13938,"Ġthoroughly":13939,"ĠGit":13940,"ĠHero":13941,"Ġgarbage":13942,"Ġsie":13943,"ĠJoined":13944,"ĠMack":13945,"Ġorigins":13946,"Ġadjusted":13947,"ĠActiv":13948,"rowth":13949,"Ġmortality":13950,"Ġskilled":13951,"Ġabused":13952,"Ġshootings":13953,"Ġ98":13954,"kg":13955,"Ġphotographer":13956,"ĠRachel":13957,"Ġgray":13958,"Ġlaughing":13959,"Ġ1976":13960,"Ġafterwards":13961,"âĪĴ":13962,"people":13963,"ĠGPS":13964,"Ġpractically":13965,"ĠLiberals":13966,"pered":13967,"List":13968,"Ġsuperhero":13969,"Ġ86":13970,"Ġlinear":13971,"Ġlecture":13972,"Ġdiabetes":13973,"Ġresignation":13974,"ĠBreitbart":13975,"BL":13976,"ĠEpisode":13977,"Ġclassical":13978,"enc":13979,"Ġmph":13980,"inos":13981,"ĠACL":13982,"Ġsounded":13983,"Ġpepper":13984,"addy":13985,"Ġencryption":13986,"Ġapology":13987,"INE":13988,"Ġinappropriate":13989,"issance":13990,"Ġveto":13991,"enz":13992,"ĠCertain":13993,"Ġcostly":13994,"Ġlocally":13995,"Ġteenage":13996,"Ġlap":13997,"Ġpub":13998,"ppo":13999,"Ġblacks":14000,"Ġindependently":14001,"Ġshore":14002,"ĠGas":14003,"ĠHomeland":14004,"Ġbuses":14005,"Ġ1973":14006,"Ġobligation":14007,"Ġmobil":14008,"jar":14009,"Ġbroadband":14010,"Ġlocals":14011,"rants":14012,"Ġdisk":14013,"Ġrepublic":14014,"Ġkernel":14015,"ĠNA":14016,"Ġclinic":14017,"Ġinsists":14018,"Israel":14019,"Ġairline":14020,"Ġunfold":14021,"ailand":14022,"uum":14023,"four":14024,"ä¸":14025,"black":14026,"Ġedges":14027,"Ġpublishers":14028,"ĠCreek":14029,"ĠNDP":14030,"Ġautonomous":14031,"Ġconsolid":14032,"Ġtestified":14033,"Ġ1972":14034,"Ġcorporation":14035,"ĠPun":14036,"Ġrankings":14037,"bean":14038,"Ġtrauma":14039,"Ġdisadvant":14040,"ĠTeh":14041,"Ġunanim":14042,"ĠJamie":14043,"idges":14044,"ARD":14045,"ĠRaiders":14046,"Ġintercept":14047,"Ġvegetables":14048,"Ġforums":14049,"ĠDefence":14050,"ĠChile":14051,"HD":14052,"...\"":14053,"Ġevaluation":14054,"Ġcolonial":14055,"Ġintend":14056,"Ġquery":14057,"ĠMarl":14058,"ĠGriffin":14059,"ĠVikings":14060,"ĠBulls":14061,"selling":14062,"Ġcm":14063,"Ġneat":14064,"umbl":14065,"Ġstraightforward":14066,"ĠMalaysia":14067,"Ġprest":14068,"ĠMi":14069,"Ġhalt":14070,"Ġ1975":14071,"ĠAbs":14072,"Ġorganize":14073,"ĠLegend":14074,"olan":14075,"ĠFly":14076,"ĠLaura":14077,"wer":14078,"abul":14079,"actic":14080,"team":14081,"Ġswitched":14082,"Ġportfolio":14083,"Ġoffshore":14084,"olutions":14085,"Ġarchae":14086,"Ġdoctrine":14087,"bul":14088,"ĠParenthood":14089,"Ġprox":14090,"Ġembassy":14091,"Ġrated":14092,"ĠJoin":14093,"ĠSeahawks":14094,"ocumented":14095,"Ġinfamous":14096,"iberal":14097,"Ġloving":14098,"Ġbesides":14099,"Ġalternate":14100,"Ġfrustrating":14101,"ĠFitz":14102,"qual":14103,"Ġrebell":14104,"Ġexpose":14105,"Ġlaboratory":14106,"viol":14107,"Ġdated":14108,"proof":14109,"ĠGB":14110,"ĠDublin":14111,"gro":14112,"Ġnuts":14113,"ĠShield":14114,"Ġcharts":14115,"BER":14116,"ĠPros":14117,"ocaust":14118,"ĠArn":14119,"funded":14120,"Ġqualities":14121,"ĠOriginal":14122,"Ġlimiting":14123,"Ġseiz":14124,"Ġleaks":14125,"ĠIb":14126,"120":14127,"oubted":14128,"Î±":14129,"ignty":14130,"Ġprivately":14131,"Ġobservers":14132,"ahn":14133,"Ġmatched":14134,"ĠMueller":14135,"ĠFourth":14136,"illery":14137,"Ġoutbreak":14138,"Ġsacred":14139,"Ġlisting":14140,"Ġfame":14141,"ĠSilicon":14142,"Ġnominated":14143,"ĠOt":14144,"ĠColon":14145,"ioned":14146,"Ġathlete":14147,"00000000":14148,"iology":14149,"Ġ03":14150,"Ġdiagnosis":14151,"Ġuncons":14152,"Ġbehaviors":14153,"Ġimagined":14154,"Ġattributes":14155,"Ġeighth":14156,"eren":14157,"Ġsearches":14158,"alin":14159,"keys":14160,"Ġexamination":14161,"Ġinfer":14162,"Ġstriker":14163,"rament":14164,"ĠMcCarthy":14165,"ĠAccount":14166,"Ġexercises":14167,"DE":14168,"blem":14169,"othy":14170,"Ġdealers":14171,"ĠSpot":14172,"uv":14173,"ĠBryant":14174,"Ġelaborate":14175,"artisan":14176,"Ġmodes":14177,"Ġmisleading":14178,"ository":14179,"Ġports":14180,"itis":14181,"pelled":14182,"Ġaccommodate":14183,"ĠÙ":14184,"Ġsisters":14185,"Ġorche":14186,"ĠApparently":14187,"Ġune":14188,"ĠVillage":14189,"ĠSL":14190,"ĠIv":14191,"azed":14192,"ĠBreak":14193,"Ġstays":14194,
[...]
